111001000
1111111100100100
1111111001111111
1111111101111110
1111111100111101
1000010001
1111111110110011
1111111101101110
1111101111110110
1111110101001101
1111110011110001
1111101101101000
1111101111111001
1111101110001111
1111111100100000
110001001
10000111011
110111
1010000000
1111111000101100
1111110110001110
1111110000011011
1111101001101110
1111110101001001
10111111
11010010101
11001100110
101011100101
11110010
1111111111011111
1000110
1111111111010010
1111111011100101
11010011
100100001
1111110111010000
1111110100001011
1111101111111010
1111110010111110
1111101110001110
1111101100110001
1111110110001101
1111110010110011
1111111111001011
101010011
1111110101100111
110101
1111111110111001
1111110000010100
1111111000101001
1111101010111111
1111110011000010
1100000
10001010111
10011111101
11011110010
1111111010100010
1111111101011111
1011001
1111111110100010
1111111011010000
101000000
111000
1111110001111100
1111110111010001
1111110101001110
1111110001111110
1111101100011110
1111110000000000
1111110011001110
1111110100011110
1111111001110110
1111111110011100
1111111010000101
1111101111101000
1111111001011001
1111111010001110
1111110001100001
1111100111111010
1111110001000111
11100110
1011001010
111010011
11000111110
1111111000000100
1111111101001010
1111111001101010
1111111111001110
1111111110001000
10110
1010011110
1111110110111101
1111111010110101
11001011
1111111101110011
1111101011110100
1111101100010101
1111100011101111
1111101101000100
1111110
1111110001101000
1111111010101001
111110
1111111101101010
1111111100000010
1111111001010000
1111101011010101
1111101110001011
10010110
11010011
10001010
10101100010
1111110111010000
1111111001001011
1111111111001110
1010110
1111110111011010
1111111001011100
111010101
1111111100100111
1111111011100000
111011100
1010111
1111110010111011
1111110101110001
1111101011001111
1111100000000111
1111110111100000
1111111001111100
111100110
10101010001
1011000100
1101000
1111111000000001
1111101110000000
1111101110111010
1111111101101011
101110101
1000001001
1000101010
1111111001111000
1111111011011000
1111111011111101
111
1111111111000110
1111111010100101
111100010
1111111110001110
1111111110010101
1111111101111111
1111111000110001
1111101011101111
1111101111011101
1111101100111100
1111110101110110
1111111001011000
100100011
1010110100
10001111
10000010101
1000100100
1111111110000110
1111110010000111
1111111001010000
1111110000000010
10101010
10011101
10
1111111111000110
1111111010001011
1111111001110011
1111111100010111
1111111010100000
1111110101110001
1000011010
101011110
1111111100101000
1111111110001011
1111101011011011
1111110001111100
1111111101010010
1111101100101010
1111111010100000
101110
1100100011
101100110
1011001
1100100111
110100111
1111110111001111
11111
1111110011100100
1111100101011111
1111111101110010
100001
1111111010100101
1110001
1111111001001000
1111111110010010
1010111
1111111111001001
1111110101110111
1111111010100011
101111010
1111111100101110
101010011
1111110100101110
1000101011
10011010000
10001011011
110110100
1111111011111111
1111111111110011
1111101110111001
1111110110110100
10101001011
111111100
1111101011010011
11010
1111110100101001
1111100101000100
1111110000110101
1111111010010100
1111111010100111
1
1111111001011011
1111111100101011
11010111
1111111100011101
1111110101111101
1111101111100010
1111111111111101
1111111110110101
1011110110
1111111001010001
1000100101
11100101111
101011001011
10100010001
1111111101100010
1101110
1111111010111001
1111110100000001
1001011101
111101
1111110000100110
11101011
1111111001000001
1111011011000100
1111100111100100
1111111010000111
1111111101000100
1111111101100011
1111111000101011
101110
10111100
1111111010101001
1100110
1111110110111011
1111111100110110
1111111111011100
1111111111000001
110000110
1000111010
10111011100
11011001000
10100011101
101111000
1111101100101111
1111100110011011
1111110011100000
1111101110111001
1111101110010110
1111111001111110
11011100
11010111
1111101010101010
1111101100001100
1111110000100110
1111111110010111
11011011
1111110111011010
10001000
11000000
1111111001111001
1111111100000001
11110001
1111111111000000
1111111111010011
1111111100011011
1111111111101110
1100100110
1010011100
1111111101100001
1101110000
110010011
1111011011100111
1111100000111000
1111110100101100
1111111110000000
1111110110111011
100110011
1001110111
1011101101
1111110010011010
1111101000111011
1111101001111100
1111111110101010
100000111
1111111010000110
100101010
1110011
1111110100101011
1111111111001001
1111110111000000
1111111111111001
1111111010101011
1111110100110101
1111111100111100
11011001
100111011
1111101111110010
1111111010001001
1111100111011010
1111011101101100
1111011111101001
1111101111100100
11111000
1111101011101100
1000100010
11011001100
1100000100
1111110011000010
1111101000011010
1111101110011011
1111111011100101
1111111100010100
1111111101101100
1111111101111010
1111111001011111
1111110110011010
1111111010011000
1111111011101110
1111111101010001
1111110011000000
1111101100100000
1011110
1111111110010011
100001100
100000000
1111110010010000
1111100100011010
1111011110111000
1111100100000100
1111111111110010
1111110100011001
1111100001110001
1001001100
11000101000
1111111100001011
1111111000001010
1111100111000101
1111111111001010
1111111010101110
1111110111101011
1111111001101101
1111111101100011
1111101111111111
11001111
1111111000100001
1111111001101101
1111110101100101
1111111001100011
101001101
1011100100
110011011
1111111101101000
1111111011111101
1111111101110110
1111101101100110
1111101111001011
1000000000
1111111111100011
1111110011000000
1111011100110110
1111111100100101
100011001
1111111010111000
1111111101001001
1111111110110110
10111000
1111110110111101
1111111011110111
1111111011110000
1111111001100110
1111110111110011
1111111101101101
1111111101110001
1111111010110010
1111111110100000
1010001001
1110111001
100010010
111011101
1111111011110001
1111101100000001
11111000
1111111110010110
1111110110011100
1111111010101110
1011000010
1111111010000000
1111111000110100
1111110101111011
1111111101111011
10000111
1010101001
110011
1010010010
10001011
1111111011010011
1001110
1111111101100111
1111111010011010
101000
1111111010000011
1111111100001001
1111111011011100
101110011
111111011
111000100
111100101
1111111100110011
1001100
101101
1111110011001111
1111110
1010101011
10010000000
10110101011
1000001000
1111101011000010
1111111010110110
111110001
10011001100
1001110010
101010110
1111111111101110
1111110101010010
101111
1111111110010101
1111111011010110
1111111101110010
1111111101000000
11001111
11000000
1111111111101111
1111111110110100
10011101110
1101111110
1111111111101000
10101100010
1111111010110111
1111110101001110
1001011010
10110110100
1010001101
11001101010
10001000011
1111101111000110
1011111
1110110001
11001011110
1000001100
100110110
1111111000110001
1111110000101011
1111111101111010
1111111000111111
1111110110011010
1111111011011110
1111111011100011
1111111101100010
111000110
1111111000001001
1011000
10001001111
10001011010
1111111010100010
11011101
11010
1111110100111000
1111101011011001
1111110101100110
1111111101111110
111011110
1111111000110110
11101010
10000101
1101110110
1010010111
1110010111
1101010100
1111110110111100
1111110100011100
1111110111101100
1111111010110000
1111110111101110
1101101
10000010
1111111010101100
10111110
110011
110111010
1101000010
1001011000
1111111001010010
110000
1111111110111001
1111111100001111
1111110100101100
1111110100101001
1111100110000111
1111101110101101
1111110001100000
1100000000
1011010110
101110000
100010010
10000111001
100110100
1111111100000101
1111101101111010
1111110111100110
1111111011001010
1111111011111100
1111111001000010
1111111101101100
1111111001110100
1111111111000101
1010001100
1011000000
111001101
1010110
1111111101110000
1000100110
100011011
100011111
110001011
1111111001010000
1111110001110010
1111110101100100
1111111111110011
110101100
1000111110
1101000111
10111101001
1100111000
10100000
11101100
1111110111110011
1111111011101000
1111111010011101
1111111100011011
1111110110011011
1111111011110100
1111111001011000
1111111010100000
111101111
100010110
111101000
11110111
1001000
10101111101
100110101
1111111111101010
1111101011
10011001
111000010
1111111011001011
10001000
1100101101
1011101001
10101101110
11000111100
10000000100
11110101
1001111011
1111110111011000
1111111101000000
1111111011100000
1111111001011101
1111111000010101
1111111010001101
100000
1111111100011101
100111100
1010000001
110
1111111000010101
1111111000100010
111110000
1000001110
1010110101
1011100011
1100000011
1111101111
10110100
1011011000
10011011000
1000101011
10110110101
10010011001
1111010011
1111
1111111101101000
1111111000100000
100110111
1110111
1111111100111011
1111111011110101
10100111
1111010
110001111
1000100110
1100001000
100111100
110001111
1100110111
111100010
1000101111
110000100
10011011101
1100110000
11000100
1000101
11100110110
1100000011
11000001101
11010101101
1011000001
111101000
1111111011111001
111000001
1111111100100011
1100011011
1010010101
11001001
1111111110000110
101111101
100100011
1100010
1000100110
1101111111
1001000110
111010011
1011010010
1000011110
110111101
110111111
1100101111
1010101000
10011011
10100000110
1111110000
10011010100
10001100110
1101101001
101110000
1111111111111000
1111111110011111
1100011100
10111100
1000100110
1000010
111111100
1100100100
1111111111100000
1111111110011001
1111111010011000
10100111
110101101
1111111110001111
1000001111
101010000
100110100
1110101
1101100100
10011010001
1111111101001010
10011000
100111100
1111111101100100
1101100110
1111111101011011
1111111110101011
1111111100110010
100000100
110001
1110011
1000101101
10000101111
1111111101001011
1001011100
1101101101
11010101
1111110110010111
1111110010001001
1000001110
1111111110001011
10001001
1110100100
111000101
1111111111001100
1111110111110110
1011101011
1111111100001110
1111110100111111
101110011
1111111011110011
1001000100
1010010001
1111111110110010
1111111110010111
1111111001101111
1111111111000101
101110000
111100000
111111110
1111111110011011
1001001011
1011101101
1111011001
11110101
1111110100100101
1100100
110110110
10010101
1110010111
10000011010
1011110
1111111110000100
1111111001100001
110101011
1111110110011010
1111111111001001
11000110
1111111110100000
10000100110
10101111010
10000111111
100001001
1010010011
1011010011
110000101
1111111011010001
111110011
10000000
1101011000
1111110100
1010110011
1111111110010110
1111111110110111
1101101101
1011110101
1011000111
11011101101
10111000001
11101001010
1001101101
111110100
10101010010
1111111001011101
1111111010111100
1000011011
1111111111100110
1000110101
10100011111
110001001
1111111011
101000110
1111111111011000
1111110110010010
1111110111110101
