111001011
1111000011
1001100001
1001010010
110001110
10111000
100000010
101010110
111100010
1111010101
10100000010
110100011
1101
1111111000010101
1111111110010101
111010111
1010011000
11001100
1111111001110001
1111101101110000
1111101010011110
1111110001011110
1111110101010111
1111111111100111
1101111111
10000010000
11010110110
11010010101
100101100
1100100100
101010100
110001101
10000011
1111111110100110
1111111010100110
1111111011100010
1011001001
1011001101
10010101000
1000111111
10011110
1010101
1111111000001000
1010001110
10001100000
1111100
1111110111110010
1111101110001010
1111110101011100
1111111010010110
1111111100010000
11110001
1010010111
11000010100
10011101000
110010010
100011000
111001100
1001000100
100010110
111101100
110001110
101011100
1111111011101000
1011101110
10110011000
1001001011
101001111
1001100011
1101000
1111111100010101
1010101110
11000010110
1011010110
1111111001010101
1111110110110110
1111110100111010
11000011
1111111111111100
1111111101001100
1001011001
10010000101
1001001011
1101111000
111011111
110001111
1111111110111000
1011100111
1110101
110111
1100111010
1001100100
1100100011
11100110011
10001110010
101111
101100100
111001
1111111101011101
1001001110
10111010000
10010100100
1000101110
1000
1111110101001100
1000101000
100011100
1111111011110001
101011101
1100010100
101110010
1111100111
101100100
1001000010
101100000
110111001
1111111100011101
1
1101011011
101010001
10000101
11000010111
10100101000
110101
110101010
1111110111101110
1111111101101110
1101010000
11000110000
10101100110
10010101111
111111100
110101100
1111111100101110
10000100
1000101011
11011101
1111111110111000
1100011000
111110010
101110000
100011001
1111111011100101
1001000100
1111111101001101
10110001
1011000001
101011011
1011000100
11101100101
10000110110
10010
1111111001011000
1111111010001110
100100011
1100110111
1100001001
110100111
1111111000100110
1111111100010011
1010011
1111110110101100
1111111010101111
110011101
1111110010111110
1111110111110000
1011011101
10001001110
1111111111000100
1111111100100100
1111111011000001
101000101
10000100
1111111111110110
1101111100
1101010111
10000001111
11110110110
111111110
101000101
1010100010
1111111100100100
1001100101
1100101010
10111011
1100100111
1111111000101011
1111110111110110
1111111010111000
1111111111011000
10111001
1111111101111111
1111110100010100
1111111101110010
1111111101001001
100001010
1111111101011111
1111111100001110
10101110
110011100
101100000
1111111011001011
110101001
111010000
101001111
1111110101
1111111010010100
1011010110
10011011111
1110101000
11000000111
11100111110
111011110
101101000
1000010
1111111010100100
1000111000
1111110101111011
1111110100111110
1111111111011001
1111110101100100
1001101000
11000101
1111111110000111
10100010
1111111111011111
1111111111101010
110
1111111110011111
1111111110110111
110010100
1010010111
1111111000010100
1111110101110111
1111110110110110
10001010110
1010010110
10010101110
1110011010
1011010111
101000101
1111111110001110
1111110111010110
1111110111001111
1111101010000001
1111101100101110
1111101110110101
1111111110010110
1111101110101110
1111111011000100
1111111101010001
111011
1000101
1111111001001101
1111111110011111
11001011
1111111101000101
1111111001110100
101000101
1001000
1111110001001111
1111101000001111
1111110010110101
1111111100001101
1111111011101001
1111111100000011
1111110101100000
1111111011101101
1111101110111000
1111101110111001
1111100110110110
1111100101001101
1111100110101100
1111101000001101
1111101000100110
1111110011010110
1111110100101110
1111111001110001
1111111011000100
100111111
1111111101001001
1111111100011100
1011011
111010100
1111110110111110
1111111000110010
1010011110
100011111
1111110000000011
1111011111010100
1111101111001101
1111110001011110
1111101011001111
1111111110010000
1111110011100101
1111101000011110
1111110111000011
1010101111
1111111000000110
1111111000110110
1111110111101000
1111110000000110
1111101011100010
1111101111101111
1111111110001000
1111111001001001
1111111000110010
1111111111010010
1001010101
11111101
1111111101110001
1111111101011111
1111111010000010
1000001011
1001011
111101100
1111110010111000
1111011110101111
1111101001110011
1111101000100001
1111101000001110
1111110111010110
110100011
1111110000011010
10110001
11001100110
11010011011
1110011110
111110
10011
10001000010
1111110111100101
100110
1001011101
1111111111010110
110001100
101000010
1111111011011100
11001010
1111111111011001
1111111011101100
110101101
1111111100011111
100010101
1111111011010110
1111101100111110
1111011100110000
1111100101100110
1111101000000001
100000
1001111010
1000100010
1111111101010011
1100010
100010101010
1001101000
1111111101000000
1001001110
10100010100
1111111111001000
100000000
1011000
10100101
1111111110100101
10111000
1111111101100001
100110110
1100010
11011010
10110
1111111111110110
101001110
1111111111000001
1111110010010110
1111111000111111
1111110101111110
1111111000010111
1111111100000011
11110111
1101010011
110010
10000010
1010011000
1100110110
10101110
11101110110
100001001011
1001100110
10001100101
1111111100101001
111110000
1111111010000100
1010100111
1111111011111001
11
1111111010101111
1000011100
1011110
1110010
111101100
101010001
1111111011111110
1111111100101110
11001001
10000001101
1111111111011110
1111111011000011
1111111110011100
1111110011110000
1111101011000001
1111110001000111
10000101111
10111010011
10011010100
11110010011
10110110100
1001101100
1111111100110100
111110100
101110100
100010100
1111111010100101
1111111100000101
1111111011001111
1111111101010110
110000010
11001000
1100001001
100100010
100101010
1000011001
11101110110
11111001100
10101011100
1111111011011001
1111101001000100
1111101101010001
1111100011010010
1111110100101000
10100011110
11101111000
10001100101
10011101101
110110
10111011
100111010
110100111
1001001101
1011110
11101011
1111111111101100
1111110111000101
1111111100101110
100011101
10101110
1010010101
101001010
100000001
11101000110
101000100001
100101000111
11101100001
1111111100111001
1111111010111101
1111101011010010
1111101001001110
1111111001110100
100111000111
11010110010
1110011101
1110101110
100001010
1110111101
1111110010010011
100100000
1111111000111001
1111111011110010
1111111000101000
10011110
1111111011101111
100101
100101
11011000
1111111101101101
1111111111101010
1111111100001111
11100101011
100110001101
10111010001
10010101010
1100000
1111111001001100
1111100111010111
1111101101100100
1101101
111010110
101001000
1101000010
10011
110010011
100010100
1111101111101100
11001101
1111111100010000
1111110111000001
1111110101101101
1111111010001110
1111110111101011
1111111111101001
1111111101100110
1111110111101001
1111111100110100
1111111101101110
11110110
10110101000
10101000110
11100101
1111110110000110
1111110101111011
1111101010110010
1111101101010000
1111101110110111
1111111101000001
1111111111010000
1001110110
110010111
1000011000
1111110010100010
1111111001001001
10001001
1111111011110100
1111111101010000
1111110000010111
1111110101000000
1111110011111001
1111110001111111
1111110111010001
1111110111111110
1111110000111001
1111110000000110
101101100
1001001100
10001101110
1101101111
110010110
1111110110000101
1111111101001100
1111110000001011
1111110100101100
1111110100101010
101011001
101111000
1011111
11011101
1111111110011001
1111111001111010
10011011
1111111011011110
1111111101110010
101010111
1111110101011100
1111111011101000
1111110111011111
1111110110001111
1111110011010010
1111110010100011
1111101011100000
1111100011000010
1111111010100110
110111
1111111111001011
1111111000011011
1111111011011000
1111110110010010
1111110110100101
1111101100111011
1111101110100010
1111101010110011
1111111100001000
110101
110011000
1100001
1111111000111111
11100001
1001111
1111111100100110
1111111110110000
1111110010111001
1111111001011001
1111111101100010
1111110110001000
1111110101111001
1111110101000000
1111111011110010
1111110000101101
1111100111101000
1111111010000101
1111110111110111
1111110100011010
1111100111000100
1111011101011011
1111101111011001
1111101001000111
1111101110010001
1111101001111011
1111110011011010
10010110
1000010000
111011101
10001001
100110110
1010111000
1110111
1100000
1111110111001101
1111110001010011
1111101110001001
1111111111111110
1111111001101001
1111111100010011
1111110100001100
1111110110000101
1111110010001100
1111101011100110
1111110101110001
1111111010010011
1111110001000100
1111100101011000
1111100111111001
1111100110001110
1111100001111001
1111100010110100
1111110110000101
101010110
1111111011000000
1111110100011000
10111011
110101
101011101
1111111111010111
1111111110001100
1111110100110000
1111101100111101
1111101100000011
1111110001110110
1111111101111001
1111111111001010
101101000
1111111110111001
110010
1111111010011010
1111111011011110
10010010
1111111100001110
1111110010111001
1111100001111100
1111101110110101
1111110100100010
1111111101101101
1111101101011001
1111110100111000
1100000101
1111111100111000
1111111000001010
1110100
110100111
1111111111010110
1111111101110010
1111111001110010
1111110111000101
1111110001001010
1111101111010011
1111101101101111
1111110011111100
1111110101101001
1111111100010000
1000111
1111111000101110
100001111
1111111100000000
1111111101001000
1111110100010011
1111100011111111
1111101011110110
1111111000101000
111011000
101001111
101101
1111111001101011
1001110100
1111111011000000
1111111001110001
1111111010011010
1111111100000111
1111111011101100
1111111011011001
1111111100101110
1111110011111101
1111110011101010
1111100111010011
1111111011010011
1111110111111011
1111111010001010
1100000100
10001011010
1010001110
1011000010
1111111111111111
1111111110001011
1111110100111011
1111100011100110
1111101010101001
1111111010011101
1111111010100101
1010101010
1111111011001101
101
1111111110001111
1111111101100011
1111110111111010
1111110101011011
1111111001111100
1111111011100110
1111111110010001
1111111010010111
1111110101101100
1111111000110110
1111101010111100
101010101
1111110111000001
10100011
10000100011
10000010110
1110011111
11111001
10010001100
110000111
1111111000000001
1111110100101110
1111110110101000
1111110111011111
1001001
1111111011100101
1111111100001001
1110110101
1111111001101000
100100111
1111111001111011
1111110110110101
1111110000011010
1111111001010110
1111111110100000
1111110100111100
1111110110111010
1111111100010111
1111110110110101
1111111100100001
1111111011000001
1111111110110010
1101101111
1110110110
1000000100
1111111011101111
111010111
1010100101
1111111001000111
1111111100111100
1000000001
10010111110
1010100000
1111111110101100
10100010111
1001101101
1111111010110001
1011001110
1111110111100101
1111111100001110
1111101101011000
1111101101010001
1111111000111110
1111110111100111
1111101111110100
1111110110011110
101111010
