1111111100111100
1111111010111111
1111111110100011
101
101
110
1000001111
1111111110111100
1111111010000111
1111110011011000
1111101110111000
1111111000011001
1111111100101100
1011011011
1010100100
101101001
10110110
101001011
1110000001
11000010110
11001010101
1010110001
10110000
1111111000110111
1111110011001000
10111010
1111111010110001
1111110010110000
10110010
1111111110100101
11011000
101000110
1101010
1111111110001000
100011000
11111000
1111111011001100
1111110010100101
1111110110010011
1111111010001000
1111110111011000
1000100001
1011011101
10011011
1111110110000100
100001111
10011010001
10100110000
11000001011
1100001000
10001011
1111111000001011
1111111100010101
1011010
1111111101010101
1111110101010100
1111111100000010
1111111100000101
1111111100001110
11100010
1111111110100111
1101101
1111111111001011
1111111100010011
1111110110000000
1111110011111111
1111110011001001
1111111010111110
1111110100001101
1111111001000010
100010100
1111111111110111
1111101100111000
1111111001101111
1111111101
1111001000
10100001000
1111111110000010
11110010
11100000
1111111000111110
1111111101111010
10000101
1111110100011011
10100
1111111000001110
100010110
1111111111110011
10110111
111110111
1111111000000011
1111110111111110
1111110111101001
1111110000011100
1111110100111101
11110
1111111010010101
100001110
1111110001110101
1111111011011110
1111100101001100
1111110011011010
1111111011001100
111
1101100000
1111110111011001
1111110111100010
1111111110110011
1111111001000000
1111111101000100
1111111101010111
1111111101100110
1111111110111101
1111111011101100
1001
1111111100100001
110011
111001111
1111111100011011
1111111011001101
1111111101100011
1111101100000000
1111111000000000
1111111000100110
101110001
1111111110000001
1111111011100010
1111101110110000
1111100100100111
1111101011100011
1111101001100011
1111110111000101
1111110011101100
1111110100111000
0
1111111101010101
1000000011
101110110
10110011
1111111101011110
1111111110001101
1111111110010111
11111001
1111111011101101
1111111110111110
100011011
1111111010001011
1100100
1111111110111000
1111101010010111
1111110101111010
111100
1100011000
1100100
1111111101111101
1111111101001001
1111101010110000
1111110110010101
10001011
1111111001000000
1111101100010000
1111110100010110
111001
1111111111010010
1011001100
1111111110000011
1111111000110101
1010011
1011110
1111111011100001
101011011
1111111111001100
101111000
1000101
1111111000010100
1111110111101000
1111110101000111
1111101001111010
1111111011011000
1111111101001101
111100101
11101010
1111110111001111
1111111000110110
1111111101110101
1111110110111110
1011110000
111010010
1111101001011001
1111110100100101
11001111
1101010010
1010001000
1111111111101011
1111110110010001
1111111111111001
1111111011011001
110101
111101110
111001
1111111111000010
1000001000
1111111001100111
1111111100010010
1111111110100001
1111110111011001
100100101
1111111010110100
1111111001001000
1111101101010001
1111110011001000
1111101111111110
1111111000110101
1111110110010000
1101001
1111110110101000
1111100110001111
100101111
100000111
111011011
1001100110
1111111000000111
100001010
1111111100000100
1111111110101011
1111111110101000
1111111011011110
1111111010111101
1000011011
11011001
1111111100111001
110001111
1001111000
1111001101
1000111110
1111110110010000
1111111011100100
1111110001011001
1111110111110111
1111101100100010
1111110011111001
1111111000110011
11101011
10110010
11011111
1101000100
10011100
101011010
11001000111
100000011
10011011
1111111110001110
1111111111110100
110001111
10011
1111111111100011
1111111111100000
1000010101
1111110110111000
101101101
1100000010
10010101011
1001111001
111000101
1111111111110100
1111111010000101
1010100100
1111111110001011
100100110
1000
1001011010
1101000011
1001101011
10001010110
111011000
1010000101
10010111001
10101100011
10011010111
10101000
100111001
101111101
1111111111100110
1100111
1111111111101010
11
1111111011001001
11010
110110101
11001010010
1111000000
10000111111
11000111
1111110000111100
1111111011110111
1001011011
1111110001001011
1111111011101101
110000101
10001
1111111000001010
1011101000
10110010000
1100010110
1011101011
10111100011
1011011110
1111111010110111
1000100
111011001
1111111111011000
1111111100011101
1111111111101001
1111111100101100
1111111010000000
1111111000001000
1010100001
11010101110
10001111000
1100010011
111010010
1111111101111110
1111101100010001
1111111100110101
1111110000000000
1111110111010000
1111101011101001
1111111010001010
111111110
1111111111
10011001
10001111101
111101011
100000000
110110100
1111111011101110
1101110
10011000
1111111010100111
1111111010001010
1111111010011001
1111110111100011
1111111001100101
1111110011101010
101010110
10110111001
11010110000
1001011011
1101010111
110111110
1111111001110001
1111110100001010
10111101
1010001001
1111101110011011
100010010
1011011011
10110011101
1111110111000100
1101111100
1111111110110011
10111101
1111111011111010
1111111011100011
1111111000101011
1111111110111110
1111110010001110
1111111100100100
1111111011001010
1111110010010010
1111111000100011
1111110010101110
1111111011110101
1111111100
10001001111
110101001
100010011
1111111101101110
110100
1111110100110111
1111111101111101
1111111101100000
1111110111111001
1111111100010111
100110111
1111110111101000
1111110100100001
100010101
10101100
1000111011
1111110111101011
1111110
1111101111001111
1111111001001011
1111110111110101
1111110110010111
1111110101110110
1111110100101110
1111111100011111
1111111011100000
1111111111011011
1111111111110010
111101100
11011010
1111110011001000
111010100
111110001
111010
111110100
110110
101000
1111101101101110
1111110110011000
1111110010110100
1111110011100101
1111111101011010
1010010000
1111111110100010
1111110011001010
1111111011101001
1111110000101000
1111111011100100
1111111000010000
1111111000111111
1111110111100011
1111110011111001
1111111101100001
1111110000111010
1111111110001101
1010001001
11100111
1111111000011000
1111101110000011
1111101110010000
1111111101101010
1000110000
1100111100
110110010
1111110110111001
1111101101100011
1111101101001111
11010111
1111111111000101
101110010
110011111
1111111011010100
100
1111111100100111
1111110110011011
1111110111010100
1111110101111001
1111110111000110
1111111000011010
1111111111010110
1111110101000011
1111101111011010
1111111001010011
1000111010
1111111010110000
1111111001000011
1111111001101011
1111110110111001
10111010
111111
1110000000
1101101010
1111110110110001
1111010101111110
1111101001001011
1111111101100011
1111111011100111
110111100
1111111101100110
1111111101100100
1111110110001111
1111111101010011
1111110110110000
1111111101011111
1111110101101101
1111111001111011
1111111011110001
1111110111100100
1111110100111010
1111110110010111
101000
110001100
1111101110111111
1111111001011111
1111111101000001
110101
11100110
1100
10000101000
101011001
1111110100100101
1111101011110000
1111110011101101
1111110000000110
100011
1111111110110000
1111111101000100
110101000
1111111101010001
111100000
1111111111111100
1111111100000100
1111111011110101
1000100
1111111011000010
10001
10010000
1111111101111011
1111111111110111
1111111111101110
1111110011110000
1111110010111101
1110110
1101001110
1101011010
1001010010
10010011100
1110110100
1111111001000000
1111110110110101
1111101101101011
1111101111100100
1111111010100101
11
1111111101110100
100011
1111110111011000
10000100
111100111
1111111100000010
100010100
111001110
1001110101
111011001
11110011
11111000
10010000
10111111
1111110000101100
1111111001011000
1111110111100101
101101110
101011001
1001111110
111101110
1111101011
1111111101001000
1111101001011001
1111111010001001
1111110001101111
1111111111001000
11101111
1111111011111101
1111111010110000
1111111010110111
110011
11010011
101110011
1110101
110011010
1001010000
1100011
1001100000
1111110110
10101100
1110101
1111111011101110
11100101
1111111011111100
1111111000000011
111001000
1001111110
1101110110
11001100010
1100101
1111111101101100
1111111000000100
1111110001100000
1111111011100111
1111111010111001
1111111010100001
1111111001001000
1111111100001001
110110
110110100
10110101
1001110110
1000001110
1111111111010110
1111111101100101
110100
1010101111
1111111011001100
1111111011110001
1111111001000100
1000111010
11110100
110000100
10101101010
10001011011
11001101010
10101010001
1001000110
0
1111110101110011
1111110101001111
1111111000100000
1111110110000101
1111110110011111
1111111001000111
10111011
1000001101
1111111111101011
1111111100011011
1111111101010001
1000001110
1001010100
110110111
11110010
1100110011
1111111110100111
1000101
111100010
1011001101
1000100011
10001101000
1010011011
110100110
10001101110
1010110110
111101110
1000110001
1100
1111111001110000
1111101101110001
1111110111011111
1111111101010010
111111111
1010101000
1000001000
101110
1111111001110110
1011111
10101001
110000001
1111111101111110
1111111100010000
110011111
111111001
1111111101100100
11000000
11111101
1111111111100000
10101010
1111110111011111
1010000011
10011000110
1000
1111111100010111
101101001
1111111111100110
1111111011110110
1111110111100100
1111110110011101
100111
10101100
111000011
111100101
11111000
1111111010001011
1001001
1000000
1111111001101100
1111111011001011
1111111001111011
1111111011100111
1000001
1111110101000111
1111111101011101
1000111
101001010
1111111001011010
1111111100011000
1011011001
1001011100
1111101110111000
1011111
110111101
1111111000111000
1111111111011100
1101101
1111110100010010
1111111110000000
1011
1111110001
10110011110
100000
1111110111011000
1111110101000010
1111101111011010
1111101001111101
1111110101100100
1111111011111000
1111111101001000
1111111011011010
1111110011110010
1111111100101110
1111111011101111
1111111011000110
1111110011000000
1111111001001111
111000100
1111111011100011
1111101101001100
1111111111010010
1111111010000011
1111111000010011
111100100
1111111001110111
1111110111010010
1111111110101001
1111111100101011
100011110
1011001011
1111111110010000
1110000
1111111011110010
1111110001110001
1111101100011001
1111110110011010
110101110
11000100
1111111000011110
1111110111000111
10111001
1111111100010101
1111111111111011
1111110010010001
1111111001000000
101010110
1111110110000001
1111111010011100
1111101110001000
1111111110010011
1100111111
1011101
1111110011000011
1111111101000000
1101011
1111111100011010
1111111110011010
1010111
110010001
1000001101
1111111010010100
1111110010100110
1111110110000010
1111111011110010
1010110010
1011101000
1111111100011111
10010011
1111111101001011
1111110010101110
1111101110010111
1111101111101111
1111111100001101
1111101110110010
1111110100000110
1111101110010001
1111100111100100
10100011
1111111110001000
1010010111
111111110
1011010
1111111100101010
1111111100110111
1101100
1111111000101000
