100100101
1001000001
10000000
1000011011
10100101
100111010
1111111100110000
1111111100010001
10011
101000011
1011010010
1111111011011000
1111111100111111
1111110011111001
1111110001001101
1111111000010111
1111111111100010
1111111111001111
1111111010011011
1111101110111001
1111110100100100
1111111010000000
1111110101000000
1111111111111111
111100010
1001010100
10001111100
10110111010
110100010
1100111001
100100011
111110100
11011110
1101010
10001010
1111111100101001
10100110
10000011100
1011011001
1101
1111111110100010
1111110001010100
1111110000110110
1111111101000010
1001110101
101010111
111
1111111011010111
1111111001010101
1111111011000001
1111111010011000
1111111110100011
1001010000
10001000110
1011101110
1000000111
110111110
100000110
11111010
111111001
110101010
1000
1111001
10010110
1010001011
10100010011
1000101101
1010100
111001000
1111111101011101
1111111100001011
100010101
10001101001
11110100
1111111100010100
1111111011101001
1111111011111110
100011011
1111111001010110
1111111101011010
10111000
1111101011
1000001010
1100110000
110110111
111111001
101001100
111010011
1000010
1111111111011001
1111110001
1110010
1110010110
10111001000
111101010
1111111101000111
1111111110000010
1111111011001100
1111111111110000
100111110
11100111010
1011101111
1111001111
11001000
1111111010011010
1000010011
1111111110100110
1111111001011111
1101010
11110011
101011110
1011101000
1010001
1010000
10110111
110010000
1111111101101011
1111111100110100
1001001110
11100101
100000000
11101111100
1001001101
101000100
1111111111111101
1111111001001000
1111110111111101
10000010101
1111000110
10000010000
1001010011
1010000010
100110010
100010101
1111111111001110
100011001
1111111100011011
1111000
1100001
111111011
11001101
100001010
1111111100000101
1111111110101111
1111111111001100
1111111001111000
1101101101
1111111111111101
111101101
11110101010
1000011000
111101110
0
1111110100100101
1011111
1100001110
1101011101
101000001
1111101101110100
1111111010010000
10001001
1111111110101111
1111111010010010
101101110
1111110000111111
1111111001110111
100111100
1011100000
1111111110110101
100110001
1111111001101101
10100100
10100001
1111111100111011
1100001101
1100110000
1100101111
11001111101
1111111111010111
101010010
111011
1111111000111010
1010100110
101000110
10100
10010010
1111110100011011
1111101111100111
1111110111111111
1111111110010000
1111110110110101
1111101111111110
1111110101000111
10110110
1111111101011011
101010111
10110110
1111111110101001
1111111111000000
101100
11110100
1111111100110101
1011111010
110110011
1111111111001100
1111101101
1111110110001100
1011110110
1010101001
10100000100
10111010100
10001010011
111100010
1111111101110111
1111111100010010
1111110111111101
110011000
1111111110000001
1111111100110011
1111101101110000
1111101011010101
1001110010
1111111100010101
10111111
1111111110010100
1111111000010110
1111111101001111
1111111101110011
11010110
1111111000001100
1010010101
111010001
1111110110110100
1111111000111100
1111111011000011
110110011
110010000
10001110011
1011010101
10000100110
1111111100110001
1111110111100101
1111110110110100
1111110101111100
1111101000011010
1111100110110110
1111110101010100
1111110010101001
1111100110100001
1111110101110110
1111111111010000
110101
1111111110101100
11101
1111111110110010
1111111111111010
1111111011110111
1111111010111101
11111110
1111111011101111
1111111110100001
1111101011010000
1111110110111100
101011
1101000
101000
1111101100101100
1111110000011100
1111101101010010
1111110010100011
1111110000000100
1111101001011101
1111100011100101
1111101010011011
1111101100110101
1111110011010110
1111110011101000
1111110010001110
1111110001011010
101010100
11111
1111110110111010
11000110
1000010110
1111111101011110
1111010
1000111
1001101010
1111111010011101
1111101001101001
1111101100011001
1111101110111000
1111110101111101
11011111
1111110100100101
1111101001010010
1111111001001110
111100100
1111110001111001
10000101
1111111110000001
1111101111010001
1111101101011110
1111101111101010
1111111010001001
1111101101100111
1111110110010011
10001001
1011
1111111111010101
1111111110011110
11000101
1111111101000100
1001101010
1111111110101001
10010010
1111110101010001
1111100110100111
1111101011000101
1111101000000001
1111101001111100
1111111001111111
101101111
1111110010110110
1111111100001110
1100110100
11101101101
10010111001
1111111101011001
1111110011000110
1011011000
1111101110101101
1111111011010000
100010010
1111111101100001
100111001
1001011
1111111011000100
101100100
101110110
110000010
111100001
1111111100111001
110100011
1111111100010100
1111101111101001
1111100101100010
1111101111000001
1111101110101111
1111111111101010
111011000
1001010100
1111111000000010
1000110101
11000100100
1001100
1111110100001110
11100
10101001000
1111111101001001
101000001
100
1111111101001010
1111111111010010
101001110
1111111111011101
110100000
10010111
1100010101
100110001
10100011
1000100100
1111111101110011
1111111010001111
1111110101011000
1111111001101101
1111110101011111
1111111010001111
1010001
1100110110
100000
1111111100100101
1101001000
1111111001011100
1111111010100111
10101101010
11010101001
1111111111110001
100101000
1111110001110110
100001010
1111111101010100
1010001111
101101000
1001011000
1111111110101110
110111010
110100001
10110010
1000100001
100001110
1111111110001010
101010111
101101110
10001110100
1111110101100100
1111111001000100
1111111100000101
1111101100101011
1111110001111000
1111110110101011
100111101
110000111
1100010111
10110101001
1111110111
1111111011011100
1110100
10010001
1110
1000000101
100110110
110110111
1111010
101
1001011011
101001101
1010101010
1001110111
10101111
1110100010
10011011010
100011010000
10100011001
1111111010011011
1111101100001001
1111100111100101
1111101100101000
1111110111101011
1100000010
10001110101
111111111
1011101110
1001000110
1111111011111101
10000001
1000100
1100010101
1100101
10001000
101100101
1111111001111110
1111111001101011
11111000
1000000101
1010010111
1
101100010
11001100111
11111101101
11101011100
10011011011
1111111101111011
1111111001110011
1111101011001001
1111100110000101
101100
11100101000
1011010110
1010100110
1000001000
1111111111011001
1011011010
1111111111010010
11110
11000010
1111111101101010
1111111100101011
11101
1001000
1111111111101101
10011110
10100111
10111101
1111111011001000
1111111110001011
10100110111
10110101110
10100000111
1111101001
1111111010011000
1111110001010000
1111101001101000
1111101001011111
1010001
1111111111110111
10011
1011110001
101
100110011
11010
1111110110101010
101100100
1111111100111000
1111111000011001
1111111101011101
1111111111000100
1111110100001101
1111111000110111
1100011
1111111001010000
1111110100100101
1111111110110001
11010110
1101010011
10000000100
110010
101011
1111110011010001
1111101011111111
1111100100011010
1111100111100110
1111111001100000
1111111110110101
1001000110
1100011011
1011010110
1111111110001111
1111111111000110
100001101
1111111010100000
10001001
1111101010010011
1111110110010110
1111110101000100
1111101101010011
1111110001000100
1111110111000001
1111101010111111
1111110010111100
1111111111001010
1111111111111001
1011011100
1011100101
111011000
1111111100101001
1111111011100111
1111101110101010
1111110110101111
1111110101010000
1111111111010111
100100110
1010001111
11000100
10001011
1101010
1000101101
1111111011001100
1111111111001011
1111111110001000
1111110001000110
1111110001100110
1111110011000100
1111101110011101
1111101010011101
1111110101000010
1111110001010111
1111101010000101
1111111010000001
10111001
1111111110100100
1111111001011000
1111111011110011
110000111
1111111101100111
1111101111011101
1111101100001010
1111110011100001
11000111
1001101010
1001100011
110110001
1111111110011010
10001100010
10110111
1111111101100110
1111111111100001
1111110100011001
1111110101010111
1111110111100110
1111110111000111
1111110001101101
1111110011000100
1111111100000011
1111110001100010
1111101001110010
1111110110000010
1111111001010101
1111110011011001
1111100011110101
1111100110101110
1111110001100000
1111101001101010
1111101111011111
1111101010111101
1111111000000100
100110001
1011001011
111111110
100001111
111110101
1000111001
10100111
1000000011
1111111100011010
1111101111011001
1111110101011000
1111110101111111
1111110010110001
1111111001010111
1111110110111111
1111110011100010
1111101010011110
1111101111110111
1111111010000101
1111111000101101
1111101110110111
1111101011011111
1111101001000110
1111110110000000
1111110010100100
1111110000100101
1010101
1011110011
1111111101011001
1111111110010000
1001100100
1111111101110001
1101011010
1000111100
1111111111010111
1111110100000001
1111101010010001
1111101011010001
1111101111011000
1111110101010011
1111110111001100
111110
1111111011110101
1100100
1111110100110110
1111111001000000
1111111100100111
1111110111110101
1111110000010011
1111110001110110
1111110111111101
1111111011110110
111000110
1111110011100011
10101011
1111000000
110110001
110000
111100100
1001101111
1111111110000001
1111111011001011
1111110110001010
1111110110000010
1111101100100110
1111101011100101
1111101010101101
1111110001101100
1111110011001100
11100001
10010000
1111111100111111
11111011
1111111110101001
1111111100110000
1111110111011110
1111101100010011
1111110101001100
1111111010110011
1000110101
1011000010
10111100
100111101
11101111101
111100001
110110111
1111111110000110
1010100
1111111000111001
1111110111000110
1111111100100101
1111111001000110
1111110001010011
1111101000001011
1111110111100001
1111110011001100
1111111001010011
1010101011
1111010000
1001111111
1000100100
110111001
1111111011010011
1111110100101011
1111110001011011
1111110111101110
1111111110101100
1000100010
1101011100
10000100
1010100110
1010010110
101101
1100100
1111111011110001
1111110111101000
1111111101000100
1111111101010010
1111110100001000
1111110011100011
1111110110010001
1111110011010011
1111111100101100
1111110101000100
100111001
10000011100
1101111110
1010011010
1111111011010010
110001111
101110011
1111111001001101
1111111001011101
1111110111011011
1111111101001100
1010101010
10101001
10000110
1011101111
1111111011101100
110101010
1111111110101001
1111101111100111
1111110101010100
1111111101010001
1111111000000111
1111110010000110
1111110100010000
1111111000111001
1111111010000011
1111101110100110
1111110000000100
11101110
10010100101
100010100
110011110
1111111010000100
1111111110100010
10111010
1111111010010110
110010100
1010111100
10011010001
10100010111
110010011
10011110101
10111111
1111111101011110
110111110
1111110011011001
1111110011010000
1111101000101000
1111100100100110
1111110000001000
1111110011111100
1111110100011111
1111110011011000
1000001000
