11000001
101010101
1001110111
11011000
11110100
10100111
1111111000001110
1111111010010100
100011011
101000000
100011011
1111111010001001
1111110110010001
1111101011111001
1111110101000110
1111111101000000
1111111110010101
1111111101010011
1111110111100100
1111111001001100
1111110110110100
1100110
11100011
1001010010
1111001110
1111111101010010
11000101
1101000111
10001110
1011110010
1001110001
110100111
11000111
1101
1111111000010011
110110
11000110
110110110
11000000
1111110111110111
1111111000110101
1111110010101000
1111110001110100
1111111101001010
1011111011
111111111
1111111111100011
1111111000101001
1111111010010101
1111111100011011
1111111110001001
1011000111
101100000
11100111
1100011011
1110101110
101001111
110100101
1111111111001011
11101110
1000001001
1111111001010101
101100011
110110
1000100110
10100010
1111111000110101
1111111101001100
11000
1111111000111110
1000111
10011111
10100011110
1001110010
11101010
101001100
11010100
1011001011
10110000
100100100
11001011
11111011
1111000
1001000111
10000100
111001111
111010
110111111
1111111101100011
1111111100110001
11101001
100111101
10110101
11101000
11101010
1111111011100001
1111111000010110
1111110111001110
111111000
1111110100
11101110001
11110011100
10100001011
10011010010
111001101
10010010101
1110011110
1111111100000111
100110000
110011000
101011011
10011001
100010
101010110
1111111011111010
101111101
100000100
1111111100000010
1001110001
11000010
1111111100111001
100111110
1111111110111110
110010100
1111111000100010
1111111100011001
1100001010
10010100000
100101111010
11001100000
100100010010
11101111010
11010010001
10000000000
1000011001
100011101
1111111010011100
1100
100110000
11110111
110001011
101001100
100000001
11101000
11001110
1111111111010000
1001001001
1111111000100111
1111111100111111
1100010011
1111111110010101
100110101
1111110101110110
1111111011011110
1011000011
10101010110
11110111100
1111001100
1001011001
10011010011
11011011100
10101101011
111101001
0
1111110100000010
11001101
1101100100
101101000
111011
1011011
1110011
111001
110101011
11001000
111000100
1111111111000010
1100010001
10000110101
1111110111111001
1111111100100010
1111111111010110
100111010
1001110000
10001101100
1110010110
1001001111
11011101
1101111100
10110000001
1101000101
1111110010101001
1111101011000111
1111110111100100
1111111111110111
1010111000
1001101001
11001001
1111111110010011
1111111110101001
11111100
1010010001
110000101
111100110
1111111100111111
100011100
110011111
1111111011101001
100010111
1100111010
11001110111
11000101101
11110101111
10100111001
1000011101
11111
1001001000
110101010
1111111010101110
1111110101100000
1111101101011001
1111110011111001
11111100
110011011
1000011101
110000100
1111111111110101
111000
100110110
1001101
1111111111110100
110011011
1111111010010000
1111110101110111
1111110010110001
1111111101000001
1111111110011101
1101101010
101010000101
11101010101
10110011111
10011000101
11100101
1111111010011010
1111101101101000
1111101010110100
1111101101011000
0
1111110100110111
1111101100010100
1111110111011110
1111111101100111
1000010010
1101
10100110
110000
1001110
110111100
1111111111011011
110100110
1111111000001011
1111111011011000
1111101100110101
1111111101111000
1111111001000010
1101101100
10000011010
101100
1111111110100111
1111111110111001
1111110111010000
1111101101111110
1111100001100011
1111011100110011
1111100110101001
1111110101101011
1111111001101001
1111110000100011
1111110010000000
1111110011101000
101101100
10011010
1111111111110011
110010100
100011100
1111111100100011
0
100001010
100111100
1111111001001001
1111110001011001
1111111000001011
1111111000111101
1011000110
111110000
10110111
1111111000000001
1111111100111011
1111101011010100
1111100100011110
1111110001001000
1111101101000110
1111101000100010
1111110011100101
1111111000110010
1111110010001101
1111110100010011
1111111000110110
111110111
100101101
10001010
10010110
100100001
1111111101100001
10001101
110100011
1111111101110000
1111111000010000
1111100100000000
1111101100000110
101101
1111111111000011
101101
1000110111
1111111100110001
1111110101101111
1111110001100000
1111111101110011
1111110011111011
1111110010110111
1111101001100001
1111111001010010
1111110010001010
1111111111000101
1111111001011001
1111111000101111
1000111011
1111111111101100
110010
100000010
101010101
1101110
111001100
1000010001
1011000100
1111111000101001
1111101100101000
1111100111011011
1111111010101001
1111110001100010
1111110011011100
1111110101001011
110010111
1111110000111100
1111100011111010
1111110001100101
1111110101011110
1111101011010000
1111110100110111
101111001
1111111001010100
10100011
11101101
110101101
100001100
1001100000
10110
1001110001
11100
1010000101
1110000100
11011111
10000110000
1111111111101101
1111110001110101
1111110011110100
1111110101101000
1111110010011100
1111101100000100
1111100111010000
1111111101101110
1111101101000011
1111101010011110
1111110101100000
1111111101000001
1111110100111100
100110111
10010001
1111111100001001
1100110
1111111000111010
111000110
1111111100110110
1110010000
1001110100
1001111101
10101000
1011011001
110101101
10010100
1011000010
110011010
101011111
1100010
1111111000010111
1111111000100100
1111101000001101
1111101000101110
1111101111110000
1111101011111111
1111101101101111
1111111001101011
111011001
1111110
1111111010011111
1111111110111111
110011011
1111111100001000
1111111101111010
1100000111
110111110
110101001
100111010
110001110
10010100
11010101
1010010101
111011000
10010011011
1011101011
100011000
101010111
101000111
1011101111
1010110110
1111110001101010
1111101000101001
1111101110010001
1111110101000010
1100100
11000011000
100110011
1111110011011101
1111111001001100
1111111100000110
1111110100011100
1110010
110011101
100110011
1000000110
100001000
110101100
100011010
111111110
11110100
1101000110
10001101000
111110110
110001111
10111001111
1111010011
1100010011
11110001
1111110010101011
1111110101101111
1111111001110001
11110
1111001110
11110001111
1000001100
1111111110011110
1111110100100001
1111110111111000
100100101
1011000111
10111101
1111111110001011
1101100
1111111101011000
1000111100
10011000
1000111010
1000110100
110001001
1111011101
10001001
101001
11100001100
1011110011
111101
1111111101001001
1111110110110110
1111111101010000
1111110100100001
11101000
10001100011
1010010000
1001011000
100011001
1111110101001010
1111111111111100
1111111101111110
1011
1100101
1111111100111101
10101110
10001011
111010
1111111110111111
1111111100001000
11010111
110010010
111010110
1001100010
111101101
10100111100
11001010100
1111111101000100
1111111000001010
1111110010110110
1111110000100110
1111110110010001
1111111111000111
1101010111
110001011
1100001110
1101001001
1111111011000001
1111111000001101
11100110
1100000100
1111111111010110
1111111100010110
1111111000011111
1111111100011010
1011110
1111111010000000
1111111011010100
1111111001101011
1111111111101101
11010
1001011000
1010100111
11010111110
1110010100
1110000000
1111111111110011
1111111110010100
1111111011001001
1111111100110010
100111000
10110111010
1111101010
1001111110
1010011111
1111111111001000
111001101
101010110
11101111
110010111
1111111111001010
1111101111111000
1111110110110111
1111111000000010
1111110011111000
1111110001011000
1111111011110010
10111001
1111110011110001
1010100110
1011111011
10001000111
1111111100011110
101100100
1001011110
1111111100110100
1111111010101111
1111110111011011
1111111110100110
10011001111
11010010
1001000111
1111100001
1111111111110101
10101101110
11011
1111111110101001
1111111101010100
1111111111100011
1111111011011011
1111111100100010
1111110100010100
1111101111000000
1111111001011011
1111111001010101
1111111110110010
1111111010101111
11010000
1100001011
110001000
1111111011110101
1111110101011101
1111111101000111
1111110101101011
1111111010010100
1111110111011001
110001110
1000110001
1100011100
1110100000
101001101
1100110100
10000011001
101100001
10101010
11000110
1111110111010001
1111111010100100
11011100
1001011
1111110110001110
1111110100000000
1111111000100000
1111110111111111
1111110111111001
100010000
1101001110
111011
1111111011100100
1111111101000011
1111111010101101
10101011
111110011
1101111111
1000111000
10110010
1111110011001000
111111
1000111001
10000011010
1011011110
110001111
1111111101011101
1111111000011011
1111110100000001
10110010
110001100
1100110
1111111010011010
1111111011010110
100001111
1001010111
1111111101011010
101110101
100001
1010000101
1111111111001110
111101100
1100011
10001110001
111010100
1000001
10001111101
100111111
1111110111011100
111101
11001001
100011011
1100000110
11011
1111110010110101
1111110111010110
1111101110011000
11011
1010000
1111110110100100
1111111101000101
11101011
10001100
110000
111111110
1001000111
101011011
1101111011
111011010
1010001011
10000101100
10001011101
1111111111000110
1111111011010100
1001010101
1111110001001110
1111110000001001
1111111100001010
1111111110110111
10100111
1111111010110100
1111111010010101
1111110111000010
1111101111100001
1111101111010000
1111110111101100
1001110
1111111111111111
1011000101
110010011
11001101
10010001
1100011100
10100001111
1101011010
101010001
1101101101
1100100010
1000101011
11100001
1111101100111000
1111110101111100
1111111001011011
1111101011101000
1111110101110100
1111111001010110
1111110101011001
1111111001000111
10000001
1111111100110000
1111111101001100
1111110010111101
1111101111110100
1111111010100000
1111110001001010
1111111100111010
111110011
100100011
101010111
1111111001001001
110101100
1001101101
1010001010
1011000
1011000
111110
11011001
1111110000101111
1111101111010111
1111110101010111
1111101101010101
1111111101011111
1111101111000100
1111101011011011
1111110111011100
1111111011110000
1111111001011011
1111111010101100
1111111011100111
1111110101110101
1111110001101101
1111110101110101
1111111000001100
111110100
1100000000
10000010
1111111110111101
1111111001011101
1111110101110001
1011010011
11110
1010000011
1110010101
1111010010
100111111
1111101001001100
1111110000000000
1111110001001111
1111110111001010
111001
1111111000111010
1111111000011100
1111111000110000
1111111011111000
1111111011111100
1111110111111111
1111110101001110
1111111001101001
1111111000100111
