1111110011010100
1111111010100000
1111110100101110
1111110101110100
1111111001100000
1111110011100011
1111111000101011
11111
101000010
111101
10111001
1100010001
11001100100
10100100111
10001110010
1000001111
1111111011111000
1111111010001000
1111111001000001
1111110100010001
1111110111110110
1111110111100000
1111111011111011
1111111101001111
1111111000101100
1111110000100001
1111101011100111
1111100001110101
1111110100110110
1111111011100011
1111111100110111
1111110111011000
1111111010100001
1111110110101000
1111111111100101
10110000
1111111101001010
1111111101010100
1111111101100000
10100011101
10010010110
10010101110
10000110011
101110000
1111110111000110
1111111010111001
1111111000110011
1111110100010010
1111110001011101
1111111000100001
1111111000100010
1111110110010110
1111101100101010
1111100111111001
1111110000001000
1111101000110111
1111110110000001
1111111101000011
1111111001101110
1111110110110010
1111110100101010
1111110101111100
1111110110110100
1110111
1111110011000111
1111110100000100
1111111101110011
10011010010
111000100
10100101111
1101000101
111111
1111110111000100
1111111110010001
1111110101000000
1111111000111011
1111110100001011
1111110111010100
1111111101001111
1111111001111001
1111110000000010
1111101110001001
1111101100110100
1111101100011111
1111111100100011
1111111111000001
1111111111000110
1111110100000110
1111111111001011
1111111000010111
1111100111001101
1111111000011001
1111110110111001
1111101001100011
1111111000110111
1010001001
111111
10101100001
1110101100
1111111101010011
1111110110100001
1111110100110110
1111101110000101
1111101111110011
1111111000101101
11111
1111110111111010
1111111011010110
1111110101001011
1111110110000011
1111110001111001
1111111000000111
11000000
11111100
1111111010101010
1111110101001111
1111111011001110
1111111110000111
1111101000000011
1111111011110111
1111111010000101
1111101101010001
1111110011100001
11011110
1111110101001011
10001110101
10100110100
1111110100001111
1111110011000010
1111110000110110
1111101001001110
1111110010000010
1111110010111111
11000000
1111111010100001
1111110111110011
1111111001111010
1111110010100101
1111101101011100
1111111111101110
1111111100000001
100110011
100100010
1111110101110011
1111111111010111
1111111111011000
1111100011111011
1111111100101101
1111111101100111
1111100001100100
1111111000100000
1111111100001001
1111111111010100
10111111
1111111110111001
1111111000010011
1111110111001101
1111110101111100
1101101001
1111111111000001
1111111001010000
10001000
1110101011
1111111000100101
1111110
111000
1111101100100010
1111111000111010
1111111111111111
100000
110001001
1111110110110101
1111111011111111
1111111101010101
1111100011101001
1111111001101000
1111111000111101
1111101001100111
1111111000100010
1111111010101001
1111110111001100
110000001
1111111101010010
10010111
111001100
1111111111101100
1001011001
1000011110
1111111101001111
1000010
1111000010
1101010111
111000100
1111110011111101
1111110111001001
1111111010110100
100000000
1111111110001111
101011010
1111111000010110
1111111011100010
1111011
1111101010101110
1111101101000000
1111101
1111101111011111
1111110111101010
1111110001110001
1111101011000011
1111110010010100
1111110110111110
1111110001100001
1111111001110001
1111111110000111
1111111111111100
1111111010001111
1111110010010000
101000010
11111010
1110100100
1101001100
1111110001101001
1111110110111011
1111111001110011
110010010
1011011
1111111111110001
1111111001000111
1111111111110100
1111111101110011
1111110000101010
1111110000110111
10100
1111111100010000
1111111100000011
1111110000010101
1111100110011100
1111100010000101
1111101001010100
1111101001010011
1111111010011010
1111111111110000
100000000
1100001
1000
1001110000
1111111000100110
1000
10010100100
1111111001110011
1111111011010000
1111110111011000
1000000101
1001000100
1111111101110110
1111111000101000
1111111010010101
11110010
1111110111011010
1111111010111011
1111110111111011
11
1111111010101011
1111110111100110
1111101111011101
1111110011100011
10111001
101000001
111000110
10001100001
1101000110
1100010101
1110101110
1111111110111101
110010111
1111111101111001
1001001101
1111011000
10111100
1111110000101010
101111011
110101
10010110
1111110110000010
1111111011010001
1111111011011011
1111111110011011
1111111010110000
1111110100010101
1111111111100000
1111111101010001
1111110101000011
1111110100000110
1111111000010010
1111111011111000
1001011010
10000111000
10010001001
10010011101
1111110101111011
11010101
10001011000
1111111101111010
1110101
1111111101001111
10011111101
1001011000
1111111110010011
100011110
110101011
100110111
1111111111000100
1111111110010010
1111110010110100
1011100010
1111111011111110
1111110010101110
1100011101
1111111101001100
1111111011101011
1111111010010001
1111110111101101
1111111000100101
1000001
10100001010
1110000010
10000101
1111111000110111
1111111111000110
10011011110
1111110100111100
100100100
1011011
1001001100
1101000010
1111111010010011
10001101
1111111110111100
1010001
1111111110010110
1111111001111101
1111101101001100
11100001
1111111100110000
11110010
100001111
1111111111000101
1111111111111011
1111111101010011
1111110101100111
1111111100110111
1111111010101111
10111110011
1111011001
1001011101
10010011110
11011011111
1110011
1111100011100101
11011100
101100101
1011110000
1111111011111010
1111111111000010
1111111101000000
1111111111111010
1111111101101101
1111111100100000
1111111001111100
1111111000111001
1111111100110101
1111111000011100
10101010
1111111111000111
1111110011011010
1111111011010110
1010101010
1111111101011001
1000101111
1111111111010111
1000011101
110010111
1111111111011110
100000001011
100101101010
1111111110011011
1111110001011011
1000000101
1111111101101110
100101101
1111110110101101
10100100
1111110110000101
1111111111100110
1111111000100110
1010
1111110110001101
1111111000011000
1111101111101111
1111111110011010
1001110
1111111000000101
1111111001111111
1111101100011001
1111111100111111
10001010110
110010000
100101001
10101010111
10001110001
1111111111101101
10011100
10011110001
110111
1111110100011110
1111101100001001
1111111011000100
1111111101100100
1111111011101111
1111111011110001
1111111000000100
1111111000101111
1111111010110011
1000100010
1111111000110000
1111111010001001
1111110101101010
1111111000000111
1111111100001111
111000
1111110011010010
1111100111111101
1111101110001100
1111110010111010
111000101
11011100101
1011001100
1001100
1111111001000101
1111110110011010
101110001
11010010
1111111000111110
1111110011111001
1110011
1111111100110010
1010
100001110
100
1111111110010110
1111110111101111
1001000101
11000
11100100
1111111001000001
1111110010000000
1111111011010010
1011011001
1111101110110101
1111011100101100
1111101001011000
1111110110010101
110111111
11100100
10111100
1111111110010110
1111110110111101
1111111100100000
111011001
1001011101
1111111011110110
111011
1111101101101000
1111111011110100
1111111011001011
111000101
1111111110101011
1111111100011000
1111111010101110
100010111
10110011
1111111110011101
1111111101111100
1111111001001111
1010011011
10000111001
1111110110011011
1111100100010011
1111110101001000
1111110000111110
1111111011010010
101101010
1001000011
1110110011
101110010
1010100100
1100110001
1111111011111010
111001100
1111111101001000
1111111001110000
1111111110011001
1111111110011101
1101101011
1010
101000101
1111100
1000000101
1001011110
10011111
1100011
11001001
101000010
1000011100
1111111100011001
1111110111100111
11100100
1111110001011110
11111
111000111
1111101101
11001001111
11010010001
10010001101
10000110
1111111111111100
111011001
1000001100
1111110110111100
1111111000101100
1011010
111011111
1010110011
101101101
10001001
1101000111
1110011010
1011000011
1111100111
111100000
1111111101111011
101100010
1111111011001010
1111111011001010
11001110
1111110010011100
1111101010110101
1111110101111110
1111110100001101
1011000
100110010
101001110
1111111101011001
1111111100111111
10001000110
101001110
1111101010101111
1111111110110011
1010111110
101111101
1011111000
10001010
110101111
1111000011
11000111010
1110111110
1101000110
1110110000
10110
11110011
110110111
1100110100
1100110
1111101011101000
1111110001101000
110011
1111110100000100
1111110000111011
1111110010100011
1111111101001001
1111111001100010
1111111010000101
10001010000
1111101101000100
1111110101111010
1001111111
111101111
1010101110
100101000
111110001
101000111
1011111000
10000001010
1110111101
10101101110
1111100100
1001100111
1001110
1110001101
1101000101
10101111001
10111011
1111111111001110
10001101
1111110110110101
1111101111110000
1111110000111101
1111110001101101
1111111000100001
1111111100101100
1111111100001010
1111101010011111
1111111101110010
11111000
100101100
111000101
1010100110
10110100
110000
111100001
10011111000
1011010111
1110001001
1000011110
1001111110
1000101000
10011001000
10101011001
1010011110
1101101
1111111100101101
1111111101110000
1111101101101100
1111100110010010
1111111010101101
11101110
1111101110011010
11110010
1111101100101101
1111110111110100
1111111110111000
1000000110
1011000100
10000101111
1101010011
110100111
111001001
1011000110
1000000000
111010110
101010101
10001001
1111111110011111
1000110111
1101110111
1101100101
110001000
1111110100110000
1111110000111101
1101101
1111101101101111
1111101000000100
1111111010101001
1010
1111110101111111
1111110101110111
1111110111110010
111000001
1111111010
1111000101
1100101111
1100011000
1001111110
1001100
1111111001
101000
1111111110111110
1111111111000111
10000011
1111111111100100
1111111101001001
111100111
10010000110
100101010
1111111011110000
1111110100110110
1111110111111101
101011
1111110010101100
1111101101100010
1111111111010001
1111110001101101
1010010
10000100
1101000010
10001000101
1110100110
1010011001
1101001111
1101100001
110000010
1011000111
1110100110
1111111011110101
1111110110111110
1111110111111011
110100011
1111111101011101
1111111100110011
111011001
1010111111
1111111110000111
11000011
1111110110000011
1111111010001000
111101000
11
101111101
1111111100100000
1001110111
110111110
1101010010
10001110010
1111010010
10010100110
1011101111
1110000000
1010110001
101000011
10010010011
111110001
1111110110100001
1111110010011010
1111111010101110
101001000
1111111000001011
1111111101110010
111101
1111111000001101
1111111001011001
0
1111110101000111
1111111111011000
1111111101000010
1111111001010011
110101110
101000000
1100011110
1011110100
1010110110
111000000
100101101
1100010001
10101000
10101110
101011100
111001100
111100101
1010011
1111110011111011
1111111101001000
1111111100111001
1110101010
111000010
1111111010000011
1111111011111100
1111110010110100
1111101000010010
1111101101010010
1111110000011011
1111111110001000
1111101011000111
1101000011
1111001101
10000010001
1110011010
1000101011
1100000101
110111100
1111111111111111
110111011
1000011110
10001001101
1000111000
