1100001111
1101001101
1100011110
100100101
10000110
1111111111110000
1111110100110010
1111111100000111
110010001
100101000
1111111010001000
1111110101001100
1111101001100101
1111101001000100
1111100111000000
1111100110100000
1111110101101010
1111111011100010
1111111111100111
111000100
10001011100
1011110010
1011010011
10011011100
1101111101
1001100
1111111101111010
1111111110001001
1010110001
1101000110
1100110000
11111111
100000010
1111111101001100
1111110011101110
1111111111001110
111010100
10100100
1111110111011010
1111110110001000
1111111001111110
1111101100001010
1111101101010110
1111101001111100
1111111100011100
1001111110
100101010
1001101111
10011000000
10010000001
1001101010
1101111110
1110100011
1101011000
1111111110100100
100110
110100011
1110011101
110011110
1111111101100000
1111111011111101
1111110111000010
1111111111011100
1101110
111101001
1000000101
1111111100110100
1111110101000000
1111110111000001
1111110100111110
1111111001001011
1111110110000000
1010010101
1110001010
10001100110
1011000000
1111010101
10010000111
10011110010
10011000011
1001100101
1001111111
1111111
1111110111110110
1001001111
1011010001
100010101
1111111100111111
1111111001001010
1111110111110010
111110110
11101000
1001110110
111000111
1111111010011000
1111110110110001
1111111001110001
1111111011001100
1111111111111111
1111111000101111
10000100110
10111000000
10111101011
1110110001
10110110000
10001010111
10111100011
10001010010
1010011110
1001101011
11011101
1111111100000010
110001101
1010010111
111100
1110
1111110110100001
1111110100101000
110100
1111111010010000
111110
1100000100
1111111110100110
100000001
1111111111011001
1111110100001011
1111111001010100
1001000011
10100100010
10000100100
10010111100
1001110100
10010111110
1100000001
1100001010
1000100100
111000010
1111111111000100
1111111100111001
1111111101101110
111011
110100011
1111111101100110
1111110111101111
1111111100101001
1111111001110111
1010010010
1111111011100001
101000101
1011111111
11011101
1111001011
1111110111001010
1111110111001111
1111111000000011
110001110
1101000100
1000000
1111101101111010
1111111111101000
1011110101
1010111011
1111110010001011
1111110110000001
101111
1111011
110001000
1110000
11100100
1001010110
1111111010011001
1111111101111100
1111111011010011
1111110111111001
10010001100
1111111101000100
1000111100
1001111110
1111111010101001
101011001
11001
1111111011111111
1111101011000000
11001000
1111111011001101
1111110101010111
1111100010000000
1111101111100100
10111110
1111110111111010
1111101100001110
1111011100110011
1111111001011001
10011111
1100000
1111111011100001
11101000
100101001
1111111101100100
1111111010011011
1111111001110100
1111111111100111
10011111010
1111111111000011
1011101
1001100001
1111111100010001
1111110001011000
101000
10110100
1111110101111000
10010001011
110101110
10000
1111110100111101
1111111010110000
1111110111010111
1111101111100101
1111101111111011
1111011100100011
1111011100001101
111101
1111111010011011
10011110
1111111011110100
101001011
1111111000000101
1111111100111001
100
1111111100100010
10000011010
10010010
1111111011011101
1111111100111110
100110000
1111101000101000
1111101110011110
1111110100000100
1111101100100010
1111110111
1111111100110010
1111101010101011
1111110010110100
1111101100110010
1111010010110110
1111011100010110
1111110110110001
1111101010010100
1111001111010001
1111100111001000
1111110011100111
11000010
1000101
1111111011011000
1111111111000100
1111111110010000
11001101
1111111000111111
1101011
1111111100101100
1001111111
1111110110101001
1111111100110001
1111101010010111
1111110010101000
1111100000101001
1111101010010010
1111101100111110
1111110101100011
1111101100101010
1111100100011001
1111100100110011
1111010000111101
1111010111110000
1111111001000011
1111110100001100
1111011111010001
1111010001111010
1111101011010110
100110011
1111111010110111
1111111000000111
1111111011000100
1111111110011010
1111111101011010
1111111101010101
1111111101101010
1111111101000000
1010111000
1010001010
1111111110101101
1111101011001101
1111111101101011
1111101100101101
1111101101100000
1111101110011110
1111110011111011
1111110010101001
1111100111111000
1111101010001011
1111101011001010
1111011000111100
1111111011010000
1111110100010000
1111100011000111
1111010100010000
1111100110011101
1011100
1111111110100010
1111111111100111
1111111111011110
11100101
1011000000
1100110
1111111001011111
1111111010111010
1111110001011001
1111110110011011
1010010010
1111111100111001
1111111001011011
1111111011000010
1111110101100011
1111111001000001
1111110011100111
1111111011111111
110000101
11001
1111110001010111
1111010111000001
10000100
1111101001001111
1111110010010110
1111101001111111
1111101000100011
1111111111001100
1111111011101000
1111111001000100
1111111100111101
1001
100000000
1001100111
1111111110010100
1111111110110100
1111111001100110
1111101011100111
1111101111100000
1111111100100111
1111111010110001
1111101100101101
1111101011011111
10001101010
1111101110110000
11101100
1010101011
1111111110001010
1111100100110101
1111101011000101
10111001
1111101011011000
1111101110111111
1111100100000111
1111110100100000
101101
1111111011111101
1111111101100110
1111111110111101
1111111110101001
111101110
100100101
1000100011
1001010100
1111110110100101
1111100001001110
1111101100100000
1111111010011000
1111110111100111
1111100001101100
1111011010001110
11000001010
1111110110101010
1111110111010010
1011001110
1111110111010110
1111101011000001
1111111010110010
1111110101101001
1111011001111001
1111100010010100
1111011101110111
11101010
1111111110101010
1111111100110110
1111111110011111
1111111001011101
1111111111000010
1100101
11100010
1100100111
100110011
1111110000100011
1111110010100001
1111110101100101
110011011
1111111101110000
1111100000100110
1111110100011110
1011101001
111011100
1100011001
10101010001
1011001101
1111111011000010
1111101011101010
1111100110000000
1111100100111111
1111010010010111
1111100101010001
110011101
101110001
1111111110001100
1111110101000111
1111111100111110
1111111000000100
11001011
1110010
1011000100
100101
1111101111111101
1111110111010011
110111111
10001011001
11101001011
1011110101
10001010111
1100110000
11001001000
10100011100
10100011111
1101010000
1111110100000000
1111100110001100
1111010110110000
1111011100010110
1111010111011010
1111110100000101
10100000
110111
10011010
1111111000111110
11000000
1101001
1111111110011000
1011110
1111111011001000
110001000
1111111000010110
1111110001110010
10100010001
11110100010
11100111111
10110010000
11010111010
100100010000
10101010000
101100011
1010011001
101000000
1111100111100000
1111011011110011
1111010000101000
1111010110010000
1111101010110100
1111110111010001
1111111110011100
11000101
1111111100011011
1111111101100001
111000101
1111111100111111
100011110
1111111110001110
1111111110110110
1111111110001011
1111110110100001
1111111000000001
11000000101
11101001010
11001101110
101110101001
101011100001
101111010101
11000001111
10100001101
1010110011
1111101111101011
1111101100100010
1111011101101111
1111011010010100
1111100010100100
1111110110000010
111110
101010001
1111111110011111
1111111100010110
1111111001010010
1111111111010000
1111111100001111
1010
1111111111100111
1111111000011001
1011000
1111111101001100
100000011
10100101110
100010011001
11110010010
110000111000
110001010001
11110001111
11001110101
111100001
110001010
1111110101001001
1111101011000000
1111101001001101
1111011010101110
1111110001001010
111001010
1101111110
100001110
10010
1111111001101111
1111111010111111
1111111110000100
1111110110100001
1111111011001100
10001111
1111111100000000
1111111110111110
1001010010
1000010100
10011101110
11000100011
100110101011
110001101111
101011011001
10111100100
10111000100
1111001
110010
1111110011000101
1111110011001010
1111101100000010
1111100011101111
1111111111101000
1100111011
1101110110
11110001
1010111
1111110100110111
1111111001111100
100111001
1111111101110001
1111111010001001
11000000
1111111010100101
1111111100100011
1010101000
111000010
1101011011
1111001110
100011101000
101011001100
100100110111
1111010100
10111100
1111111111110001
1111110000110110
1111110011010111
1111111110011110
1111110010000010
1111101010101001
10110100111
1011110011
1011011100
10000000
11010000
1111111010100110
1111111100011011
10111011
1001110
1111111100011010
10111000
1111111001100111
1101001
10000001111
1011001001
1110011011
1010111100
1101001000
11000111000
10010011010
1111111010110111
1111110101101011
1111110110101010
1111101011001000
101011100
1111111000010101
1111111001011000
1111001010
11011110101
1101001100
1111001010
1010101001
1111111111010101
1111111100111001
1111110111110011
1111111111101011
101011
100010100
1111111110010000
1111111011001010
1110110
1110111111
100110110
100101100
1001100001
110111000
10100111010
10000001101
1111111100000100
1111110001001010
1111101011110000
1111111010001001
1111110110100011
1111111111001101
1110101101
11110110100
10000001010
1100001111
110111011
10010
0
1111111001110010
100000100
110011
100011001
101001
1101110000
1111111111101111
11101001
1011010101
110000000
101001001
101010011
1111111110101110
1110111111
10010000000
1111101110001001
1111100110100001
1111111011010011
1101011
1111111101100011
1100100000
11010110001
10010101111
1100000101
11101001
100101110
1111111110010101
1111111110110000
1111111101111101
101000011
11000000
11001101
1111111111000111
110110001
1111111101001010
1000101111
111000111
1111111101000100
1111110110101111
1111111110110110
1111111100100000
1011010110
1111111111011101
1111011010101110
1111100000100001
11111000
1111110111110010
1101101111
11001110111
10111011001
1010011010
1011111010
1111101011
1000111110
10001011
1111111000001100
110
1111111111111100
1000101
1000010111
11011011
1010010
1111110111110011
1111111110111101
100011001
1111111001100001
1111110001001111
1111110110000111
1111111000111011
1111111011101001
1111110001101110
1111010101101101
1111110100010101
1111110110100101
110100011
1011111011
10001110010
1110101011
1110100111
10001111100
10111000000
10101000100
1111111111110000
1111111100011111
1111111100101000
101001
1111111110010101
1001110010
101001010
110010111
1111110111100100
1111111011100111
1111111111001010
1111111001100000
1111111000011100
1111111011111001
1111110000011110
1111110010001101
1111100000111111
1111011100110011
1111100111111010
1111110000000001
11100000
1110
1111111110101110
1100110111
1001011000
1111000111
1001100100
110101101
1111111111101011
1111110111101100
110001001
101100
111100110
10100100101
11111010
1011000100
1111110100100000
1111101101010110
1111110101000001
1111111101110000
1111111011011111
1111111000100011
1111111000011110
1111100001111110
1111011010011111
1111011111110101
1111011001001101
1111110111101010
1010000101
1000100000
1001010100
10011110000
10000011110
10011011110
1111010000
1111110100
1111111111101110
1111111110110100
