1111111110010101
1111111101011110
1001010
1111111101001000
1100
1011001
1001001001
1111111011011010
1111110000011010
1111101100010111
1111110110010111
1111110100001000
1111110111011111
1111110100100000
1111111010001011
1110000110
1101101110
10000001011
10101101000
1111111010111000
1111110011110110
1111110101010011
1111100111110110
1111110000010010
110110000
11110010111
100100101000
101001011101
1111111101011010
11000000
1111111110100011
1111111010000111
1001
100100111
1111111110100101
1111111011111011
1111110110110001
1111110001001001
1111110101001011
1111110010000011
1111110010100011
1111110110011111
1111111101110101
11100111
111110110
1111111110101101
100001100
10110110
1111110110011101
1111111000101000
1111101101100110
1111101110001111
11100011
11011010011
10011100111
100001110001
1111111001011000
1111111001100011
1111111011000101
1111111111101011
10110010
11010001
111001011
1111111011110011
1111110100101111
1111110111100011
1111110001000010
1111110000000100
1111110010111011
1111110110000100
1111111010110001
100110101
11001000
1111111001110011
1111110100110000
1111111101100011
1111111101000001
1111110000010111
1111110001101001
1111110000010011
1010111001
1110100110
1111101110
100001001111
1111111010100110
1111111010000000
1111111110010100
1110101
1111110111101000
111010
1001110001
1111110111101001
1111110111010100
11101010
110100110
1111101111110111
1111111000100110
1111101100111100
1111101110100101
1111011
1111110110001100
1111111101100001
1111111110100101
1001001
1111110111110010
1111101111110111
1111101110011011
1111110001110011
1111111111010011
111010100
1000111010
11000100001
1111111001111010
1111111101111101
111110
11101
1111111110000110
1111111111110001
1010110101
1011011
110
1000100100
101110011
1111110001010111
1111110100101111
1111110100011011
1111101000100001
1111110110101010
1111110001100101
10110111
10100101110
1011000110
1111111001100011
1111101110010111
1111110001010000
1111111001010010
1111111110010100
1000001111
1001111001
1000011101
1111111000011010
1111110011000111
101000
101100100
1111110111101101
1111111001110101
1000100101
1111111101100111
10001011
101000000
1111111110010010
1111101111011101
1111111000111111
1111110100000001
1111111000110111
1111110010011110
11110110
10000010111
100110011
1011010111
1100000
1111110000111010
1111110110100100
1111111000010010
1111110111011111
1111111011011101
1111111110010000
1111111111010101
1111111111101011
1111110100101110
1111111011001010
101101101
1111111000001001
1111110111000111
10011110
1000011100
10111010
1111111111111101
1111110100111110
1111110000110010
101000
1111110101100010
1111111101101001
1111111011110111
1100110110
1011011100
11101111
1001101000
1101000
1111110110110111
111010101
1111111111010000
1111101010001110
1111111010110111
1111111000001111
1111111100000111
1110000
1111111011011101
100010
100000100
1111110101111111
1111110110111011
1111111011111101
1111111100
100000110
1001111100
1111110010110011
1001110010
100000001110
10100110101
1111001011
1111111111000001
1111111100001001
1111101100100110
1111111011100100
10101000000
10010110
1111110001100111
1011101110
1001110
1111100111000111
1111110111001110
1111111101111111
1111111011100001
111
1111110100011010
1111111010000110
10001100
1111111001000110
1111110111101100
1111110010100110
110001000
101001110
1101101010
1111111011000100
1011010101
100101010100
100101101010
11010110010
1111111010100000
1110000
1111111011110111
1111111001000010
1000110100
101111011
1111110011110001
111001100
1111111111110101
1111100100000011
1111110000011110
1111111110101100
1100001
1111111010110110
1111110100110010
100010101
110010101
1111111111000111
100010101
1111111101110010
1111111100111001
1111111100000111
1010101100
1000101111
1100011001
1110010000
100010110000
11001110110
10000100001
1111101101000000
1111101010011000
1111101100000100
1111110111001100
1111111010000101
1001001
1111111110111011
110100110
1111110000011010
1111110011111011
1111111110101010
1100010
1111111101101111
1111111100111100
101011000
1111111101010010
1111111001101111
100111011
10
1111111111111101
110000
1111111001111000
110000011
1111111110
110110110
1111111000110111
1001100001
100011
1111011010000110
1111100101111001
1111111010010100
11100110
1111111100011110
1000101011
10010100011
1100010110
1111111001001000
1111101111100011
1111111011000111
1111111110001000
1010111
1111111100100101
1111111111001001
10101101
1111110100010110
100010111
1111111000001001
11010101
1111010
1111111001001110
1111111100001101
1111111001100100
1111111100001010
1111101001010010
1111101001011010
1111100001101110
1111011100110000
1111101001111011
1111110101111100
1001001010
1111110111001011
11010101111
100000111101
1111011001
1111110111111111
1111110001100010
1111110111101101
1111111000101001
11000
1111111101011100
1111111110000111
1111110100101001
1111110111110000
1111111011011110
1111110100000011
1111111000110100
1111110110001001
1111110100110010
1111111111101111
1111110011100001
1111110110100111
1111111111100100
1111101110011011
1111011111111110
1111101000111000
1111101111000100
1111111010011100
1111110100001000
1111101000001110
10000101001
11100110101
110100101
1111111111111011
1111101110111010
1111111010100001
1111111000000001
100110
1111111000111010
1111111010001100
1111101110101100
1101101
1111111111001010
1111111101011110
1111110111001111
1111111101111000
110101001
10001000101
10110000
1111110001101111
10011110
111001010
1111101100110010
1111101101100000
10110111
101010110
1111110000001011
1111100111110000
11110001
1101100001
111000110
1100101000
1111111011101011
1101100110
1111111001101010
1111110101101001
1111111100100011
1111111101111000
1111110111110011
10111100
1111111001010101
1111111110101010
1111111101011101
110101010
10010011110
1010110010
10011010
1111110111001111
1111101001111110
1111111101101010
1111111000110111
1111110101110101
1111111111001011
1100101011
1111111110010100
1111111000001010
1111111001110001
10111010
1001110010
10110101010
100110111
101111010
1111111100111111
1111111000011100
1111110101001011
1111110110110100
1111111101000011
1111111111100011
1111111100101001
1111111011111100
11011111
1100001100
10000101001
1101000101
1110010110
11000101
1010010
1111111010101110
1111110011010111
1111111111110000
1001011010
1011110010
10100101110
1110000011
1111101001111000
100101110
1110010110
11101010011
111000110
111000111
1111111100000000
1111110010101010
1111111000011111
1111111011011100
1111111011001010
11111111
1111111011111101
1111001
101000111
1000000100
101000111
11000100110
11011100101
110111011
10101010011
1111111010101000
1111110111101000
100101110
10001100011
1111111110001010
10100000001
1100001100
1111101111011110
100001010
11001110010
10111100011
111010
1110101
1111111010110100
1111110010100110
1111110110100011
1111110111111111
1111110101110000
10000011
1111111011000101
10110
1011000011
1000111
1010111000
1111000101
10100101000
100110011
1000111010
10011010
1111101011100010
1111101100010011
1111110101000010
1111101100101001
1011100
1111110000011110
1111111111111101
10111011
10010000011
1000111111
110111001
100111000
1111110111011001
1111101011010000
1111110011110110
1111111000101000
1111110110010110
11111110
1111111110100101
101011
10110011
101100111
1010111101
10000100010
1001101001
10111001
1111111111110110
1111110101000001
1111110011101111
1111101111001010
1111100111000001
1111010101000001
1111101011111001
1111110000001000
1111111110010010
1111111111011000
1000110011
1100011000
10000100011
1111111101000000
110
1111110100001010
1111111011100100
1111110111100010
1111111101011011
1111111000110111
110101
1111111010111111
10110011
1000011011
1110010001
1010000111
1111111011110100
10011
1001010011
110011111
1111111010000011
100110001
1000100
1111101010110111
1111101100101000
1111110110110101
10010001
1111111111001010
1000001100
11001110110
10000000100
1011101
1000101101
1111110110011101
10001010
1111111100100010
1111111110111010
1111111110110011
10111
1100111
11001
10100101
10010001
110110000
1111111111011000
1111111011111101
1011011111
1101001
1111111010000110
1010100011
1011
1111110110110010
1111101110111010
1111111001001101
1111111111110000
1011011001
1100110110
11100001110
1111010111
101010001
11000011
1111111001101110
11100111
1111111100010110
1111111100010110
1100001
11101001
1101001
100011101
10101100
10111
1111111110011100
1111111001101001
1111110101111001
110001101
1111111111111000
10100110
1011001001
101010100
1101110110
1111111110111000
1100010100
1010110111
110111100
10010101101
1101010101
1001011110
1111111010010000
1111111110001011
1111111100011110
110101110
1000111000
110001011
10110110
101000101
100001110
100001001
11111000
110100100
101000100
100000101
1011011
110001111
1111111100011000
1111111110110010
1110010111
10100010101
10000010
1111010
11001111010
1011111010
1100111100
10101001001
1110011101
1000111001
10110011
111001011
1111111001011010
10000111
1110010101
111010011
1111111110000000
1111110110111110
1111111100111011
1111111100011100
10111111
1011010110
10010111
1111111000111101
100010010
1000111110
1111111111000101
101101011
10100000001
1010000001
1010110
1110100101
1011111100
10001100001
10000000111
10000011
1111110
1100111
111000110
111010111
1111111100111100
1001100011
10111100
110000100
1010100100
1111110101101011
1111110001100010
1111101110010100
1111110011110001
1111110111101000
1111110101110111
1111111000000010
1111111111110011
1111111110001111
1111111001011000
1011010101
10100011010
1011111
111001100
110101001
1111111011100010
1101001100
1111111000010010
1111110111011110
1111110110100111
1111111100110110
110110
1000000001
1101011000
1000011110
1111111011100111
1010011000
10100010
1111111001001010
1111110000101101
1111110000100101
1111111011110001
1111111001000001
1111110110011100
110010101
1111111110110111
1111101111110010
1111101110100101
11011010
1111111101101011
1111110101010110
11110100
1111110010100000
111010
110010010
1111110011100000
1111110010101101
1111101010101101
1111111100100110
110100110
1111111101110001
1010011101
11100000
111111011
110001111
1111111111011110
1111111111111001
1111111000101111
1111111011000010
1111111000001011
1111111001010001
100100010
1011011001
1111111101110110
1111111011010111
1111110101010000
11111110
1111111000111000
1111111010110111
1111111011110000
10011110
10010011111
1000110010
101011111
1111111001000100
1111111101011010
110010111
111110010
1111111110011010
100110110
111110100
1010011100
1101111000
11101011
1111111100110011
1111111110101011
110001011
101110101
1111111011101110
10101000111
10010110001
10011100001
100000100
1011001110
10001111111
11110
1111110000000001
1111111110001001
1111110010111111
100101010
1001000111
1111111110001010
111000
1111111000011101
1111110010110010
1111110101001111
1111110011000101
