1111110101001011
1111111010011000
1111111001010000
1111111000100001
1111111001110110
1111111001111010
1111111111110011
1100000
1111111001011000
1111111100110101
1111111110001000
1101111111
1010111001
10001001101
11001000011
1111111000
11110
1111111100101111
1111111101001100
1111110101100001
1111110001011111
1111111001110101
1111111110000110
1111111111110011
1111110101101000
1111110100101110
1111111000110001
1111110001001101
1111111010100011
1111110111100101
1111111011111100
1111111001010101
1111110100001000
1111111111111100
100111
1111111011011101
1111111101100000
1111110001010111
1111110111110111
1010111001
1000110101
10100011011
10101000101
1010101111
1111111110010011
1111111110101101
1111110100010100
1111110011000010
1111110000111010
1111110100001101
1111111011001110
1111111110111110
1111110101110000
1111101010010110
1111110010100000
1111111011111011
1111111011100110
1111110111101011
1111111110110111
1111110110010000
1111111001010110
1111111110001101
1111110110010100
1111111111100011
1111101110000110
1111101110101111
1111111000110110
1101001010
100110
1100101100
1001010110
11111110
1111110001001110
1100010
1111111011101110
1111111011110111
1111110101000101
1111111010100110
1111111111000110
1111111101100110
1111110111001100
1111110101000110
1111111101001010
1111111101110010
1111111101001000
1111111101001110
1111111011110100
1111110011110101
101101000
100011110
1111101001110100
1111111000111101
1111101110101001
1111100101110101
1111111001010010
11000011
1111110101011111
11110001
1001001110
110011001
1111110100100111
1111110101001001
1111110001010111
1111111010100111
1111111000001011
1111111100011100
1111110001111110
1111111011011000
1111110111100101
1111111100110111
1111111111111011
1010
1111111011010110
1111111001010000
1111111101000100
1111111000100110
1111111111111011
1001111
1111101011000010
1111111110101001
1111101111001111
1111100011010110
1111110000010101
1111111001001010
1111110010010101
1000001111
1111101101
1111111000010111
1111110110110001
1111110111110010
111010
1111111010111110
1111111001000111
1000110010
1111111100111100
1111111100011011
110000010
1010011
1111110110101000
1000010011
1111111011001100
11
1111111111100010
1111110110101001
101110111
1110001
1111101000010110
1111111011100100
1111101110011110
1111011000000010
1111101110111010
1111101100111111
1111111001111000
1111111110101000
110100001
1111110110110101
1111111100100010
1001000110
100100100101
10111110101
11010001
1110111110
10000100101
10001001
1000101110
100100010
1111110110111000
1111111000010101
110110101
1111111101100111
110010101
1111111000100110
1111111010001101
11011001
1111100101011101
1111110001101101
1111110000011110
1111100010010111
1111110011000011
1111101110110001
1111110010010100
1000001
10011110
1011101110
10101100001
10010010110
100010111101
10110101001
1110101000
10000010
10000001110
10000000010
101010001
1111111011110110
1111111110010001
1111111111000101
1111111111000001
1010010
11011011
1011100
1111111110011110
1011011
1111100000111000
1111101010010101
1111111101101001
1111101000100111
1111110001000001
1111110100100100
1111110011000001
1111111011100101
1111111011010100
1111110111010011
1010110110
10101111111
1001111001
100001000
111110
1010
110011110
10100101110
10111011100
1111110011001100
1111111011111110
11110011
1001000100
1000111110
1011011
1111111100110001
1111111111100110
1110000
1111101011000010
1111101110011110
100000001
1111111101000010
1111111011011000
1111110111110111
1111110100110111
1111111000001111
1111111111011001
1111110111011100
101111100
1101011110
1100010011
111110110
10101111100
10001000000
1111111110111010
10110011
100000101010
1001000101
1111111001001111
1111111111110001
1000100010
1001110000
100010010
1111111110000111
1111111110100111
101010
1111101101010101
1111110101001100
1111110011110111
101000010
101110110
1111111100100000
1111111110000101
111110101
10111100100
10110101000
1111001101
1011010000
1000101
1010010000
10010001010
10100101001
1100000111
1111111111111011
1010100100
10101011111
111101100
1111111010100100
101011011
10110101
11
1111111011011110
10000001
1111111101010001
1111111100001101
1111110000010010
1111110010111111
1001100111
101101000
110111
1001101000
1001101100
1001010111
10110000100
1010100001
110110111
1111111110001011
1111110010110100
1000100010
11110111100
100110010
1111111111111111
1000100011
10101110110
1100110010
1111111110100111
111010100
11001110
10001101
1001100
1111111001101110
1111110000010100
1001000
1111111011111011
1111110101010100
1111001100
101101011
1000010000
1000011010
1111111111011100
1111110111001111
101110100
1100001111
1111110100000101
1111101001110001
1111100111010111
1111110110000111
10101001001
1111101110101010
1011100101
110100101
10010110
1100110110
101001000
1011000
111010011
1111111101110101
1111111001101000
1111111001011011
1111110001010011
1111111100111111
1111111001100110
1111110100111000
10101001
10001110100
1011010111
1011011010
11100111
1111111011001000
1111110011010001
1001010110
1111111010011010
1111101010101001
1111111101100010
10000010010
101110101
1111011111100100
1111111110101110
100000000
1011010011
11011010
1111111110010011
1111111010101000
1111111110111011
1111110110110111
1111111011101100
1111110111110011
1111101111111110
1111111000011000
1111101111010011
1111111111110010
110000111
1000110010
110010001
1111111000
10000001000
1001100010
1111101110111101
101110
1111111001111010
1111110001100111
111101111
11111001000
1111110101000111
1111101101100111
111101
1000100101
1110001100
110111
101100000
1111110110110110
1111111001010110
1111110111100100
111000110
1111110100010001
1111110100000110
1111110011111100
1111111001001111
1111111100101110
1111111101011100
1111111101111011
1111110100100001
1111111011010110
100010011100
1111111010
1111111100111101
1011010100
1011100
1111101110100010
1111111110001110
1000000100
1111111000011100
1111101010100111
1111110000100101
100000110
110111100
1111111101010011
1111111111001101
1111111000011110
1111111011000101
1111111001111111
1000011110
1111110101111110
1111110010100110
1111110000111110
1111110111111001
1001001
1111111110111010
1111101110110010
1111100111010111
1111100011001011
1111110100001110
110001111
10011100101
11010010
1111111010110010
1111101011100101
1111101010110000
1111111110000001
1111111
1111110011111100
1111110010010100
110001110
1111111010101011
1111111100111000
1111110111010010
1111111011000100
1111111010100010
1111111100010110
1111111111111011
1000001
1111111001101011
1111111011101111
1111110100010100
1111111001100110
101010110
1111101010011000
1111010011100001
1111011110010111
1111110010011111
1010011
1111111000010101
1111110110000111
11111100
1111111000110101
1111110100110110
10100001
1111111110110010
111110111
111000010
1111110011111010
101110001
1111110110001111
11001
1111111001001100
1111111011001101
1111110011110000
1000000001
1100101
1111111100001011
11101011
1111111100000111
1000111011
1100011101
1111101110000011
1111100101110100
1111101100000011
1111101011010000
1111110000111001
1111110011110010
1111111111100010
1110111000
100010001
1000010100
10000011011
1111111110011110
1001000011
100110000
1111110110010111
110010011
1111111000000010
1000100110
101100111
1111111100100110
1111111111110110
1001111011
11000011
111011101
100100100
101010011
1111111101101101
1010001100
1111110110011101
1111110101110011
1111111011010001
1111101011110110
1111111000001111
1111111111011101
10110011
1110010010
10011111001
1101000011
1001100010
100001101
1001000000
1110111000
1111110010011101
1111110101011110
101111100
101101111
1111000111
100110100
110011010
1111000001
10011111111
10000011001
10001000001
1101110000
1111111010100010
1100011
1111111011011100
1111111101011011
1111110110100100
1111100111000000
1111100111001110
1111110101100001
1111110101101111
1111111010101111
100010100
110111110
1000100011
10001010
10010011110
1111111111100001
1111101000101001
1111111101011101
1000111100
101011101
1010011000
1000110111
1111111111111111
10000000111
1111001111
1110010011
10101010001
10110001001
1111111111101101
1111111110011011
101001100
1011010000
1111110111111111
1111101010100010
1111100100101001
10010
1111111010011100
1111111011101000
1111111100011001
100000011
1100010
1111111010001111
1111101001
1111100111110001
1111110110011101
111010111
100101000
1111111111010100
1100
1111111111111110
110111100
110010001
1111001101
1001010011
10011000010
10010110101
110100001
111111001
10001111011
10100100111
1101001111
1111111100001011
1111111010010000
11000010
10100011
1111111001111100
1111110101101011
1111110000101101
1111111001101001
10010000
0
1111101111010000
1111111010111101
1111111110000100
10010
101010111
1011010100
1000111111
1101
11001011
1001111011
1010111111
10101010100
1101010111
1110000110
1010001111
11001000101
1111011010
10010100011
1111111111000011
1111111011001101
1000010101
1111110010100111
1111101100111011
1111111111110100
11100001
1111101110111110
1111111001011111
1111110001101000
1111110101100011
1111111011101000
110010011
110000110
110110100
1111010111
100100111
110111011
1011
100110100
1111111100010001
1110011010
1111110000
1000000111
10000110011
10110100011
10101011010
1001001011
1111110011101101
1111110001001111
11111111
1111111000010111
1111100011101100
1111110110100001
1111111001110111
1111101100100100
1111101110110011
1111110011100100
1111111001110000
1000010111
111011000
1000010111
1001100000
1000000111
10001000
1000000110
1111111000101100
1111110111001010
1111111011011011
1011111000
1000010011
111001010
10110101101
100001110111
10010101000
1100001100
1111110101011011
1111110100000100
1111111110010110
1111110011111111
1111011000101011
1111111000111010
1111100001001010
1111110000000101
1111110000011111
110011100
1000110000
1111111100101110
1111111010001101
1001010000
1011101101
1010000001
1100111001
111001111
1111110110010000
1111110011110010
1111110101111111
1111010111
100111010
1011010010
10110110011
10111110110
10000001001
1110011111
1111111010001100
1111110010111101
1111111110001010
1111101110101111
1111110100111101
1111110111011010
1111110011111011
11100
111111001
1101001110
110000111
110111011
11111001
10101111
110001111
1011111111
1110001100
1110100
1111110000111011
1111111000011000
1111111010101010
1110100010
11101000
1000100110
10010100000
110000101
10011110
1000101
1111110001100011
1111101111010110
1111101011010101
1111101011101011
110001010
1111111010110111
1001000000
110001010
110101110
101011011
1111111100100111
1010010
1010100
11111
1011000
101100011
1101011011
1111111111010011
1111110001011001
1111111101011101
10101110
1011111101
111011101
1000011101
1000101110
1111111110111110
1111101111011110
1111100011010101
1111101000011011
1111101011011011
1111011000000000
10110
1111111001
1011001100
1010010101
11110101
101110000
101100011
1111111010000010
10100001
1100000
1111111101010010
1111111011100011
