11000100
1111111011100110
1111101
101001001
100001000
1111111011111101
1111111101100001
1111111110110101
1111111000110000
1111111010001100
1111110101000001
10001010
1011000000
10011011101
1101001111
1111110111001001
1111111001100010
100011011
1110000000
11000000100
11011111000
1111110100
101100001
1111110110111100
1111110110101010
1111111100101110
1111110010110011
1111101101011011
101101111
1010010
1110011
1000100
110110010
100101111
110000000
11001000
1111111010000000
1111110101101001
1111111011111001
11111
1111111101100010
1100011110
10001111100
1
1111110111110000
1111111111100101
10100001010
10111000100
10101111000
10011100100
100111111
1111110001100100
1111110010011011
1111111111110000
1111111011101011
1111110100100001
1000000110
1111111101011101
1111111111000000
11000101
1111111110111100
1010110
10101110
10101
1111111101000010
1111111001101001
111001001
110011001
10010110
1111100
1111111110010100
1111111110001000
1111101100110011
1111111000010101
1011110011
1111001000
11010000101
11010001
1110000011
11001011
1111111111010001
1111111110001111
1111111100111110
1111110111010101
1000000000
101001110
1111111110110101
1001111011
11110110
110100001
1111111110101111
11101
11011
1111111011101001
1111111111001101
110011100
1010001101
1010100010
1111111000110110
1111110011100100
1111101000110100
1111101110001111
1111111011100010
101101000
1011010011
1111111000101101
111001
11101010
1111110101010000
1100101
11010011
1111110010111011
100010000
101001110
110101111
10111111
11000101
10010010
11001000
1111111010011111
1011011
1111111001000001
1111111100000100
101010001
11001110011
1111101101
1111111111010001
1111110101101100
1111100111100111
1111100001010011
1111010101110000
1111100010000100
1111101111111011
1111101110110101
1111111110011100
110011
10111010
1001100
1111111110111110
1111111001000010
1000101111
1111111110001111
1000011
101000001
101000111
10001000
101110100
111100
1010001011
1111111110110001
1111111101100001
1010011011
11101100000
10000000001
1111111100001110
1111110111000110
1111100001110110
1111101011011101
1111100011011110
1111011010110010
1111011100111001
1111101000000011
1111110001000111
1111111100101010
1010010011
1111111010111101
1111110110100010
10001000
11101000
10010010
1111111111001000
101011000
1110011
1111
11100001
100000001
1111011
1111111100101101
1111000011
1100100100
1101100001
111111011
1110100
1111110011100101
1111100110100000
1111101111100101
1111110000001101
1111101101111111
1111100000010101
1111110100001110
1111110111111100
1000110000
10000100001
1111111100011101
1111110110011111
1111111100011101
11011000
110000000
11001100
1111111111100010
101010011
1100100
1000101110
1111111110111001
100101111
1011111110
10110011100
111110100
1111101110101010
1111110000111100
1111110000111100
1111101100001101
1111110011110000
1111101111111000
1111111000011100
1111101010100100
1111011110011110
101010
1111111110111100
1111111110110100
1001110010
110101
1111111010010110
1111111011001011
1111111010101110
11111000
1111111111000100
1001101
110111011
10111000
1011101010
1100101100
100010001
1100011100
101111100
1111111110100000
1111110101110000
1111100000110010
1111101001110010
1111101111001111
1111101001010101
1111110001100011
11101000
1111111000111010
1111111000110010
1010000000
1111111101010000
1111111100111111
10001101000
10000111000
1000100111
1111111100010110
1111111100100100
1111111111111111
100110100
1111111110110110
100011100
1011100011
111011100
10110111110
10000010111
110111000
1111111101101011
1111111010000001
1111110011101110
1111101000010110
1111110011100110
1111110100010000
1111111111110010
100001001
1111000010
10000010111
1101001010
110101000
101101
1011000011
10010101110
1111001001
1111011010
1111111110001101
1101010
1101100
1111010
1111111001100100
1010010111
11100100
10110100
1111110
1001011000
1000111111
10111011
110010000
1111101010101110
1111101111100011
1111100111111010
1111110101111101
1111111111010111
1010100110
10010010101
1001101001
110000
111000010
10000010111
1001011111
11011101011
10010100101
1001111010
1001001
1111111011000111
111010100
1111111000101100
11
1010110
1111111111100100
1111111110110001
1001000
1100101111
10000000000
10001100101
11001101
1111101010110001
1111111101100101
1111110111010101
101100001
1111111111000110
1010100010
1101101000
1110110111
11110111000
1011011000
11101110
1010110101
110101101
1010000110
1100010100
1111111100000011
1111111110001100
1111111100000101
1111110111000110
1111110111011101
1111111110111001
1111111010101110
1111111110000110
1100
10001011011
11010100011
1110101101
1111111001110110
1111111011110100
1111111100011010
1010010010
100000010
1110100011
100100011110
1010010111
1110000100
11011000000
10100000111
101101000
1111111001
100000110
1000100
1111111101001001
1111111011011110
1111111110001001
1111111000010000
1111110111010000
1111111110100111
11000
1111111011100001
100000010
1111111001100010
1111111111001110
1001010101
1111111010011011
1111110101110111
1111111001100011
1111110000001110
101010110
1001111000
1100000010
10000101010
110010110
1111111
1011011010
101111100
101100101
110100101
1111111110100110
1001011
1111110001110000
100110100
1111110101010000
1111111001011011
1111111011000100
1111110111110000
1111111000101100
1111111001100000
100110010
1111111001001111
1111110110011000
1111111010100111
1001011011
110000000
1111110011011010
1111111111101101
101100100
110010010
1100110111
1010000111
1011111111
1111111010100010
1111111101111010
111011010
1000010010
1100000100
1110001
1111110001111101
1111110011100101
1111111100100111
1111110111110100
1111110111110011
1111111000110111
1111110111011101
1111110101011110
11111
10010
1111110111101001
1111111011111111
101110101
11111010
101111000
1111111111000110
1111101101100111
1111010
1101101100
1100000100
1011110110
1000000111
1111101000010111
1111110011000101
10011101000
111000000
1110000011
1111111011101111
1111110110001000
10000101
10110101
1111111010001110
1111111011011010
1111110110111110
1111110101100010
1111111101111010
1111111001110001
1111110101101101
1111110101000110
1111111011010111
1011011111
1111111101011101
10011101
101010101
1111111000110010
1001110010
1101101110
1011110011
100100111
1111110110000010
1111010000100111
1111100111100000
1111111110110010
111000101
10011001
1111111011010100
1111111101000011
1111111001111000
101110101
1111111011010111
1111111010000001
1111110110010101
1111111000111100
1111110011011000
1111111001010001
1111111000110011
1111111011001111
110101001
110010111
1111110100001010
100010110
1111100111
1001010010
111000100
110101110
10011100110
1111111011000101
1111101111100110
1111101001011101
1111101010110000
1111111000010000
10101110
1111111100111010
100011001
1111111101011111
1111111110101010
1101111001
1111111000111111
1111111001111011
1111111100001011
1111111100001010
1111111001011011
1111111101010001
1111110111100101
1111111110101001
10100
1111111101110000
1111110010000001
1111111110000011
1101001001
11011000010
10100010000
1101000001
11011100000
1100000011
1111111100011010
1111111100000001
1111110000001000
1111101111000100
110001
1000010010
1101000011
1111111111010100
1111111111100010
1001111111
101000011
1111111011110001
1111111101010100
1111111101111010
1111111100010000
1111111110001101
1111111110100101
1111111011001000
10000111
1111111101100001
1111110110000001
1111111010110100
11100011
1100000000
1110110000
1011110101
1111111110000011
110011010
1111111000101010
1111110000101000
1111110100110101
1111101110000011
1111111010111000
100000110
111010000
1011110
1111111100000001
100100011
1011001000
1111111111010100
1000000000
1111111111010101
1111111100101000
1111111010110110
1111111110010000
101110111
1111111111010010
1111111100011101
1111111001011110
1111111101000010
1111111010010111
1111110111111011
111101111
1001011101
1011101010
10010101111
10011001
1111111111101011
1111110111001101
1111110100010101
1111110110110001
1111111011100001
11111111
1111111001000011
1111111110011000
100111111
1111111111101110
10011
1000000011
100100111
1001111
1111111010010001
1111111100110011
1111111111111010
1111110001010011
1111101011000010
1111110100010110
1111111100001101
100001001
1001
1000010000
110000001
1110101111
1101011010
111010100
1101010101
1111110100011101
1111110011100000
1111111001001001
1111110101001010
1111111000110110
1010100
1000100010
111101000
1111111010100010
1111111001111101
1111111101111001
1101101
11100111
1111111110110011
1111110110001101
1111111111011011
1111110101011001
1111101111110110
1111110100000001
101010101
1111110110110110
111011001
11101100
111111
100000000
1100000011
111101111
1011100101
1111111111100100
1111110110000011
1111110011101011
1111111110001101
1111111001100001
110000010
1000101001
1001010010
1111111000011000
1111110111110110
1111110111110011
1000000001
1011011001
1111111101100010
1111110011110011
1111111111101101
1111111110110100
1111110010000110
1111110000100101
1111111110001111
1111110101100001
1111111101110001
1111110010101011
1011111
1011100111
1101100100
111100110
111011101
1011110001
10111001
1101111
1111110010000111
11010011
1001010010
1011011010
1110001000
1111110111011110
1111110011001010
1111111110110000
111011011
11111100
100110100
1111110000111110
1111111101101010
1111110110001010
1111101000001001
1111101110000110
1111110000001101
1111110110111010
1111111101100001
11110
10001110
10010100010
111110011
1010111010
10111000010
1000000110
1111000100
110100100
10101111
111111
1010101011
10111100101
10101000010
1111110011011001
1111101111110011
1111111010000111
1111111100100010
1111110001101001
1111110111100100
1111111010101011
1111111010110010
1111101100101101
1111100011001001
1111101110111101
1111110000101011
1111111000011010
1111110011011000
10011101
1001010001
10010011001
1110
100100010
1010111001
101011011
110001001
1111111100010111
1111110110110101
11100101
100011
10000110000
101000010
1111111111100111
10001111
1111111001000110
1111111001011110
1111110110100011
1111110111111000
1000111001
110001001
1111111001001011
1111111000111010
1111111011111101
1111111001101011
1101101
1111111000011001
110000000
11010001100
1100001100
1111110111110110
1111101111101011
1111111010111100
1010001001
1111111000101000
1111110111011000
1111111111000001
1111111011000101
1111111110000100
1111111110110010
1111111111011100
1111111110011101
11100
1111111010001100
1111111101010111
1111111111001010
101011010
1011011100
1110011010
1111111001001001
1110011
10
1111111000010000
1111110101000000
101010100
1011101101
1110000100
11101010
1111101101110101
1111100100110101
1001110
1011111
11111
10010111
1111111000111110
1111110100100100
100100101
11010100
10111101
