111110111
100001000
10110000
101100101
100000101
1111110110010001
1111110011010100
1111111110111100
1111111110111100
11100011
101010100
1111111100010100
1111110111110011
1111110100101100
1111101010111001
1111100111011001
1111110110010111
1111111101100100
1111111011110101
1010011010
1011100110
1011110001
1001111000
1011111111
100101
1111110100101001
1111111001111101
1111111000111101
10000110
1000101010
101101110
101100001
111100110
1111111011110001
1111110110001000
10010000
1001100001
1010100110
1000010101
1111111100010011
1111111110111010
1111111000010000
1111110010100110
1111101101011110
10111000
0
110110001
110010101
1101111010
1011110001
100001100
1000101110
1111111111011000
11011
1111111111100010
1111111001111011
1000100010
110000001
1111111100100110
1111111101010110
1101001
1111111000001001
1111111100111101
101011111
10000110111
1010000110
1011110111
1111111101100000
11000001
1111111001101000
1111111011100111
1111111110010100
1100101111
111100111
10011100100
1010110011
1010011110
1011111001
1010110100
10111111
0
1111111011011100
1111111100000111
1111110111101000
11100110
101111111
11110011
101001111
1111111011110011
1111111001011010
101001011
11010011
10000001101
1100100000
111100101
100101100
111001010
1000011011
1111111111101100
1101000
10100111100
1010010110
110000010
1011001100
1101100001
1001010010
1100101100
1111111110010001
1111111000011001
1111111010110000
1111111110000010
1111111000110101
100101001
11101111
1111110111011111
10011
1111111000110001
1111111001001101
11001011
1111111101101001
1000010011
10000000001
110011011
1010000101
10000100100
11100000
11010101
1111111100
10011101110
100110000
1111101100000011
1111111000111000
101101011
100000100
1000111111
1111111010101111
1111110110101110
1111110110101011
10101111
1111111010000110
1111111110011111
101100011
1111111101001111
10001101
1100111
0
1011001100
110001011
10011001100
11000000011
10100100110
11001111101
1000000011
1111111101011001
10010110
1010111001
1111110111011011
1111101111101111
1111011000111110
1111101001111101
1111110011011100
1010010
1111110100010011
1111111001110000
1111111011110100
1111111111101111
11110100
100111110
1111111100010110
101110000
1111110111000011
1110001
110100101
100000111
1100010011
10111011
1101111011
11011100001
1101001010
10100000111
110111001
11101000
1111110100110101
1111111001010110
1111100000100101
1111101010000010
1111011101011000
1111100010010101
1111101000111100
1111111010010101
1111100101000110
1111100011010110
1111111011100001
101111111
110111001
1010001110
1111111111100111
101
1111110110111101
1111111110010100
101110110
1111111101101101
10111001000
1000100101
101011010
10100011011
1111001001
1111111100011101
1111110110000110
10011000
1111111001110101
111011000
1111111110001111
1001
1111110111011000
1111101001001110
1111101101100010
1111111010111011
1111101011111001
1111101011000110
1111110100000110
1110101101
110100011
10000000
1111111110011001
100001011
1111111110011101
1111111000110011
1111111110110000
1111111101101000
10100001001
101100011
1111111110000011
11001
101000011
1111111100101101
1111110110111010
1111110111101010
1111111110001011
10001011101
1111111100100100
1111110000011011
1111111101011110
1111101001100111
1111100011111110
1111110011001101
1111110010110100
1111110100110000
1111110100111000
10111011
11001110
10000101
1111110101011010
1111111101010000
1111111111111110
10000010
1111111110110100
1111111111001000
1011011011
10000000
110100101
1111110110011100
0
1111111000101001
1111110101001101
1111100110011111
1111100101011001
1111110000011010
1111111100101101
110000110
1111111000010010
1111101110011000
1111100100000101
1111110000000100
1111110100110110
1111111011001001
1111111011100101
1111110010110100
1111111011101010
1000000101
1111111001001110
1111111111000010
1111110111011110
100101010
1111111111001100
10000101
110010
101101100
1111100110
1111111111011001
1111110100011100
1111111100000111
1111111100000001
1111111110110011
1111110011010101
1111101111011101
1010111011
10001001
1111110110000111
1111101100111001
1111110101110110
1111010111010000
1111101110011101
1111110100110001
1111111011101101
1111110101110001
1111110111000100
110000111
1111111101000000
1111111010100110
1111111001001100
1000001111
111101011
1011010001
1111111110110101
1111111111001001
11101000
1111110010011100
1111111111011011
1111111011010000
1111110110111011
1001000111
1111110001
10110110101
1111111111000111
1000111001
111100100
10100100
100010101
1111010010101001
1111110110111010
1111101110000111
1111111010000110
110100011
1111111011111010
1111110
1111110111101011
1111111101101001
11010001
110111110
10000101100
1101010100
1010011000
1011111000
101100110
1111111100100100
1111101111000110
1111111011101000
1111110001101011
1111110100111100
1010101010
11100110101
1111111010101011
1111111100001011
1000011
1111111011000001
1111111000010101
1111101001101110
101100001
1111111000001101
1111111001101010
1010101
1111111010100101
101010110
11101101
110101000
11000110
1101001101
1001001001
1101000101
10011010101
1100001001
1111111100111001
1111110011100011
1111101000011111
1111110010110010
1111110010100101
1111101111011110
1111100111111001
10001101011
1111111100011011
1111110110100000
110010011
1111110001111111
1111111010101000
101011000
1001110101
1111110011001100
1111110101000111
1111110000010001
1111111011001110
1111111000111001
1000110010
11101010
1000101101
111100111
111101100
1111001111
1100111000
111110011
1111111001101011
1111110101010110
10100111
100000
1111111101111101
1111101110001101
1111110101001001
1111111011111001
1111110011100100
1111110110100010
1000010000
11111101
1111111010101001
1111111110110000
110101101
10011001
1111110000001000
1111111011110110
1111111111111001
1111111001100101
1100110101
1000101011
1000110110
10111001
100111000
1111001111
1100011011
1011110101
110101
1111111110101010
11101111
1000110000
11001001001
1010010000
1111111000000110
1111110001001101
1111111100100100
111011100
1011100000
1100001
1111111000001100
100011011
100000101
1111111001101111
1111101111001000
11101
110
10101
1110101010
1010101111
1100111000
110010010
10101101
1011011011
1110101101
10000001110
1111111111101110
1111111001110111
111111000
11010011111
11011001110
101111
1111111111100011
1001110010
1010101011
1111111100101010
1101010000
1111111000110110
1111110000000110
10111110
1111110101100001
1111101011111010
1111110111010000
1111111101100101
11111001
1111111111011010
1110110011
1011000
1101010100
10001010
1111111100100011
111011001
100111111
100101110
11110110
1111110111001110
1000010100
10010110100
1110100101
1001010110
1000000101
1111111000
1000000010
1110000
101000
1111110011110010
1111111000001100
1111000
1111111000001001
1111111000010001
101111010
1111110111110100
11100110
1111111100011111
101101001
110100101
101101010
1111111011101100
1111110111111011
1110101
1111111010101110
1111111011110000
1111111111101101
1111110100101001
1010001100
1111101110
1001011000
1011010011
100110000
100000100
1011000
1111111101110100
110010001
1111111111001000
111011101
1111111100101101
1110010
1111110011111101
1110110110
110110
1111111010100010
1111110100101000
101001100
1111111100111100
1011100
1111110011110001
1111110000100010
1111111000010100
1111110001110111
1111110011101100
100000001
1111111010000000
11110110
1101001100
110100100
1111000010
1001000011
110100011
111000
110110011
1101100111
1011111101
110111100
10001101
1111101110000001
1111111100111010
1010101100
1111111001101011
1111111101100110
1111110101010101
1111111001111000
1011101
100101
1111110110010110
1111101101010000
1111111001111111
1111110001100100
1111110011000100
1111111010010011
1111111001100000
1111111101010011
1111111010111011
1111110
111111111
1010101100
0
1111111000110000
111000001
110110111
1010110000
110011100
1000111100
1111101110001000
1111001010
1111111010111000
1111110101011111
1111111100110000
1111111101000010
1111111101010001
1111111011010100
1111111101111000
1111101110001100
1111101110111000
1111110000110101
1111110000101001
1111101101010100
1111110001011010
1111110101011110
1111101110111101
1111110100100110
1111110110110100
1010011
1111111100000100
1111111000111001
1111111101011100
11010
1100110111
10101100011
100011010
1111111010111111
101111101
10011100111
1111111010001111
1111111100101110
101011110
1111111110001100
1111111101100011
1111110110010000
1111111100100011
1111111001110111
1111110100110010
1111101110100101
1111100100100000
1111110010111101
1111110000010110
1111101100000000
1111100110011001
1111100111001110
1111101010010000
1111111011001101
1111111100001100
1111111110100110
110101001
10010111
1001100001
1111111101111011
10000010
1111000
1111101110
10011100
1111111110000000
1111110010100001
1111111001100001
1111110001000011
1111111010010000
1111110111001010
1111110110111100
1111111011100001
1111110110110100
1111111110110101
1111110110101110
1111111000011101
1111110010011111
1111101000010110
1111101000011010
1111101101110011
1111110010110110
1001
101011001
10010001
1101011
1111011011
1011010010
1111111101000110
1100110000
1010100010
101011101
101000111
1111111100101101
1111111011000110
1111110011111000
1111110100111011
1111111000110100
1111111101111111
1111111111010100
101110011
1011111001
1110010100
10001011
10100010
1111110101100110
1111101011001011
1111110000110011
1111110100110011
1111110101000011
1110011111
101101111
1111110101011101
1011111
11001010001
1111111111011010
10011000111
10001010000
101100101
11110110
1111
101110
1111111100001110
1111110011110011
1111101101111011
1111110100111100
1111110011110111
11011111
111100101
1001100000
1001111010
110010
1010101101
1111110110011101
1111110101011000
1111110001000000
1111110011111111
1111111101011000
10000010101
1100010011
1111111010101101
10000111010
1101010000
111111100
1001110001
110101001
1111111101100011
1111111101101010
1111111110011100
110000101
100000
1111111011011011
1111111110110000
1111110101010100
1111110100001011
1111111111101010
11111000
111010011
110110010
1111111011100111
1111111111001000
11101
1111111100011001
1111111000011000
1111111100111010
1111111101101001
111101000
1011111110
1111111110011101
1010110111
1111111011011110
1111111111100101
1111111011001110
1111101010111010
1111101110111101
1111110100011000
1111111110000011
10110
1111111010100010
1111111011100000
1111111010010111
1111110000100000
1111110110110010
101110001
1000111001
100010010
101001
1111110010101001
1111110111001110
1111111011100001
1111111110100111
1111111101010000
1111111100101101
100110001
1000111010
10001000
1010100101
1111111010010111
1111110000001000
1111110100101110
1111111110011010
1111110011111011
1111101110110110
1111111111101100
1111111010011100
100111
1111111110011111
101001001
110010010
