1000100001
100100010
111111010
10000010
1111111101110010
1111111000001000
1111111101011111
1111111011011000
1111111111110101
1111111101000111
1111111100001100
1111101001101000
1111100100100110
1111100000000110
1111100010001110
1111101101001010
1111111100111110
1111111000011001
1111111010110010
1111110110100001
1111111110010011
10110110
1111111001110000
10
1001010111
1010100
10001101
111011011
100
11010010
101011011
1001000
1111111110111101
1111111111000100
1111110111000010
1111111011100001
11110000
111000
1111110010101100
1111101110001001
1111101011001100
1111100011100010
1111100001100110
1111101111111101
1101001
1111111010110100
1111111101111000
1111111010000111
1111111110000111
1111111010010111
1111111100110100
10100101
1101101101
111101
110001
101010110
1111111111100000
1001110011
101000100
10110001
1111111010000100
1111110111010000
10001011
1111111111110101
1001011100
11010001
1111110100010001
1111101100001011
1111110110111110
1111110001000011
1111110111000101
1111111010100111
1001011001
101101110
10010100
1111111111011110
1111111111011111
101011110
1111111010110000
101011101
110111011
1000101011
11000001
10110111
1000100
1111111110110111
100000010
100100000
1111111010101000
1111111011011001
100110100
1111111101001100
101010101
100111001
1111110100111111
1111110001111000
1111110101011100
1111110010000100
1111110111001011
10111111
10001000111
1101001100
1100100101
1100111111
1111100
1001000011
100010010
10100101
101001
1111111111110001
11001110
1111111011001001
11010
1111111111100110
1111111001010001
10100110
1111110111101100
1111111011111001
1001110010
1111111110110001
1111111110000000
1100011000
1111111010111000
1111110111011001
1111111110000111
1111101010001011
1111110101000010
1011001100
11101010111
11000010100
10100011010
10010000110
10000111111
1011010010
1101010
1000001
1111110111010001
111110
11101100
1111111011001100
10100000
1111111100000010
1111111000000101
1111111011110000
1111110110100011
1111110100110000
1010000010
1111111101000000
1111111010100111
1010110100
1101100
100010111
1111110111000000
1111101111100001
1111111101000110
1001101010
10010001000
101011011
1111111000110101
101110101
10001111111
1010100110
1111110111001101
1111110111111000
1111111001001110
110001000
1010101011
1111111110010111
1111111111000101
1111111110000101
1111111000101000
1111111100100101
1111111110000100
1111111111000111
1111000101
110110100
1111111111111100
1111101100
1111111001010000
111100111
11001110
1111111100001001
1111111100011000
10111010
1111111010100111
1111111011110010
1111101111100000
1111111110000101
1101001101
1111111111100100
1111101100011110
1111011110000110
1111101011100110
1111111100100001
11000010
1111111110000000
1101000
1111111110100111
1111111011111111
1111111011101011
1111111110010010
1111111010101011
1101001011
100100110
101010
111101101
1111111101101000
1111111011011111
1111101011
1101101110
111000101
11001001011
111010110
100100001
1111110111111001
1000111000
101111101
1111110010111101
1111110011001110
1111100011011100
1111100011010001
11101101
10101110
1010110
1111111100100000
1111111110000111
110111
1111111000011101
1111111111001101
1111111111001001
110000001
10110100
1111111111001011
1111111010011101
111011
11010110
10000111000
10100111000
1001010000
10010111110
111000111
1111110100110110
1111111000010100
1111110001010010
1111101100011000
1111100110111111
1111111110100111
1111101110101100
1111010000011111
1111101001001110
1111111000000001
101011110
1111111111000011
1111111110100101
1111111111001001
1111111111110101
1111111110010001
1111110111000110
100101011
11001
1010110110
1111111000011110
1111111011000111
11000000
10001100100
1101100
1111110110100000
1111111011100101
1111110010100010
1111101010011001
1111101111100001
1111101111110001
1111100011100100
1111101100101011
1111111111110101
1111110100000010
1111100010110110
1111010100111010
1111101101110111
1000000
1111111111110010
1111110100011001
1111110111000011
11011111
1111111100010010
10010111
101100100
100100111
1101101000
111000100
11111
1111111000010010
1001101000
1110010
1111111100110000
1111110101000000
1111111010000001
1111101010101001
1111101100100011
1111111111001000
1111111000110000
1111100111001110
1111110111100011
1111101111101010
1111100110011101
1111010000010111
1111011111111010
1001101
1111111010100011
1111110011111011
1111111011011001
1111111011111111
10010011
100010101
1111111100011110
1111111101010111
1111111110110000
1111110101011000
1111111111001001
1000000011
1001101010
10100111
100010101
1111111100111011
1111110100001011
1111110001111100
1111
1111111110100001
1111110000000110
1111010110010100
1111111111111000
1111110011111010
1111101111010000
1111100110111001
1111101100000101
10100
1111111010110011
1111111101000110
1111111100001001
1001001111
110101011
1100011000
1111111110110101
100101100
1111110110011110
1111101111110101
1111110101111101
100011110
1001111
1111111111101110
1111101110111100
11001010
1111100101110100
1111100010011110
1111111011110011
1111100111001011
1111100100110000
1111101100101010
10010110000
1111110101110110
1111110000101110
1111110011000101
1111111010110101
1111111110100111
11100
100110100
1100
110100101
101100100
1101100001
1001100100
1111001010
1111110100100101
1111110100001000
1111111110100001
11011001
1111111001000001
1111101011110001
1111100001010111
10001100
1111101010110010
1111110101001101
11110111
1111101011010110
1111100001101010
1111111010111110
100000111
1111101111100101
1111110000101111
1111110001101100
1101100
1011011
111010101
1111111111011100
1000111000
1111111111101001
1010001001
100001110
101010110
1011010
1111111111110010
100101
1000110
1000010000
1111111100011010
1111100101001100
1111110001101100
1111111011111001
1111110010010011
1111110101111010
111011000
1111111100101011
1111110001110101
1111110100000100
1111111001001010
1111110110111110
1111101101001001
1111110101111000
1000101110
1111111101001000
1001001100
110111101
1001100010
1111111101110000
111101111
11100011
101111001
110001100
1111111111000111
100101
1010000001
10000101011
10110001100
111101000
101111
1111110110010000
100111101
10111101
1101011
1101101011
1111110010111100
1111101010000110
1111101111100101
1111110000111000
1111101101011011
1111111110110111
1111111101110110
11010010
10111101
110111100
1111101
10100100
1111111100010101
1111111101000100
10101000
1010001010
111110
1111111100001100
10001100100
11011110011
11000001001
11110111
0
100011010
1111111111111010
1111111010101010
110010100
1001010101
1111101100000001
1111101000111011
1111101011001010
1111110000101010
101011000
100000
111001
1111110
1111111111001000
10111010
1000111001
110110100
101000011
11000101
1111111110101011
111101011
1100010
1111110111011000
10011001001
1001010010
1010000100
10010101011
111110111
101110100
1111111101000111
1111111010011100
1111
1111110100100010
1111110010110000
1111111001010011
1111110000101001
1111111110000000
11011000
1111111010011001
11001101
1111111101111100
1111111111000001
1010110
101100100
1111111110011100
1111111001000010
1010110
110010
1111111011011010
10111111
1111111011010000
1100100011
1010101111
100110010
1000000101
11100100
1111111011100101
1111110101110011
1111110110100101
1111111100100110
1111110110000001
1111110111110010
110101101
1111111001010101
1111111111101001
111001011
111010010
100100000
1111110110001110
1111110111000011
1111111110001101
1111111101111001
1111110100111010
1111111010001101
1111110100000001
1111111000110100
1111111010011011
1001010100
111001
10001111001
1111010010
1001110100
10110100000
1000010001
1101100
110110010
1111111111111000
1111111011110010
1111111010001110
1111111110101101
1010101111
1111111001010001
11000100
10010001000
10001001
1111111110101110
1111110100011110
1111110110110011
1111110111110101
100110
1111111110010100
1111110110100100
1111111011110111
1111111111001001
1111110110011100
111101101
100011100
1111111111100000
1111110111111111
1001111101
11000000110
1011111111
11001000
1111111011010011
100110111
11000
1111111001010010
1010010001
1011111100
1111110111100010
10110110111
1110100110
1111100
110100000
1111111111100000
1111111110101101
100101
1111111110110000
1111111110000001
1111111011000110
1111111110010001
1100100
1111111110110000
1011010110
10010110100
1111111111110000
100110
111101
1111000110
101011011
110000
11111
1111111110000111
1101011
1110011001
10000010101
100010010
1011110111
11101000010
101111101
1010110010
110101011
1111111110100010
10011111
1111111111100010
1111111111100000
1111111110010110
1111111101001110
1101101
1111111100010101
1111111111100100
101100101
10011100
1111111001100100
1111111011001010
11110001
1100101010
11001010100
1111000101
1000001000
10000001
111110111
101000101
110001101
1010011111
11011000111
10010111000
1010000101
1111111001001001
1111110111101100
1111110011001000
11100
1111111110100110
11010111
1111111010000100
1111111110000001
111000110
1001001001
1111111110001111
101011110
1111111111010010
1111111110001010
110011101
111010011
10000101100
100011111111
1011010010
1011010
1111101101
10010110110
1000001000
10000100111
10111011010
1010101001
110001111
10011
1111111001010010
1111111111000011
1111111001000011
1111111111101000
10001000
1111110101111100
10011010
1010010
1011010
10110000
1111111111110001
100110000
1111111010010010
11100
1010110001
1111111100111101
10101101101
10001100100
1111111111000101
101111011
11010101101
1110110001
1101000100
10010110011
100101011
1111111110000011
1111111011001001
110011000
1111111111101011
1111110100001110
1111110010000101
1111110101100000
11100101
1111111101001001
11111011
1101010110
1100101010
1111110010000101
1010001
1111111110000110
101000001
11010101
100010100
1110010
110100000
1011100101
1111110110000101
10100011
1110100000
1001101100
1000011011
1000000000
10101001
1111111101001100
11111110
1000110100
11110111
1111111101110101
1111111001100010
1111111110010100
1111110001101011
1111111111111100
111000111
1000001011
111101010
1111110100001010
1111111011110111
11001110
1111111101111110
10110111
1111111110010010
10000000
100011110
1111111100000111
1111111011111011
11010100
101100010
1101000100
1111111010001000
1111110110111101
10000110
1000011
100100111
1010100000
101001100
1111111111010111
1111111011111100
1111111000100101
1111110111101110
1000111100
1010110011
1111111101110010
11111001
1111101010111111
1111110100001001
1111111110111011
1111111101100011
1111111110001110
110011011
111101010
100010100
1111110010001001
1111111101010001
1111110100100100
1101000
101011001
1111111110101111
11000110
101000001
100101100
1101010100
1011001111
111010111
101100001
1111111101011101
