11100000
1111111111001010
10000010
1111111111010101
1010010
1111110111101101
1111110110101110
11100101
1001111000
10100100101
1111100110
11000100
1111110110111010
1111110001100101
1111110000100000
1111100111011110
1111110101111100
1111111000101101
1111101010010101
1111111101001111
1001001010
1101000100
10010101110
1110110000
11010
1111101001010101
1111101111100101
1111110000001111
1000001
101001000
11010110
1111111111110101
1111111101001101
1111110101110110
1111111001011010
1110111
1001011100
10111000110
1110101100
1111111100101011
11
1111110000010010
1111110000100100
1111101111001100
10100
10111011
1111110111010000
1111111111010011
100110110
1010101101
1000111000
10001000010
1111111110010011
1111101111111000
1111110100001100
1111110001011100
100001111
11101101
1111111101010100
1111111101001101
1111111110101000
1111110111110100
11000000
10111110
10001110001
1110001000
1101010101
110011101
10000110
1111111101000010
100111010
1111111111010001
1100010010
1100111101
101101001
100101110
1000110110
111110000
1000000111
110100100
1111111000000010
1111111100011000
1111111101011011
1111110111000110
111100111
110111110
1111111011110110
11001011
10101100
1111111001100001
1111111111010100
1110001100
101101111
100010111
100000010
111110100
111110110
110001011
1101000010
100011
100000000110
11100100001
1011100101
1100111110
11010000
10100110110
10001000001
101111100
1111111000011100
1111111010110000
1111111100011011
1111111011001001
1111111111100010
10111011
1111111001111110
1111111101010101
1111111111001100
1111111100011000
1111111011111011
11100111
110001111
1111000110
1111111111101010
100001100
100101110
11010001
10000011110
1110001101
11110010001
1001010100
1111111100001010
101010
1001111011
1110010010
1101011110
1111111101011101
1111111010011000
1111111001000110
1111111110001111
1111111000111101
101011101
101100110
1111111010001001
1111111101100101
11010
1111111100010110
1111111111000010
100010101
111000111
10001111101
1000101101
10001000010
1111111101101101
100111000
101111
1101111100
100000000
1111110110110011
1111101111011010
1111110100110011
100110011
10000100000
1111111110101010
1111111110010100
1111111011100100
1111111111100110
10111100
1111111111011100
1010011
101100001
1111111101101111
1111111101101011
1000000
101101110
10001001
11110111
1110010110
1101000010
1010000111
1011111110
1111111110100101
1011100
1111111101101111
1101100
1111111001011011
1111111100010110
1111101111100010
1111110000100111
1111111111111000
1010000000
1111110000011001
1111101110000011
101011101
1100110
1011001001
100011001
1111111100111111
101000010
1111111111111110
1111111011001110
1111111111111000
11011010
1010100110
1111111011110101
11111
1000100101
110011100
1111111011111101
1111110000100110
101
1111111011011111
1011010111
1000000011
10010101100
1111111101101111
1111101100100111
1111111100001101
1111111101001100
1111110011011111
1111101011100010
1001000
1000010101
1111111111011001
111010000
1001100
1111111110000010
1111111110001000
1111111111011001
1111111100100100
10100000
1100100010
1111111010011101
1111111101001011
1111110011101000
1111111111000111
1111110100010101
1111110010000001
1111110010101010
1111111011010000
10110110100
11001110
10010
1111111101100011
1111110001110011
1111101010001100
1111110001000100
1111110100100011
1111111101110110
1111111110100001
110101111
1111111111000101
111110000
1111111010101010
101000001
1111111010001111
1010010
1111111101010011
1111110110011100
110100001
1111110111010011
1111111011110001
1111110010110100
1111111100011111
1111110010010101
1111110101000100
1111101110010101
1111100110100000
1111110000001101
1110000111
1101011010
1111111001110011
1111110010001001
1111101100000110
1111101010001111
1111110011000101
1111110011100011
1111111100000111
1111110011100011
1111110101010111
100010101
1111111100101100
1111111111011111
1111111001101000
1001100
110000110
1111111111110000
1001
11100011
1000000000
1111111011111000
1111111000101100
1111110101100100
1001001
1011110100
1111111000110010
1111111010101000
11110110001
101011
1111101101010111
1111101000100110
1111110110010101
1111011010000111
1111100100001100
1111101001001101
1111111000100011
1111111001111011
1111110101100010
1010110
1111111001100110
1111111111111111
1111111101101010
1000000100
1100110011
111110111
10100101
1000001
1111111001010110
1111110010000100
1111111010010100
11000101
1111111011101101
10110101000
10010101101
11010111011
10110000011
110011000
100100011
1111111000000100
1111110011000110
1111001111110000
1111100110100000
1111100110000001
1111111110001011
110110101
1111111101001001
100101100
1111111111000111
1111111101001100
1001111111
1000000101
111110001
1110011110
1100100001
1100001000
1111111111100100
1111110111101100
1111110001010100
11000011
11110000
1111111011001001
10101100000
11111000011
1111110111000001
1111110100100001
1111111101101100
1111111011010011
1111111011011111
1111100001111010
1111110000010001
1111101101010101
1111111010010100
1111111101011011
1111111011111010
1111111111011000
111010010
1001011011
1100110111
1001111110
1101101100
1111010001
1100111000
10010100100
1111111101110000
1111101100111011
1111101001011100
1111110100101010
1111111100000001
1111111010011011
1111110001100010
10100011110
1111110101011111
1111100111001110
1111111101110111
100101
1111111011100010
11101
1111110100111010
1111101100010111
1111101011011010
1111111010001101
1111111001010111
1111111101010111
1111011111
110100110
110010100
1100110110
10000001001
10010011100
10000001000
1000011101
1111111001100101
1111110101101100
1111110101100111
1111111001000010
1111010
1111111101100001
1111110101001101
1111111101010110
1111101110001111
1111110000101111
1111111011101010
1001011001
1111111101000011
1111111111110101
1111111100101000
1111111001001010
1111101010011110
1111111011110010
1111111110110101
1111111011001110
1110001110
1010100111
1110111001
1010110101
1010111001
1010000001
10001000010
1100010001
1111111000000111
1111111000000000
1111110111011110
1111111110000001
10000101101
1011010111
1111111101101100
1111110100010100
1111111000101110
1111110111100110
111010010
1001001
1111110011011100
111100000
1111110101001100
1111101001110010
1111101000000000
1111111111101010
1111111010101000
1111111111011001
1110100101
1110000001
1010101101
101010101
10100000
1110110011
111101101
1110011100
1111111101111000
1111101110111100
1111110101111000
10100001
1111100111
1111110111010101
1111111011110100
101000010
1111111011001101
1111110110000101
110010000
100001011
1111111000101100
1110110
1111101100111101
1111100001010100
1111110000001001
1111111101000111
1111111100011111
111001101
1110011000
101011100
1110000110
111001101
101111110
111000010
1100010001
11101111
1111111001101111
1111110110011110
1111111111001101
1100111
1011101110
1
1010011
10011000000
10001011
11000010
110000110
1111111011000101
10001000
1111111110000010
1111110110111010
1111101001101100
1111111101000110
1111110100100011
111100
1010101
1101100111
1001110100
1010001010
1111111110001011
1111111100000100
10101001
11111110
1111111101010000
1111111000110001
1111101111000001
10000010
1100011100
1111111111111100
101000010
1111111101000000
11010010
1111111000100111
1111111110010010
10001100010
1110001111
10000001010
1000001100
1111111111010111
1111110101110000
10111111
1111111010101111
1111111000101111
1111111010111110
10100001
1010111
1111111111100000
1111111011101000
1111110010000010
1111111100111111
1111110111001000
1111111100100100
1111111010011000
1111110000111101
1001101
1001000101
111101000
100101001
10100101
1111111110011110
1111111001100111
1111111100110110
1100001111
10100001110
111001101
111101001
1111110100100101
1111101
1111111001001011
1111110011010010
1111110
1111110011110110
1110000
1001110
11010010
1111110101100101
1111101110111101
1111110111100001
1111111101100011
1111111001001110
1111111000010001
1111111010001010
1000101
1111111000111011
11000000
1111111111010110
100011101
10111110
1111110001111100
1111111101101001
1100110010
1010000000
1111110001
11110111
1111110110000001
101111111
1111111011001000
1111111100000101
1111111010101001
1111111000100100
1111111100001001
1111111101100111
1111111001000101
1111101111100010
1111110101100010
1111110110101010
1111110100010000
1111110101011001
1111110110000011
1111111101100001
1111111011111100
1111111111011110
1111111001001100
1111111011010001
1111111000101011
1111110100001010
1111110001100111
1111110011100101
1111111010111011
1001000100
101110101
1111111000101111
1001100011
1000110100
1111111101111100
1111111010001100
111110010
1111111001100100
1111111110111001
1111111101010010
1111111010011010
1111110101011101
1111110101010010
1111110010111001
1111101101011100
1111101111011110
1111110001000111
1111110001111011
1111110001111000
1111101011111100
1111111001111110
1111110011000011
1111111111110110
1111111100010001
1111111010010111
1111111000100010
1011100100
1111110110001111
1111110101011001
101011011
10000000100
100001011
1111111110000011
1111110011001110
1111111001111101
1111110110000101
1111111110101111
10101100
1111110100110000
1111110001100100
1111110100111110
11011010
1111111001011010
1111110111000010
1111110111100101
1111101100101011
1111111000111110
1111111010000000
1111110110111000
1111111100100001
111000111
1111111000011000
1111110001011101
1010100001
1011001100
1111101110111101
110000110
1000100000
11101100
101111101
1111111010001011
1111111101000001
1111110011110000
1111101101100111
1111111100000010
100011010
1111110110000111
1111111010101111
1111111111101100
1000101001
1000011101
1001010110
10110001
1111111000100110
11001011
110101001
1111111010000110
10000000010
1101011101
1111101110011110
1111110011010100
10001010100
1111111010111011
1001001011
1101010000
1111111001101001
110111111
1001111000
11010110
1111111011110111
1111101100100010
1111100110010100
1111110100111100
1111110101110101
110011100
1010011
10000101010
1100100001
1011010000
1110010110
110111010
100100000
1111111110000110
1111111011001010
1111111111101000
10001110100
1011011101
1111110111010000
1010001110
10100111101
100110111
1011001010
110111010
1111110101011111
111110000
1011001001
1000001100
111111010
1111111110010100
1111111001001101
1111110100011001
1111110010100100
10110011
11111001
1001100011
1001110100
10100100
11011111
111000100
101001001
1111110111000011
1111111001000101
1111111100111100
1010111001
100111101
1111110100011100
100110011
101101011
101000111
1110100
1111100110111111
1111110100011100
1010
1001
1111111101101100
1111111100000110
1111111111110110
111011110
1111101011111101
1111101110001001
1111111111001000
110111111
1010101
1111111111001110
1111111100010010
1111110101000100
1111111110110111
1110100
1111111111011101
1111111011001111
11011011
110000011
1111111100111100
1111110001110101
10100010
101001001
10011
10001100
1111110111110010
1111110001101110
1011110
1110111
101000010
111110101
1001000010
1110111110
