1111111100110010
1111110100000110
1111111000101111
1111111111001000
1111111011100000
1111110111001100
11000010
1111111111101101
1111110101011100
1111101001110110
1111101001110011
1111110110100101
1111111100101101
1001011111
1010110001
1111111010100100
1111111000000100
110111
11101010
10010001001
10110000101
10001000000
1010111111
11100011
1111111010010001
1111110110111001
1111111010010111
1111101110110010
1111111010100100
1111110101001100
1111111000110010
1111111111100101
1111111001101001
1111111000110111
11011100
1111111111011100
1111110011100100
1111100011111011
1111101111111010
1111110100110001
1111111001110011
101111100
1000011111
1111111010100111
1111101010000000
110100000
10101001
1001110111
1111010000
1001111100
1001000011
1111111110111110
1111111010111011
1111110001111010
1111111001111101
1111111011000101
111001
1111111010010110
1111111111111011
10100010
1111111101000010
11000011
1111111100010010
1111111011100101
1111101011110010
1111100010101011
1111101110001000
1111111111000011
1111110001000100
1111111011010111
1111111101110110
1111111010001100
1111101000101100
1001100
1011010010
1010011000
1111011011
100011010
101111111
111001011
1111111100000100
10001
110110101
1111111101111000
10111
1111111001010101
1111111111101010
11010
1111111111000011
11110
1111101000011111
1111110100000101
1111101000110011
1111010101101001
1111011110111101
1111111100101111
1111110101010011
1111111100001110
1111111010010010
1111111100100000
1111101100010100
1111111000111100
1110
111111011
1111010000
1111111100011111
1111111111101100
110011100
1111111011010111
101000011
10110010
1111111110001100
10110010
1111111010011011
1111111100010100
1111111011011010
1000010
1111111100101100
1111101000100001
1111110011111101
1111101101011110
1111010110011001
1111100000110000
1111111001000100
1111110110001100
1111111111101110
11010110
1111111100001001
1111110111100111
1111110110100110
1111111001100000
1111111000001011
1101100
1000111110
110011001
1111111101110101
10000100
1000010110
1010001101
1011000011
110100011
1111111111001000
11110011
1111111001110101
110
1111111111000001
1111100011000000
1111110011110000
1111101110001011
1111011000000001
1111100010001111
1111110010100110
110100000
11101011
1111111001010011
101001010
1111111000010010
1111111100101101
11001001111
111101001
1111111000110111
101101011
10100011101
100001
1110010100
1001111001
101100111
1000110111
1011000
1111111101010000
100101000
100001101
1111111110011101
110000110
1111101001000001
1111101010000111
1111101011010001
1111011110110101
1111110111100101
1111110011000110
1111111100110011
1111111101011001
101100
1001001010
1111111101
1100101001
100011001010
11000000100
1111111001001010
1111111111111001
110101111
1011010010
1100111010
110100110
100011101
1110111110
10010011
101101110
111100101
1111111110110010
10110010
1001000
1111101101101000
1111101000101101
1111110111111110
1111100111010000
1101001
1111101111011101
1111101110100011
1111110001100110
1111111110000110
10001100
10110101100
10011000001
10000100001
1111111100101101
1111100000110010
1111111100011000
1111111111000000
101000011
10101111001
1111111111011111
110111011
100010101
1111111110000011
11011
100010100
1111111100100001
101100101
100100010
1111110100000100
1111110011010011
1111111100000010
1111111010011011
1111111100000101
1111110001100110
1111110100001110
1111110011001001
1111111100000010
11011110
110101110
1001000101
1111111111110011
1111110101111101
1111110111110010
111011001
1111111100011010
0
100000001001
1000101111
1000101100
11101001
1111111001111110
1000010010
100000100
10001010
101100111
1111111101100001
1111110101011000
1111110101100000
1111110011010011
1111111111011111
11010001
1111110100010000
110001000
1111111111111101
1101001001
111010101
1100110111
110111001
1111111110101101
1111111010011001
1111111111011100
11101011
100001000
101011101
10001110100
10010101011
10011100001
10111110
1111111010111010
111011101
1111111110101011
10100000
111010
1111110110101111
1111110100100010
1111101011100110
1111110010001100
1000101100
1011001110
11101110
1000101110
1111111110011100
1111111011111101
1011000111
1111111000110111
1111110100110100
1111110010111000
1111101000111101
1111101111110111
11001001
101000110
111100010
110101101
10011110010
10111011111
1111111110010100
1111111110000011
1111111110101001
1011
1111111110101001
1001011
1111111000101101
1111111001111101
1111100111011010
1111111001011010
10010010000
10011110110
10010001101
10010110101
10100101
1111100110111111
110101111
1111110111110111
1111100011101010
1111011011111111
1111011110001000
101010
1111111110100011
1111101010001011
1110001000
1100110110
1100100111
10001011000
100100111
1111111100100001
101001100
1111111010111110
1111111110100011
1111111111101001
1111110101111101
1111111011110100
1111101100011011
1111111111101111
1011011011
1111001000
1001111111
1101011101
101010010
1111110011000111
1111111101111111
1111111000001110
1111100001001011
1111011010010101
1111110101010110
10100010101
1010011
1111101001100110
1000000001
111001100
1111110010
11101
1111111111100100
1111111011000110
1111110111001110
1111110101001110
1111111010101001
1111110111101010
1111111010001000
101111
1111101011000100
1111111110110011
101010101
111010010
110011011
11010011111
110101011
10111001
1111110010011001
1111111000010001
1111011100010101
1111100001111100
1111110110011001
10011111000
1111110100010100
1111101110100111
1110000010
101110010
10000100000
1111111101101001
1111111110111101
1111110101010110
1111111010000111
1111111000111110
1111111011110011
1111111010011111
1111111001010000
1111111010000100
1111111011100110
1111111000100100
11001001
1010111101
1111111100111001
1111111111111100
100000001101
10001000001
1111111011111001
10001011
1111110110001111
1111100101011001
1111101110000110
100011101
1111111010101010
1111110100100010
1111110101110010
10111111
1001010
1111110001101111
1111111011010111
1111111001000111
1111110111001010
1111110101101100
1111111101011011
1111110100101010
1111111101011111
1111111100110101
1111111000011110
11000011
111011001
11110000
1111111011110110
1111110110111010
101000
10011011101
10001111010
1111111110011111
1111111101100110
1111101011100010
1111100110010010
1111101011011101
101001
1001
1111111111010010
100000110
1111111110100010
1111110001110010
1111111011111101
1111110100000111
1111111000100010
1111110110111001
1111111000100111
1111111000000111
11001000
1111111110010111
1111110110000011
111101000
10010101001
1111111000110101
1111110001110011
1111110010011110
1111111100101101
1100001001
1111111101000101
1101
1111111111100101
1111110111111100
1111010111000011
1111110000100100
1111111111000001
1111111010110010
1111111110100011
1111111000100011
110101010
1111111000001011
1111111110011011
1111110111101110
1111111010001011
1111110001111100
1111110110111111
1111111100001100
1111111110100011
1110000
1111111100011110
10000110111
11000111111
111011
1111111110000000
100101011
1111111110111100
10110
1111111000100111
1000111001
1010001110
11110100
1111110110000110
1111111010011101
1111110100011101
1010111101
10010000
1001011011
11110101
1111111100001111
101000000
1111111101101111
1011110
1111110111101111
1101111
1111111010100000
1111111010101000
1001100001
10000011010
10000101000
1110101010
11100110
11110100
1111111101111100
1000010010
1111000111
110101100
1110101101
11000011100
1110010110
111001001
101111111
1111111001001001
1101000101
1100000111
101011010
1111110110010111
1111111100110100
11100101
1100011111
1000011000
110111110
1000101011
1001011111
1001001111
10110101010
11000101110
1101001111
10001000001
101111
1111111110100010
1111111001100111
1111110101011000
1111111000000010
1111111100111111
1111111100100001
10001111100
10010101001
1000110011
100100000
100110
10001100111
1100101111
0
1111110010010110
1111110100001100
1111110101110110
1000010000
10101111
1111111101010101
111010101
1011010100
1000100010
1100110111
11101011111
1010000000
1110000110
1101000110
111000110
1111110110110001
1111100101100010
1111111000001001
1111111111011010
1001010111
11101011011
11000100111
1100101111
1110100101
111111111
1101011110
1111110100100001
1111110101100101
1111110101011011
1111110011110111
1111111001110001
111000010
101100000
110111111
100110000
1111100
11111001
1001100000
10110011010
10000111010
1110011001
1101011110
1101110010
1010101100
1111111111110100
1010010100
10001000011
11010010010
11111000100
11001111011
1010110110
100110111
1101101
1111111111001011
1111100110110100
1111101100101000
1111100101110101
1111111000000100
1111110111110100
1111111000
1011001010
1001001011
1100001110
1100100000
1001010111
1111111010
10111111110
10111001100
1100001010
1101100110
10011111111
10010001
111011110
1110000111
10110100011
10111000011
11000101010
11111010001
10001000100
1111110011000100
1111111000010010
1111101010001111
1111101000101010
1111110000000101
1111110101011001
1111111010110000
1111111101010101
1111000000
1111111111101100
1111111111001000
100111001
111110010
1111111011011100
110101110
11010001011
10101001100
10100101111
10001010011
10101010001
1100000110
1010111111
1101000011
11100111101
11000001111
1011001110
1001010
1111111001100010
1111110110000010
1111110000111111
1111101000111111
1111101110011010
1111110110111010
1111111001000011
1111111011101110
1111111110000000
1111101100
10001101
110110
1111111100100011
1111110110011010
110000
110010010
11000011000
10111111100
10111101000
11000111001
11000101100
10101110000
1100110000
10001100110
10111010110
1101000000
1111110010011111
1111111010111100
1111110011001101
1111110101101000
1111111000011011
1111111111100111
1111110110111010
1111111000001011
1111111001110100
1101001
1001011111
11100101
1111111101100001
1111111100110100
1111110110010001
1111100111101000
1111110100010011
1000001000
10010001001
10010011010
10110110010
100000111001
10111001111
10101000110
10000110010
1010000111
10110111
1111111000111001
1111110000111001
1111101101100110
1111110111010111
1111110010111100
1100100
1111110110111111
1111101100101100
1111110111011101
1111110011101000
1111111001101110
1111111000001110
110001010
100110001
1111111000011111
1111110111010110
1111110100010010
1111110011010010
1101100001
1010110101
1011111010
10111000110
11100001001
10011110100
1001100010
1111110111110001
1111110111110000
1111110000100111
1111100100001110
1111101100011000
1111100011011101
1111110011111010
1111111001110010
1111110001010110
1111100110001000
1111110000111111
1111111001001111
1111110000100001
1111110010111000
1111110101000011
10100001
111001101
1111111111111011
1111110100101111
1111110100011011
1111111111001110
10110111001
1110011011
10010011110
10111000110
1001111111
1111111111100100
1111100100100001
1111101000111001
1111100011001111
1111010110100000
1111100101011100
1111100001111011
1111011110010111
1111111010010111
1111111100110110
1111110111010101
1111111000001100
1111101101001110
1111110101101101
1111111001101101
1111111000000111
1111100111010010
