1111111111011000
1001101110
1000111011
1111111101001101
1111111101010000
1111111000100000
1111110110100001
10100011
100110010
1000101001
10100100
1111111110111011
1111110001001111
1111101011010110
1111100110110101
1111100110010011
1111110100001011
1111110111101100
1111110000011111
1111111000110101
110111110
1101001
11011001
1011001110
111010111
1111101100101100
1111110000011100
1111111010101001
101010110
1111011
11111011
1111111111101101
101001011
1111111101111010
1111111010011001
1111111111100001
1001000001
1010010000
11110010
1111111001110110
1111111101011101
1111101101010001
1111101110001001
1111101111000000
1111111001011100
1111111111111000
1111111011010101
1110110
1010011101
1000000
110000001
1100011001
11111010
1111110110001001
1111110110100000
1111110111110111
1000010
11000111
1011101
1111111011101101
1111111101101001
1111111101111010
10001100
111001010
1111011110
11110011
100110010
1111111110010101
1111111110100101
1111111001001001
1111111111110101
1111110101100011
111100101
10000010101
101100111
111001011
1111001
100011011
1111111101100110
101011111
1111111111001010
1111110111111110
1111111111111100
1111111101000100
100101
111001011
1111111011111010
10101110
11000
1111110110101010
100110101
1011111000
1100111010
11011000
1111111000101101
1111111110101010
1111111110111000
1111110111111111
11010110
1111111111110000
11100101111
11010100001
1101101000
1111110100
1011110100
1110111001
110011010
101111
1111111100111101
1111110110100001
101011
1111110111111110
11000010
110011101
1111111110010100
101110
10100011
1111111000011101
1111111011101010
1111111100111100
1111111101010010
1101101111
10110100
111000001
1101001
1111111011000111
1001001100
1011110001
100010101011
1011011000
11111110
110101101
1100110011
1100011011
11101001
1111111010001101
1111110100011000
1111110101101000
1111111100111010
1111111101111000
101111000
1001011
1111111010100000
1111111001110101
1111111111010011
1111111110010111
11000101
1111111101000110
110101001
1101101111
1001011110
10001011000
1111111000111101
1111111010000010
100110011
1010111111
1101001101
1111110111110100
1111110101111000
101001
11100001
1111001101
1111111111011010
1111101110101000
1111110010001010
1111111011011110
1100100001
10111110
1111111100000101
1111111110001101
1111110110110011
1111111011100011
1111111101110111
1111111111100001
110110100
1111111100100001
1100000010
1110011010
1111111110110000
1000101001
1111111110010101
1111111011111100
1111111100001100
111000001
1111110111100001
1111111010011011
1111110110011110
1111111000001011
11101
1001100000
1111101110110010
1111100001011101
1111110101000100
10011
1000010100
1001011100
10110001
1111111110011100
1000011
1111111110011110
110101110
100011011
1011111010
1000010
110000101
1000010101
11101110
1111110001100111
1111111110101100
1001011000
101100100
1110100001
1101110110
111001111
1111110111100110
1111110111011010
1111111000100001
1111110100000010
1111101001111001
1111100010110000
1111101111110000
11111010
1101
1101110000
1111111010000111
1111111100111111
1111111011101011
1111111111110011
1111111110010110
1101100
10000011000
1111111010010101
1111111100111100
1111111001111111
1111111111010011
1111110100001110
1111001
110111
1100011
10001000100
100101101
10010100
1111110011011000
1111101011110011
1111101110010011
1111101110110010
1111110110100001
1111110001110110
1111101011000000
1111111011110000
1111111001100100
11010000
1111111000101101
10110010
1111111100100100
1111111011110001
1111111100001010
1111111010110001
11110011
1111111010000000
1101011
1111110010000101
1111111111000001
1111110100111111
101110
1111110011100110
1111101101000110
1111111011001111
1111111111111000
1111111010111100
1111110011110011
1111110000110101
1111100100011001
1111101101010100
1111110100001000
1111110001011000
1111110001110011
1111100110000100
1111110000101001
101000110
1111111100000111
1111111011111001
1111111101001101
111011
11011000
1111111001111000
10001010
1111111101000101
1000111100
1111111010001110
1111111011000100
1111111010001110
110010000
111010100
1111111011010101
1111110101010011
1101001011
1111111010101110
1111100101000010
1111100111100010
1111101100011001
1111011001111111
1111101011000011
1111101001001101
1111101111110111
1111101001000101
1111110010010111
101000001
1111111101010010
1111111100100011
110111
100001101
101010100
1000100100
1111111110011001
1111111010100011
1111111011001111
1111110101001111
1111110101111001
10100101
11010000
111100101
1011010010
10000011100
110101000
1111111011011111
1111111101101011
1111101011101100
1111110001011000
1111001011110100
1111101010111011
1111101001101010
1111110100100011
1111111001001001
1111111000010001
111111000
1111111010001011
1111111101001101
10000011
1001111011
1101110100
1001000011
1011001100
10001000
1111111000010010
1111110101001101
1111101111011001
1111111110000100
10000011
1111111101010101
11110011
10000100011
1111101101001111
1111101111000110
1111101111010010
1111110001000101
1111101011100110
1111100010100011
1000001
1111101111100100
1111111101011101
1111111110111110
100
11110110
1111011
101001011
1010111001
111101001
1111001010
10010000011
1111101110
10000101111
1111110111100110
1111101100100111
1111101111111010
1111110110011101
1111111000011110
1111101101001111
1111100001111000
101111010
1111110001110001
1111101000100000
10000011
1111110111110000
1111101111110101
1111111111111110
1111111010101010
1111110101110111
1111110111010111
1111110111010000
1000010
1111110101011110
111101110
101111101
1001011111
1100110
111100011
1101001010
1001011110
111011011
1111111001101100
1111111010000111
1010111
1111111110100111
1111111100111100
1111110001001100
1111101111101001
1111110111100000
1111101010011010
1111110010110010
1111111011100000
1111111111111000
1111110110110000
1111110110111011
101011
1111111100011011
1111101110111101
10011111
1111111101100100
1111111010011100
1000100001
1000111000
100011000
110110010
11011101
1110001011
1001010000
1100110100
1111111101011111
1111110110111100
1111111011111010
110111
1011011100
1001101010
1111111100001101
1111110100100011
1111110111001101
11010
1010110
1000001101
1111110110111001
1111110111010110
1111110100101011
1111110100001000
1111101001111111
10110111
1111111001010101
1111111101010111
1100001001
1001000001
1001010010
10011010
101110101
1000100101
1010110111
1100011111
1111111000101110
1111110011111100
1111111111110011
101111000
10001110011
1111100
10100110
101101101
1111111101000000
1111111011111110
11101100
1111111111110000
1111110110001101
1111111111011000
1111110011100111
1111101101001111
1111111011010001
101000010
1010100
110010
1001000110
1000111001
1110011001
100101000
111001000
1000101111
100101101
100111000
1111111100101110
1111110001010111
1000010100
110011010
110000110
101100011
10000100
1010000001
11100010
101
11011110
1111111010110001
1111111001101001
1111111011010000
1111110110100011
1111111000001010
111110000
110010
1111111011100000
1111110101110010
1000011100
110000001
1000010010
11110010
1111111111000111
1111111010000110
10111001
1100010
1111111101011110
1111111101011000
111000110
1011011111
101010101
10111100
10011110
1111111101010000
1111111100100011
1111111101111010
1010010101
1000101110
111101000
11110011
1010101
1111111110001010
101001001
1111111100010100
1111111111000110
1111111001000100
10010011
1111111100011000
1111111111101000
1111111001001101
1111101111100001
1111111000001011
1111111000000111
1111111110010111
1111111010111110
1111111100001110
1010001110
1010110010
1011110100
1010110010
100000010
1000110
1111111101100111
1111111101111001
1001111010
1111100001
11011001
10010100010
1111111010101000
1111111111101101
10100101
1111111000000110
110111
1111110010001100
1111111011011010
1111111110111110
1111111111010101
1111110010100110
1111110000011000
1111111000011000
1111111110011110
1111111101010011
1111111111001001
11000
10101110
1111111100001011
101101001
1111000001
111110110
1111111101000010
1111111010110001
11111100
111100111
110000011
1101110111
10100011111
1111111010000110
10011100101
1111111000011101
1111111101011010
1011011
1111111011000100
1111111100110110
1111111111110111
1111111010000001
1111110000000110
1111110100111001
1111110110000001
1111110100010100
1111110011000010
10101100
100011111
1111111001101101
1111110111000011
11101000
111101001
1111111011101000
10111
1111111110001000
11000001
1010
10001101111
111011001
1111111111011010
1011110011
1110110110
11000110
1111111110011001
11011100
1010000
11011110
1111110111011100
1111111000111110
1111110111000101
1111110111000011
1111111000010100
1111110100101100
1111110010001001
10000
1111110110011110
1111110111100001
1111110010110001
1111111110110000
1111111010010011
111010010
1000100111
11110000
1111111111100110
1101111000
101101
1111111011110001
100000001
1111111110
101101001
1111111010011101
1111110000111111
1111111110011001
1111110001100111
1100101
11110000
1111110101010111
1111110001001111
1111111011101101
10100000
1111111111110011
1111111010110011
1111111001101100
1111110001111110
1111111010000111
1111111111110010
1111111011101000
1100100000
10111010000
100011100
1111111110100010
1110000100
1111011001
1111111010110010
100011110
1100100000
111111011
11011010
1111111100000110
1111110101111001
1111111010100101
1111101100111010
1111111100001101
1111111100110111
1111111100110010
1111001
101010010
111000100
111111010
1100000
1100110
10011001
1111001
111101000
10101011
10000001001
10000101001
1111110100111011
1111110101011110
1110000110
110000100
1001010010
1101111000
1111111001010110
1111111100100000
1100001
1001010100
1111111111010101
1111110011111000
1111110001100101
1111110000101101
1111110101100001
1111111110001110
1001001100
1000011110
1000101001
10000111
111111100
11110000
1001110011
110101100
10000001
111101110
10001100100
1010000011
1111110110001111
1111111111110100
1000000100
100000011
1101110010
1011010
1111111101010010
1111111110110011
100111010
1101000000
111
1111111001111110
1111111100111101
1111110000111100
1111110011110011
100
11101001
101000110
1010110100
1111111011111110
1111111011011101
1011111011
1000101110
1111111010111100
1111111100111010
10011000
11100110
1111111110110101
1111110101011001
1001010
1111111111000100
1000000000
1111111111111000
1111101111000000
1111110100100101
11001
100001100
110000001
1111111011011101
1111111011110001
10001000
1111101111110110
1111101111011011
1000011010
110110101
10010101
1111111100011000
1111110110001110
1111110101001011
1111111101111110
101110110
10001110
1110011
1010001
1111111010010100
1111101110000111
1111101100001110
1111101111010100
100011001
101010110
1111111101011001
1111111000001011
1111111100100010
1111111100110010
10011011
110100011
1101111
11011101
1001111001
