1001010101
1010000111
110011111
101000100
111001111
1000110010
10001
1100100
1001101101
10110010110
11000111000
1010101111
1111111111111111
1111110110001101
1111111001011110
100001010
1101000000
11110111
1111110111111101
1111101111001110
1111100101101100
1111100110111010
1111111011101001
1111111101101011
110101010
10010011110
11011111111
100000111011
100010001
10110010
10000001
101111110
1001001000
1000110000
1111111110110001
1111111101111100
1111101010
10011011010
10100100000
1110100001
1011010010
1011111
1111111001001111
101011111
10011000100
1111111101010001
1111111101010110
1111110010011111
1111101101001101
1111101100101011
1111110110111000
1111111111001011
101100111
1101010001
10001101100
10111001110
1101
1111101
1100011
110011101
110001101
1011110
1001110101
111100110
10010011111
10101110110
10001111011
1100110101
1100001101
11110001
1111111101001011
110110111
10110100101
10111100
1111111011011111
1111110110001000
1111101100001011
1111111000101111
1111111001100010
1111111100010100
111010111
10000111000
10000101100
10011101100
11000101
100100001
1111111110010111
11100011
10001101
100110110
1111110110
1010110111
10000101111
11101111010
11011010101
1001000000
1001000
1111111001100010
100001001
1001100000
11000111001
1110110100
1010110101
1111111100011001
1111110010111100
100010100
1111111101000100
1111110100011000
100111111
1011011101
101001100
10100011001
1111111111000101
100110010
100111101
1000011010
1000100
1111111110111000
1101011101
1100110110
110111000
11011100010
10100110000
1001010000
1111111110111010
1111111011001101
1010
111011100
1011000001
10100000110
11001010110
1111111011
1111111001001011
1111111111010110
1111111011000001
1101
1111111010000001
1001101
1001100000
1100110111
1111111110011100
1000101
10100001
110001011
1111111111001011
1111111010110100
10000100001
101001010
1001001111
100110110001
10110111001
1110111
1111111010100001
1111111100111000
1111111011110100
1111111110010001
1000100110
1011101001
11011100
10101100
110
1111110101111101
1111111001000011
1001000000
1111110101011100
111111
1011110001
10000001001
1111111011011110
100001
1010001
1100001
1111111011001110
1111111010101010
1100000010
1001010011
10010001101
11111111010
101001000
1001010
100111101
1111110110011001
1101101
1111111100110110
10010
1110110001
10110110
1111111101111111
10100000
111110
110101000
11001111
1111110010111110
1111111010001001
1111111111000111
1100001
1111111111111001
1111111001011001
1100100
110010
1111111110111001
1110
110001010
1011001111
11110110
1010010101
1111111100111101
1011010000
10001011100
10001010110
1111001011
1110011100
111000110
111011011
1111111111001110
1000111100
10000101000
1111111101100000
1111111010000011
11110000
1111110000010101
110011001
111000011
110010
1111111100001001
1111111000101011
1111111100000101
1111
1111111001101100
1111111110110111
1111111010000110
1111111111010011
1111111010100110
1111111111010101
1111111001000000
10100110001
10011100001
11011000110
1111101000
1001010011
110100011
1001011001
1111110111000001
1111111100000000
1111111000110101
1111110000001100
1111111100100010
10010010
1111101100101011
1111111000001111
101110001
1001001010
1111111100011111
1111111101011010
1111111110101000
1000110100
10011011
1111111110010001
100100010
1111111100000010
1111110010011000
1111101010100000
1111111011010101
1100110110
1111111110111010
1001011100
1111110110001101
1111110111110100
1111101101010110
1111110010101111
1111101101010100
1111101101111000
1111101101100110
1111110001111010
1111110011001101
1111111000100001
1111111010110101
1111111100110100
1111111100000100
1000001010
11101001
111100
10111
1011001000
1111110110111001
1111111011010011
10101001
1110010
1111110111010001
1111011101100010
1111110011010001
1111111101011001
111001
10111010
1111111011010110
1111110000011111
1111111001100000
101100010
1111111010011001
1111111111101000
110000010
1111111000111000
1111101111100111
1111110111000111
1111111111000110
1111111000110010
1111111111010100
100110000
11010110
1000
100100001
1111111110111110
1111111101000111
111001111
111110110
10001100
1111111001001000
1111100011110000
1111100100111000
1111101001011100
1111110100010010
10010010
110101100
1111111001101001
101010110
10000011010
10000001100
1000110000
1111111110000000
101001110
10101111011
1111111101100001
10011010
111011111
1111110111110101
10101001
11110011
11101100
100101001
100001010
101010101
1010111100
1111111101010100
100001
1111101111011100
1111101010010010
1111101011111110
1111101000100001
1111110000111110
11001
10000011110
1011101000
1111111111011000
1111110110110001
1111100111
1111111101000110
1111110111001000
1001100001
1101100110
100010001
1110011000
1000111101
1101
101100
100110110
110110100
111111001
10
1010011100
10111000
1111111110010011
11101101
1111111110100110
1111110110111010
11100011
1111110110110011
1111111011110001
1110010110
10101011110
10000001001
1111111110000111
1111111110011001
1111111110011110
1000000001
10001101
10100111100
10110111011
10000101000
11001000100
101100
1000000110
10
1100001010
111001011
1100100
1111100
111000001
110011110
1111111110001011
110001100
100100001
1111111111011000
1111111100111111
1000010000
10000111110
110001010
100011001
1111111111001100
1111101110000111
1111011111110010
1111101101000011
1000001110
10001111011
10100100101
100000001111
11000101000
11000110001
10000110010
111001011
1111111101010101
1010111110
101100000
110110110
1111111111011110
1001000010
1000010101
100101101
1001011000
1010010110
10110
1000111000
10010001110
11101000111
10111001000
1111111011001100
1111101011000101
1111100111111010
1111100011010101
1111110110101110
10111001000
100001000111
110001010
10101100010
1000110100
10010101110
1001000001
1111111101110110
111010111
1111111110001001
1111111110100101
100100011
10000110
111101110
1111111110111100
1110101
1011110101
11011101
1111111010000011
10110110111
11011111011
10011100100
10000110101
1111110100011011
1111101110000100
1111011110011110
1111101100111010
11001
101100001100
100100000000
1011000110
10000000011
10000111111
11011001011
1111111000000110
1111111110011101
1111110101111100
10011100
11110101
101010111
1111111100111000
1111100
1001000100
1000101011
1000010111
1111110110011101
1111110101010111
1010101111
10000001100
1101101001
11001111
1111110101001011
1111100101101111
1111011000110010
1111100100100111
1111111111100000
1111010110
1110110001
10001000111
10100000
1111100101
1111111110000101
1111110001100000
1111111111010000
1111101111010110
1111111001001000
1001101
1011101
1111111001001011
11111011
1111111100001001
0
1111110101101001
1000101
1111111101111001
101000111
1001100000
1111110101001110
1111100010010000
1111011101111111
1111100011111101
1111011001111100
1111101000001011
1111110011101101
100110111
1101001011
1101010111
110110100
1111110110011011
1111110010110110
1111111000100100
1111111000111101
1111110111000000
1111110011010011
1111110110110101
1111110010001101
1111110110001100
1111110010101111
1111111011001110
1111110100000101
1111101101000100
1111110110010010
1111111010001011
1111111101111100
1111111100001001
1111110001111011
1111101001110111
1111101100011100
1111101011101000
1111110101000110
1111111000100110
10011111
100000001
1000111010
10000101001
111110000
1111111001100011
1111110111011100
1111111000111101
1111111011101111
1111111010111111
1111110100010101
1111111010010011
1111110001000011
1111110010000000
1111110010100111
1111110001000110
1111110001011110
1111101000000101
1111101110111111
1111110011100011
1111111011100011
1111101100011011
1111101100111100
1111110010010110
1111110100011011
1111110010101111
1111101100000001
1111101001100001
1101001
1111110
1010110101
1100100000
100011110
1111111011010001
1111110111011111
1111111010010010
1101010
1111111000000011
1111111100100110
1111111100010011
1111110010010011
1111110111110000
1111111001100010
1111110101011101
1111110001110001
1111101010111101
1111101101111000
1111110011101100
1111101101000111
1111010110110100
1111010100100111
1111100110101010
1111101000001111
1111101100011011
1111101000101100
1111110110111010
1000110
1111111110000000
1000011010
111001011
101100011
100110111
10111
1111111111101101
1111101110101110
1111101110001101
1111110100011000
1111111111100100
1111110101000011
1111111001101000
1111110101001001
1111111000000101
1111110010010110
1111101001100110
1111110111100111
1111110011110100
1111101010011011
1111011100000011
1111100111001010
1111101010100111
1111100100010111
1111101011000101
11101
1011000
1111110011101010
1111110100101011
111011100
1111111111100111
1111111111100010
1100000
1111111101001011
1111110101110001
1111101010011110
1111110000010010
1111110100001101
1111111011001001
1111111011011110
1111110111111111
1111111010101100
1111111101100111
1111111011110001
1111110100111010
1111111000101110
1111110101100000
1111100111010110
1111011110100110
1111110001000011
1111110000100111
1111110111101010
1111111010010001
1111111110010001
100001100
1111111100110101
1111111010001010
1111111101001010
1111111101011100
1111111111101011
11010010
1111110000010001
1111101101011110
1111101111111111
1111101100110010
1111101111001101
1111111011100000
1111110001111111
1111110110101100
1111111011101111
1111110110011010
1111111101000101
1111110100001101
1111111010011011
1111110110111100
1111100011011000
1111101011111010
1111110011101111
11100010
1000100111
100100011
10111000
10000110101
1111111111100111
1111110000111111
1111110100100111
1111101110001110
1111110001100011
1111111100100000
1111110011010011
1111101100011111
1111101001101000
1111101000101010
1111111001110111
1111111111000011
1111111011011001
1101111000
110110000
111001100
101101
1011101
1000111
1111110010000100
1111100011010000
1111101111010000
1111111001010100
1111111110100110
1000001011
110110000
11100111
1111111110110111
100101001
1111111100100011
1111111001000111
1111101111001100
1111111000011000
1111111101110111
1111110001001001
1111110001111111
1111110011000001
1111101110111010
1111111010111010
1111110101001011
110000
1011010101
1110001111
111001110
1111111100100101
1010001000
1000011
1111110001111100
1111110001011100
1111110001111001
1111111101000100
100000000
1111111100011111
10
1100000010
10000010
1110001111
100101100
1111111101001101
1111111010100110
11001110
1111111001001110
1111110111110011
1111111100010110
1111111100010110
1111111011111100
1111111101101110
1111111000100001
1111111010011000
111011011
100101
1111111100110001
1111111101000010
1111111000110001
1111111100101001
1111101110010010
1111111101010100
10010001011
11010010101
1101010100
1100011
10101100101
10000101001
1011010010
10100111001
1111110111011110
1111111010001000
1111110001100010
1111101000101101
1111110000010001
1111110110001000
1111101101001110
1111110110110011
1010010100
