1111111011111110
1111111001110010
1111111001100111
1111111110111101
1111111010011011
1000011001
1101110100
10110011
1111110111101000
1111111011110010
1111111001110111
111111101
100010011
10010110100
1110100101
11010111111
10101101011
1010101110
110011101
1111110001110011
1111101000101101
1111011101001110
1111011110100101
1111100001101111
1111101110110001
11111
1000110111
10100100100
1111111100100111
1111111011001101
1111110110101101
1111111110100110
1111111101010110
1100011101
1010011010
10110110
1111110110110101
1111111010010011
10010100
1001111100
1000111111
1001010011
1010011100
11000101101
110001101
1111111001101101
1111111100100110
1111110100001111
1111100110010111
1111011011110101
1111011111000000
1111100100000111
1111101010000100
1111111000001111
1111111111111001
1111011010
1111111010101101
1111111001101110
10011101
1111111110100100
110
11100101
1111111110011011
1111111010011000
1111110100010001
1111111110111010
1100111
1111111111001111
10110
100000010
11010110
10001010010
11011111
1111110001100010
1111101000101010
1111101000011010
1111100001000101
1111011110110110
1111010111001000
1111100100110110
1111100101110111
1111110000000110
1111111111001111
1011000101
1111111111111010
1111110101011101
1111111110101001
1111111111000110
1111111101011001
110000011
1000011
1111111010100011
1111111010110111
100110011
1011011111
1111111100010111
1111111101000101
1111111011110001
1111111110010110
1110010000
1111110110100111
1111110010010111
1111110001110001
1111100100110001
1111100101111111
1111011110000111
1111011011001010
1111011011101101
1111101111110010
1111110111111110
1111111001111100
1011101100
1111111000110100
1111111100001111
100011110
1000001011
1111111111110001
110011000
1011000110
1000001011
1111111100101000
110010
110010001
1111111011011101
1111111111111111
111101010
1111110110111000
10110101
1111111001010011
1111111110011100
111011100
1111110110111011
1111101010100001
1111100111111010
1111100011001001
1111100000010110
1111100111101000
1111110011111001
1111111010101100
10100
10011
1111110100100111
10110011
10110001
1111111110001010
100100111
101101010
1010110000
1011010
1111111011100100
1111111101110010
1111100101100011
110100100
110000001
1011111011
1001001000
1000110100
1111111101
10000010111
1110000001
1111111011110000
1111101010111001
1111110001010000
1111110110100001
1111101001110011
1111110111111111
1111110010000101
1111111000000101
1111111000100100
1111111000101101
1111111110100111
1010000110
11111111
1111111011111110
110011110
1001101100
1110010
1111110000010001
1111110001010011
1111111000010011
1000001011
1000101111
11010111010
1000111000
1110100001
111111010
1111101011
1110110001
1111111101101111
1111101101101010
1000001010
101110000
1111101100110101
1111110001000000
1111101111110100
1111101100010100
1111111100100110
1111111011001010
1110000
101110011
110100
101011111
1111110000001101
100101101
11111100
1111111001100000
1111110100110100
11100110110
11100001010
10111101101
10101011100
1111111101011001
1111110100101010
1111110011000000
1111111110101111
10010001011
1011001111
1111111101011100
111100000
1011101110
1111111010001010
1111110100101010
1111110101011111
1111110010100101
10000000
1111111100100011
111111011
1001110000
110101011
1111111110100111
1111101111100110
100011110
10011101
110111000
1111111111010001
11101000100
100011000111
101101011111
11111001100
1111111010010100
1111111111000110
101101011
1111110111011001
1100110001
10010001011
10100010
111001
1101011
1111111101110010
1111110011111010
1111110011000100
1111110000001111
101000010
1111111101110100
110111110
110101110
100110000
1011011010
1010110
11010011
1111110010100011
1111111110100110
111010001
10101011000
1011110101
100011111000
11101010101
1101101110
1111110011000110
1111110100000011
1111111111001000
1101110101
10011000001
10000000101
1111111111011100
1001101101
1111111100110110
1111111110010011
1111111001110011
1111101111111111
101010100
1111111100110100
101000
11100110
1111111101010101
1100010010
1000110010
1111111110001001
1111101110001011
1111101011101111
1111111011000001
100011101
1111110001110111
1111110111010110
1000010100
1000111100
1111110010010010
1111111111101010
10110011011
11100001100
11101110110
101001001000
1010001100
1100001111
1111111110100111
1111111010000000
11101101
1111111000101001
1111111111100010
11100000
100011011
100000010
1111111101010001
10100100
101111100
1011001101
1111111100011010
1111101100110111
1111100100000000
1111100110101010
1111110110101011
1111101011001100
1111110010011100
1111101011111110
100000010
1011110000
1001000110
10101001010
110101000
101100110010
10000111010
11000000100
10111101
10111111
111100100
1111111110011010
100010100
0
1111111101101110
1111111001101100
1111111001100011
1111111110110111
1111111101111100
100001101
1111111000100111
1111110101101001
11011111
1111101111111101
1111101101010010
1111111101100101
1111101111001100
1111010110110101
100101111
1111111111101100
10000111101
1100101101
1001110
10111110100
1100000011
10001010110
10000111100
1010111001
1000001000
1111111111110101
1111111100111010
111011
1111111100101011
1111111101010010
1111111000001110
1111110010010011
1111111001000111
1111111001011110
10111011
1000101010
10100100000
1100110
1111101000001101
1111111101111001
111111001
1111011010110001
1111111011101111
10100011001
1111000111
111111111
1111111101010101
1011101010
10110000010
11010000110
11101001100
111100000
100001000
10001000
1111111100110101
1111111101110100
1111111010101111
1111111100000100
1111111111111010
1111110100101010
1111110111101001
1111111101011100
1011111100
10111000000
1001110000
1111111010011001
1111110110101100
1111111111000011
1111111101100000
1111100110011101
1111101100001010
1111110111110011
111
1111111100111101
1111111111100110
1001101
11001010001
10110010101
110000000100
1101101001
11111011
101000000
1111111000100111
10101101
110
10100010
1111111111011100
1111110010100011
1111110111010100
1111111110011110
111011101
10001110001
11001100
1111111000010111
1111110000001000
1111110001111000
1111101100001101
1111100000011010
1111011110011100
1111100001011010
1111101111100010
110010111
10000001100
101010000
100001101100
11101101110
101100000110
10001010001
1111111110011001
1111111101111100
1111111101001100
11111111
10111011
1100111
11110001
1111111000000000
1111111101110010
1111110111001101
10010100
1001000010
1111111110101101
1111110110100111
1111100111111111
1111110111110000
1111011110011001
1111010000001000
1111010010110010
1111101100001101
1111101000000000
1110011101
100001111010
11000001100
101001111110
110000111000
101000010010
1001010101
101100
1111111100110001
1111111010111000
1111111101110001
1111111010101101
1111111100100011
1111111101101101
10001010
1110000
10110010
1111111111110101
100110
1111111100100111
1111110110010110
1111100111101001
1111010011001110
1111010101001011
1111001010001110
1111001011111001
1111100110100111
1111101111101100
10101110101
10011111011
100010101000
100010100011
100101010000
1111011101
1011100001
1111111100011011
1111111111001111
1111111101000000
11010011
1111111000000000
1111111110001101
110010010
100000
1111111001101011
1111111101111000
1111111111010111
11101101
1111111110101110
1111101101110110
1111100000000100
1111010000000011
1111001001011111
1111001101111101
1111001101010010
1111101001001010
1111101011010101
11000010
1101100110
100000110011
100010100101
10111101101
10101111
100010101
1110110000
111010111
1111111000001101
1111111100101000
1111110111100010
1111111110100111
11100100
10100
1111111111101110
1111111001010110
1111111101010010
1111111110001101
1111110101010110
1111110000001011
1111100001000001
1111010100001011
1111010110110110
1111010001110011
1111101001010110
1111110111010001
1111110001001110
10111010
10100011010
10001111111
100001010010
1111100011
1111111111000110
10011001111
10000100001
10110110100
1111111100010100
10110010
1111111010111110
10011110
1111111000100100
1111111110001110
11101
11000
1111111111101011
10000111
1111111110100001
1111101100011110
1111100011101010
1111100111100000
1111010111011001
1111011110111010
1111110000001001
1111110100000111
1111111001001110
101110010
110111011
10011010100
100010000001
110000010
1110111100
11101000101
10010101011
1110010001
1111110111101101
1111001
1111111100000111
1111111001000011
1111111100010011
1
1010111000
1001000100
1010001
1111111011011100
1111111011101111
1111101100101010
1111101011011011
1111101110111001
1111101010001010
1111110111001110
111011011
1111111101111010
1011001001
1111111111000101
10100100110
100000111100
110010110
11111111
10010100111
1111011101
100111111
100101
1111111010011000
11101011
1111111011001011
1111111110101010
10111001
11010000
1111011010
11110101
1111111111000111
10001011
1111111101110111
1111111010010111
101001111
1111111010001101
1111110011011000
110000011
1100010001
10100000110
10111100
10000001000
11110011101
1001100100
1111110100011001
11010110
1000011001
1111100011
1010110010
111010100
1111110100000001
1111110111101111
1111111111110100
1111111110001111
1111111011100010
1111110101011010
1111110110111000
1111111011011001
1111111111100001
1101010101
100111011
1011100000
1001011101
1111111100101100
1011010
1110110100
11110011010
10111111101
1000100001
1110011111
1101111
1111111010110010
1111111011011011
10110101
110011011
1100010101
1111110011
10100110101
1110
1111110111101110
1111111111001000
1111110101111111
1111111001111011
1111101010100001
1111110011001000
1111110000000001
1111110011011010
1011001010
10110111
100101110
1110010000
1111111000001100
10101101
100000111011
101000000001
10001110010
10100100010
1111110110000111
1111110000110111
1111111100111111
1111111110000011
1111111010001000
1111111000000011
1111111111110011
110011000
10011101001
1100101010
110010101
1111111011110101
1000110101
1111
1111111010011010
1111111101011110
1111110000010011
1110111
1111001011
101000111
110101000
1011010111
10000110
1010100100
101001101101
11110000010
11001100111
1001011001
1111110010110001
1111110111100110
110111100
110010
1111110110001010
1111110001110111
1111111010101100
10000110110
1101011010
11100111
1100010
1111111111100101
11100001
11000000
1111111011000001
1111110100100111
1111110100111001
1111111111100101
110011010
101010001
1001010101
1010110111
10011011101
11100000100
101101110000
100011010000
10110010010
101010101
1011000000
10010000110
10000010100
1010001011
100001011
11000101
1111010111
1101100010
1110011001
111000101
111011
10110001
11011100
1110001
1111110100001111
1111111110001101
1000111
1101101110
1100110010
10101101100
11010001100
11011010100
11100010010
101010100101
111011000011
101111000011
10011001111
1000111010
1111111000000000
10010000
100100111
1111111011110001
11010101
101001100
1111111110101010
101111100
1010010100
