1111110110000101
1111111000101101
1111111010110010
1111111101010101
10
1111111101100101
1110101
1111111110000100
1111111011100111
1111110001101111
1111101101110101
1111111001101100
1111110110001101
101111001
10001000
1111110100011100
1111110010111110
1111111101011010
11101011
10011110011
10110000110
10101011100
1101010011
1111111011010001
1111111000111111
1111110001011110
1111110001000100
1111100100111111
1010110
1111111010110111
1111111100100110
1111111011000100
11101
1111111111100001
10001010
101110011
1111111100111111
1111101111100111
1111101110000111
1111110111010001
1111110100110111
1111010
1001101100
1111110100011000
1111110000010100
1111
111000111
1110110010
10011101001
110110110
1000111111
1111111011110011
1111111001111010
1111111000010000
1111111100010011
1111110010000010
1111111101100101
1111111000100010
1111111001111001
1111111010100010
1111111110100001
1111111101000100
1111111110111101
1111111100100101
1111110111100001
1111101010111000
1111110000011000
1111110111000111
1111110110110100
1111111100000101
1111111110101111
1111111101000110
1111101001101101
1111111111111101
1111111010
1111001011
10111010100
1111111111111011
111111100
100111111
1111111100001110
1111111111001010
1111111110110110
1111101111011100
1111111100110110
1111111001000011
10110000
1111111101000000
10010
100001010
1111101111111111
1111111010101110
1111110010101111
1111100001111001
1111100111111010
1111111110100111
1111110111101111
101000110
1111111100011100
1111110100000101
1111101011100111
1111111000000100
1111111100111001
101010010
1110010010
1111111111110010
1110
11010110
1111111101110110
1111111011001100
1111111101001111
1111111011110000
10100101
1111111110110001
1111111111001010
1111111000100101
10110
1011000
1111101011000010
1111111000010111
1111111000110000
1111100000011001
1111100110101111
1111111011111100
1111111101011001
10001001
111001
1111111001111000
1111110100011111
1111110011001100
1111110001001010
1111110100111101
1111111011011000
11001001
1111111111011101
101110
1111111111101101
100101100
1111111111100110
1111111110101111
10110011
100000010
100111100
1111111010100010
110000100
1001100010
1111110000010111
1111111101010111
1111110111000110
1111011101110111
1111101100000011
1111111000011001
100110101
1111111100010100
10101110
1111101
1111110110100100
1111111010101001
1001000111
1000110001
1111110110001010
111100001
1010000000
1111111100111111
1110110111
1010101
11100100
100001110
0
11101
1111111111110011
1111111010000010
111010100
100001011
1111110000010111
1111101101101101
1111110010001101
1111100110100011
1111110110111101
1111111110000001
1111101
101010010
1111111111011001
1111111101010110
10110
1111111100001010
1101101000
1100000111
1111110011010101
1110111
100000101
100110111
10010000100
100111101
110000000
101011000
1111111110000101
11011110
100100010
1111111010001111
10110100
101110110
1111110011101101
1111110010011001
1111110110011101
1111101011111001
101011000
1111110011111111
1111101110101101
1111101111000101
1111110010110010
1111110100001111
11110001
1010101100
101101010
1111111000100111
1111101110100110
1111111111101101
10001001
11111000
11000111101
110110
1010110111
1111111110001110
11001100
1011100
101100111
1111110111011110
10001010
100111011
1111111001110100
1111110101111000
10000111
10110101
101110100
1111110001110101
1111110011101110
1111100100110101
1111110101001001
1111111111001101
1111111101100010
1000111
100110100
1111111000101001
1111111000111010
1010100000
1111111010000110
100111011
11110001011
1010111100
1101100
110001010
1111111111000010
1111111111101110
1000
1111111001011101
11000111
10111110
1111110001001000
100010111
110100110
1111011111
110101010
1111111001010101
1001101101
1111110111001101
101001011
1010100000
1000101001
1011001000
1010011110
10110101
11110001
10001111100
100111000
110000
1111100001
1101011000
10100011001
101111111
1100000
1000100010
1111111100010101
1111111011000101
1110101
1111111000111111
1111111000100100
1111111011000111
1000001
10100001110
10000010011
1000011011
10000001001
1111111100101101
1111111001010001
101111110
11111100
1111111011111001
1111111010011100
1111110000000001
1111101110010111
10011000
111101111
1000011111
1000111000
10010011110
10101111101
10000100
1111111011001010
1111111101110001
1111111011111000
1001001
10111011
1111111000000010
1111111010010100
1111110001110100
10011000
11010000100
10100011000
10111010101
1110011100
101011010
1111101001010011
1101111100
1111111110110010
1111100101001000
1111011011001110
1111100100010011
1101001
110011
1111110011011001
1011111110
1101000000
1111000000
10000010111
1111111111100111
1111111011001010
11111111
1111111011110010
1111111010000101
1111111010111011
1111111101001100
1111111001101010
1111101110011100
111001110
11001001011
11001010000
11000101111
10000110000
110000110
1111110100011001
1111110110110100
1111110111111100
1111101100100010
1111011010111010
1111111001100100
1011011000
101010100
1111110001010110
1100110010
1111111100111010
1101111000
110101101
111001111
1111110111011010
1111111110101010
1111111000110100
111110
1111111000001011
1111111010101010
10111010
1111110011001011
1111111010001111
111010100
1100000001
1101010101
10100100100
10000010
1111111011110110
1111111011010111
1111111101000001
1111101011000000
1111101001000110
1111110111000100
1011110111
1111110001011001
1111110011001101
10001011
1101100
1100000110
1111111000000001
111110010
1111111000111100
1111110110100000
1111110110100110
1111111101111100
1111110101111011
1111111100000101
1111111110111110
1111111000010001
1111110101100000
11001010
1010100001
100101110
1100
11000100001
1110101001
1111010
1001001110
11011001
1111110001001001
1111101101011111
1111111100100010
1111111000101100
1111101111100111
1111110100100111
101001
1111111100100010
1111111001000100
1111111100111111
1111111101111000
1111111010100110
1111110110011101
1111111100101000
1111111110001010
1111111011011111
1111111000110001
1111110010110110
1111111000111011
101011011
10111001
1111111001000111
1111110011110101
1111110011111110
110101011
10011100011
1100110011
10111010
1111110101001110
1111100001110000
1111101000001011
1111111111101111
1111111010000010
1111111111101101
1111111111010011
1111111000011101
1111111001011100
1111111011110000
1111111101100111
1111111011101001
1111111001010101
1111111110111101
1111111101011101
1111111100000001
1111111101111010
1111110001000111
1110110
101111110
1111110100101111
1111101111110000
1111111010001111
1111110010010100
1101001111
1000000111
1010111001
100110110
1111111001010001
1111011010010001
1111100010100011
1111111000000011
1111110110100110
1111111111000001
1111110100110010
1010010
1111111101111001
1111111111100000
1111111011101011
1111111111111001
1111111100100101
1111111100100111
1111110110011010
1111111001001000
1111111100101001
1111111110110111
1101010101
10001001001
1111111000010011
1111110011110110
1111110111101001
10111101
1001011101
1111111100010110
10101100011
1000011011
1111111110111110
1111101001101110
1111110001100010
1111101010101001
10101011
1001111
11111100
100000011
1111110100101000
1001101
11001001
1111111011110011
1111111100111110
1111111110101110
1111111010000011
1111111010000010
1001100100
1001100100
111101
1010011110
1111111000011000
1111111101000110
10000111
1001000110
1110011001
110110111
10001001110
10101101000
1001001100
100011011
1111111100111010
1111110100001000
1111111100000001
1000101110
111110010
1111111011001001
1111111010000110
1111111110000100
110111001
111001001
11111000
1011001101
1100011011
11010
10001100100
1011101001
100101110
1100010
1111110111000010
1111111111111011
1111111101110010
1111111110010000
1111111111001111
110111110
111011010
10010001011
1010011001
1011110
1111111111110100
1111111100110010
110111010
1111001110
1111111010110000
1111111000101010
1111111001100100
1111111110110000
1011110011
10111010
101101010
100111111
1001000110
110010110
1110011010
10110001101
1000001001
1111100
1111111111110001
1010000010
1111111001101000
1111110110001011
111101000
1100110100
10011010011
11100101010
1010110101
110000000
101001110
1111111101110100
110110010
1111111110100010
1111110101010101
1111110100011011
1111110100001110
1001001
100111100
1010100
1001111001
1010011000
1000110100
110101
1010111010
10000111100
101100011
11000101
1010100001
10101111101
10100000100
1011101011
10010000010
1101010111
11000100100
11000111100
1011011101
111111100
100000
1111111010010000
1111111001101111
1111101111111001
1111110001000101
1111110000000100
1111111000111100
10000101
1100001010
1101
111000011
101100000
10111110
100110100
1001010101
10101110110
1101010000
10011000
1010011000
10101001010
1110101000
1001100101
10000110010
11011011000
1111001011
10011010001
1111001001
1110100111
1111110100010101
1111110110100001
1111110111111000
1111110011001001
1111110110101111
1111111010000001
100110110
10111101
110001101
1111111100111101
1111111011110000
1111111110000111
10111011
1111111101101100
1010001101
1011111010
10000010001
1010000001
1111001001
10110100111
100000111
1100010011
1101011100
10101111100
1111001100
1000010010
100101110
10011110
1111111001100011
1111101111010010
1111111001100110
1111101100100011
1111111000001011
110011
1111111011011000
1111111100111101
1000011110
1111111011101101
1111111111110001
11101010
1111111011110111
101001101
1000000000
1100110010
1101111100
1000000011
1111101111
1110100011
10000110010
11111010
111101111
111110010
100110100
1111110001100110
1111111001110010
100001111
1111111110000100
1111111111001000
1111111011000110
1111111010111010
1111111101110011
1111111010110000
1001000
110011111
101100
1111111011111100
10110
1111110010111000
1111101011111100
1111111011010100
101111101
1000011110
1100111
1011001100
11010100101
1101001001
1111001101
100111001
1011100
111110011
1111111100010011
1111111010000110
1111111011110001
1000100
10010111
101010001
1111111011101011
1111110010011101
110011
1111111001111000
10011101
11001011
1111111010101000
100110
1111111010111111
1111110011011010
1111110000001111
1111111000110001
1001101101
10100010
1011010
1110111010
1110101101
1011011100
1000
1111111010000100
1111111010101001
1111110111011011
1111101110111010
1111111010010000
1111110110001001
1111111011111011
111010010
1111111101101011
1111101001010111
1111110101011110
1111110110000011
1111110101000111
1111111000110010
1111110111100100
101000000
11101000
1111110111011000
1111101101001101
1111110010000010
100001011
1010001110
111010100
101111010
1101110001
10010010
1111110111011010
1111100110001100
1111101001100110
1111101101101010
1111010101011000
1111101100100011
1111110101011001
1111101010101101
110000000
1111111111010100
1111111000100011
101101011
1111111100011010
1111110010010010
1111111101000111
1111111110101100
1111110010001000
