1111111000000001
1111111001011100
1111111011111111
1111111111000010
1111111111001001
1111111100111110
11101101
1111011
1100101
1111111010111010
101011001
10010011100
11001011010
11101110000
10101000101
1001111101
1111111111101110
1111111110000011
1000111100
1010011000
111100010
11
111000010
1111111100010001
1111110100111100
1111111010111011
1111101110001110
1111101100011011
1111110111000101
1111111001110011
1111111011010101
1011000
10000111
1111111110100110
101110101
1111111011110010
0
1111111111010100
1101011
1110000011
1101110100
10101001110
11011010001
110010101
1111111000101111
11100
11111100
111010010
110110011
1111111110011000
111101010
1111110110100000
1111101111100110
1111110010011100
1111101111010001
1111101100000010
1111111011000110
1111111100110001
1111111111000111
1111111101010111
1111111101010110
11101
1111111100000100
1111111100111101
1111110100101111
1111111001010100
101100111
10001001100
110011110
1010101010
1000001000
1001001110
1111101100011010
1111111000001001
100111000
101111
1111111110011110
10100101
110101111
10000011
1111111001010111
1111111010000110
1111111010001100
1111101111001000
1111111101101001
1111111101101111
11001011
1111111111001111
11111010
110011010
1111101110111101
1111111111010101
1111110110000000
1111110111000000
1010011
1111010001
1000001001
1011001000
1010101101
1111111011000000
1111101000110001
1111110001111011
1111110011011110
1111110101111000
1101011
1111111000100010
1011111
101
1111110110000101
1111111011001111
1111111011001100
1111110100100010
1001001
110001
1111111101110111
1111111110000011
101010100
100110011
1111110101110100
1110101
1111111110100110
1111101101011001
1111111001001010
1101111
111110011
1110011001
1111011100
1111101110011011
1111101000100110
1111101101101011
1111100001111000
1111101011100010
1111110110010000
1111111010101100
100100000
110101
10011010
1111111110000100
101
1111111111101010
11010101
1111111110010010
11011100
10101111
100000000
10001
1111110111001101
1111111100000101
1111111101110000
1111101101111011
1111111001001110
1111111101011100
10000101010
1010000111
1011
1111110100010001
1111101001111001
1111110011100001
10010000
1111110000001110
1111101101011010
1111111100000101
1010011101
1001011001
1000101011
1111111100000001
1111111001010010
10010001
1111111101000111
1111111111001111
1111111110100110
1010010
1111111011111101
111101011
1111110111000111
1111110111101010
1111111001110000
1111101011111010
110010101
1111111101110111
100011000
100101010
1111111110100000
1111110101110100
1111111011010101
1111111001011101
111011011
10110011
1111110100100101
1111111111110011
10000011011
10111100011
10010001010
1111111011000110
1111110110011100
1111111110100111
1111111111000110
1111111110001000
100110111
1111111010010100
1111111100100011
1111111110111001
1111110110111010
1111110010001001
1111111001010010
1111110101111111
111001110
1001
1111101100101100
1111110001010010
1111110011110101
1111101010000011
1111111010101011
10011110
11011010
1111110111100000
1111110000001110
1001100101
1001111000
10100000000
10100001101
1100011
1101110
1111110100111011
1111111100000001
11
11111101
1111111001110100
1111111110100000
100110000
1111111001101101
1111111110110011
101101000
1111111101000011
1111111111110111
1111110110100010
1111101000111011
1111101001001101
1111110110011001
1111101100001111
1111110101100000
111000010
1100011011
100101001
1111111010
10011110000
101101100
1101101001
100101011010
10010010101
10101000
1111110110011100
100010011
110011100
101001111
1111111011110110
11110001
1000010010
1111111101000110
11111001
1111111101000111
10101100
110010111
1111111011000001
1111101110000110
1111111101101011
111000100
11010101
1001101100
11000111110
10100001000
1011011001
10101011101
10111110110
1000101011
1001001111
11101101000
11111011110
10100111000
111110
101111110
100011100
1000110
1011110
1111111110111101
11100001
1111111001101000
1111111111010011
1111111000101010
110010101
10000001
101001
1111111100000111
1111111011100011
1111111101010000
1000001010
10001001100
11000001111
10011111111
1000001011
1100011001
10010101101
1011001100
1100100001
11100111001
100000110010
10011100100
1111111011100111
1111100
110001011
11101000
1111111111100001
1111111101100010
1111111001011000
110111101
1010000
110000011
10101101100
1101001110
11110101
1111111100001110
1110
1110010
10101001001
10110101101
11010001110
1010010
1111111001101101
10010011100
10110110011
1111110111111111
1110011100
1011110010
10011100010
1110100000
1111111010111110
1111111101000100
1100000
1111111010010001
10010
1111110110111001
1111110101000010
1111111101111110
1111111110110000
1101101100
10110010101
1101110100
1001110
11101100
1111111111100111
10001101001
1100111001
11111000111
11100110001
100011001
10011011000
100001001110
1000101100
1111101100010111
1011001010
101011111
1010110010
1111111100011011
1111111011110010
1111111100011111
11000000
1111111101011100
100010
1111111001110111
1111110011000001
1111111110010011
1111111001111011
10101001
1001110010
110000100
11111100
1001111010
1010001110
10011001101
1111111101110001
1110101100
1000010111
1111111101010011
1111001000
11000101011
1111111010110100
1111111010011110
101110011
1001011101
1001100001
1111111011100011
1010001111
1111111000110101
1111111010000000
1111111100100101
110100
1111111010101010
1111111011100011
1111111011001010
1111111110011000
1111111111011010
1111111100111101
101010111
1111111000001101
1111111000000110
10000111100
1100001010
1111111111100001
10101010111
11100111
1111110101111110
1111111011100011
1001010010
1111111110110010
1111111010011100
1100
111101
10110100
1111110111010100
110011011
1111111000011011
1011
1111111111001001
1111111111010010
1111110100111111
1111110101111110
1111111100100010
1111111010000110
1111110
1111111111001110
1111111011101001
1111111010001111
1111101110011000
1111110010000000
100011100
10010001000
1100000111
1111111111010011
1111111100101001
1111100111111000
1111111000011100
1111111110
1111011
100100
1111111110111011
1111111101011101
1111111101001010
10100100
1111111011011100
1111111100101000
1111111011000001
1111111100010100
1111111011001010
1111111011010111
1111111100010111
1111110110100001
1100010
1011101010
1111101110101111
1111101011000000
1111101101000011
1111110010010011
1111111011110111
1111111110101011
111010011
111000
1111111011100111
1111101011110011
1111111010011110
10001100110
1000011011
1111111100111010
1111101110100001
1111111101010011
1111111000011111
1111010
1111111101101101
1111111111010110
1111111010001010
1111111101111111
1110
1111111111110110
1111111011101111
1111111101100101
100101100
1011100011
1111110000011100
1111101110011011
1111111000000000
1111110011010100
1111110101110100
1111111110101000
1110000100
1000010001
11100011
100011011
1001101101
1111111100110011
101111100
1111111000111011
1111111011010110
1111111000001001
1111110101100110
1010110110
111001010
11100
1111111101110101
100000001
1111111101101011
1111111110110011
110110100
11100001
111001110
101001101
1111110111010110
1111110010001110
1111111100001110
1111111110100011
11011011
1011110110
10000110001
10000000111
111100101
110110111
1000011
1111111001110011
1111111101000001
1111111001110100
1111110110000011
1111101111001010
1111111011001100
111111110
1110011111
111110000
10111011
1001100010
1011111111
1011110011
110101110
101000001
11000
10101111
1111110111000011
1111110100100101
1111111000101000
1111101110001001
1111110101000010
1101011
1111111000011101
1111111101101111
1111111011000000
11010101
1111110111100001
1111110001011111
100001
1111111111000001
1111110010011101
1111110110100101
1111111010010001
10001111
1011100001
1011110011
100110100
1000010100
1011101100
100000000
110010001
1101111111
10011100
1111111100010001
1111111110000110
1010111
1111110101101111
1111110001100111
1111111001000000
10011100
1010011
1110000
1000011
1111111111101011
1111110001110001
1111101101100001
1111111111010101
1111101110110101
1111110110101100
1111111010011000
1111111110001100
110111000
1011111000
101001010
1001110100
1100010101
1110010101
111111010
110100000
101111011
1111111101001110
1111110101100101
1111111111010010
1101010000
110001001
1111111010100110
11111100
1111111110100010
1111111111101001
10100110
1101001
1111111100010110
1111110011101100
1111101111001101
1111110101111010
1111101000011110
1111110110000000
1111111001100111
11111011
101101010
1000000000
110101000
11110010
110110101
101111010
101110
1111111111111111
1101111
1111111100000100
1111111010010111
1000000111
110101010
1111111111011111
1111111100000111
1111111000111100
1111111101110000
1111110110111011
1111111011111000
1000000
1111111100100011
1111101101100100
1111110101001011
1111101011100010
1111110000101010
1111111011011011
100011010
1010001101
1011111110
100010010
1111111100010100
110110110
1011110110
1010100010
1111111010110000
1111111110101010
10100101
1000
1111111011100010
1111111100001001
1111111110000011
1111111000011100
1111101100001101
1111101011000000
1111111001011110
1111110110100101
1111110010110011
1111110001000010
1111110101011000
1111110111001101
1111110011010000
1111111010100011
1111110111111101
10100010
10011010
1010110000
1110101010
1001110000
101010
101110010
1011110
1100
1111111010100000
1111111101010101
1111111101111010
1111111011100010
1111111101000011
1111110111101000
1111110101011001
1111111101101100
1111110011011101
1111111000001110
100111001
10
1111100111100111
1111110110101001
1111110001111001
1111110100110101
1111111100001111
110000101
1000111
100101
1111111111111101
1111110100
10110000001
1001000000
1111111111001001
1000101000
1111111011110011
1111110010100101
1111110011110000
1111111100100011
1111111111101100
1111111000011000
1111111011101001
1111111111101010
1111111010111100
1111111011011111
1111110101100101
1111111000010100
1001010010
110001
1111110000110101
1111110011010000
1111111011110110
100100011
11100010
1111110
11110101
1111111100111111
100100011
1000010100
1101100110
1001010011
10001101011
11001100
1111111000101000
1111110011111001
1111110011010111
1011000101
1111111001110010
1111111000010010
1111110110100101
1111111111101010
1111110100000000
1111110110111000
1111110100100111
1111111100011110
10111001
1001000
1111111000110011
1111110011000111
10000111
1010001001
10100
1111111101110011
1111111101110100
1111111100110100
1111111111100111
1111111100101111
110110110
1110111111
1010111000
1111111000000101
1111110011001000
1111111110100110
1111110111100011
1110010111
1000101110
1111111000000011
11101101
1111110111000001
1111101001111111
1111100110001111
1111110111010100
1111111111111011
1111110011001010
1111111110100111
1000001
1111110110000000
110010000
1001101110
1111111111010010
1010001
1111111001111100
1111111100001011
10011101
110010001
1111111111011011
