1111111100111101
1111110010010110
1111111011001010
1111111011100010
1111111010011000
1111111111001101
11010101
1111111000011111
1111111001011011
1111110000011111
1111110101010100
1111110111111101
11101000
100001000
10110110
101010111
11110010
110001001
1101001000
10000001111
1000000010
100100000
1111111001110001
1111111000100010
1111110010000100
10001011
10010001
111011
1111111001111011
1111111010001001
1111111000000110
1111111111001010
1111110110100010
1111111111101101
11101110
1111111100010001
1111110110110001
1111110100011111
1111110010111001
1111111101000110
1111110100011101
1101001
11001010
1111110111100110
1111101111001101
1111111001101100
101101101
1100100101
100000111
1111111110001101
1111110101010000
1111110001100000
1111111010100101
1111111011100111
10101100
1111111101111110
1111111101100010
1111110101010001
1111111111011001
1111111101111101
1111111101011000
1010000
1010100
1111111010110111
1111110010100010
1111110100010100
1111110011111001
1111111101100111
1111111000010001
1111111101110001
1111111001101011
1111111100101100
1111100111001111
1111101100000011
1111111100000011
1111111100110111
101001000
1111111101011111
1111110101100001
1111111001110100
1111111110100101
1111111010101110
11001
1111111110001111
1111111001111000
1111111011100000
110100
1101
111111
1111111110000101
1111111100001100
1111110000111000
1111110110110110
1111110100101100
1111111001101010
1111111101011010
1111111000100010
1111111101100100
1111101100000101
1111110001100001
1111011011000101
1111100101100110
1111110010010010
1111110000011000
11010111
1111110110011001
1111110000100001
10010110
1111111111010100
1111111101100101
10001110
1111111100001101
1111111110111100
1111111000000100
100100
1111111001101000
1111111111101001
1111111100101001
1111111100101110
1111111001101100
1111111001001000
1111110011011111
1111110111111010
1111111100101101
110010001
10100001
1111101011010000
1111101100110000
1111010110001000
1111100100101001
1111100111101110
1111101000111101
1111101110110101
1111101101100100
1111110100101011
1111111100011101
111000011
1111111101010101
10010001
1110001
1111111110010000
1111110111011100
1111111011100111
10000001
1111111111111111
10101110
1111111000011000
1111111101010011
1111111100110100
1111101011111011
1111111001000000
1111111000011101
110111000
1111111111000010
1111110011000010
1111110000001111
1111101000100101
1111110110100010
1111110110101101
1111110100100010
1111100011001100
1111110011001100
1111111101011010
1111111101010100
1001100011
1111111011000101
1111110100001100
1111110101111010
1111111011101111
1111111100001100
1000110
11010100
1111111010111101
1111111110111101
1111110111100011
1111111110000101
1111101110100011
1111101011100110
1111111110110110
1111111100111000
1111111101011001
1111111000001010
1111111010011101
1111101111100100
1111110111001011
1111110001001001
1111111110101011
1111111110011001
1111110010100100
1111111011010001
101111101
1001011110
111100010
1111110110111111
1111111010001000
1111111110111001
1111110101110101
1111111001011000
11111000
1111110111001011
1111110111001011
1111111100011011
1111111101101001
1111111010001011
1111111010100001
1111111101000101
1111111110001000
1111110
1111110000110001
1111100101110010
1111101111001001
1111100100111010
1111101101110111
1111101110111011
1111111101101110
100110110
1111110101100110
11000110
1100110001
1001110010
11110000
1111111010110011
1111111000110111
1111111010110100
1111111110010110
1111111110111110
1111111001001010
1111110110111010
1111111110001100
1111111111001101
1111111010110100
111101001
1010010101
1010000000
101010100
10000
1111111101010101
1111100111001100
1111101110001011
1111100100000110
1111101111101001
1111111010111100
11100110
1100100010
1101110000
1011001010
1111111110111100
111100110
1100101101
1111100
100111111
1111111010101011
1111110110100010
1111111001100110
1111111100001001
1111111010101101
1111111010010111
1111111111000000
1111111110101010
1100000100
101000100
1000011110
10001111
1111111111001001
1111111001001100
1111111010011101
1111111111011011
1111111110111011
1111111111010000
100011011
10000000011
1111001100
10001110101
1110110110
1000110110
1011110010
1101110111
1101011010
1001110010
1111110110010111
1111111100011111
10011000
1111111010011101
1111110011101110
11010000
1111111110101000
1111111110010010
1101010
100011100
10001000011
1010101010
100100011
1111110010000111
1111110001101000
1111110010111100
1111111111011011
1111110100111101
1101111
10101110001
10001000101
101101011
10101011101
10010000001
10000111011
1010001100
10000110101
1001100111
1111111110000011
1111111101011010
1111111101011001
1111111000011000
1111111100000101
1111111100000111
1111111100110010
1111110110111000
1111111111001000
100101111
10111011100
10000111101
100111001
1111111100001011
1001001
1111111000001000
1111110101100110
1111110101011001
11011
1111110100110000
1010011101
1110001000
11000011110
1011001010
1111001010
11111011
1111111111101101
110011111
1111111001101111
1111110111011000
1111111010000110
1111110010111011
1111110100110010
1111111110000000
1111111001001010
1111111100100001
1111110101011011
110001111
10110010011
10000100011
1000011111
101010010
1100100110
101
1111111011001101
100110100
1110110011
101010
1111111111000111
110100101
1100110110
101100001
1011110111
10001110
1111111100101011
11011
1111111110101001
1111110001110011
1111110100110101
1111110000010110
1111110110100110
1111110111101111
1111110011101101
1111111100000001
1111101100101001
11011100
1111101101
1010110011
110001110
1011101111
111010111
10000010011
11001110
1000001000
1100101000
100101001
1111111001100111
1111111011111000
1111111101100001
1111111101111000
1000001111
1000110101
1111111111000111
1111111101010111
1111111100111101
1111110011101111
1111110101010100
1111110011100010
1111111001000011
1111110100100000
1111111000001000
1111110100000010
1111110101100000
111
110111001
111111111
1100110
1000100
101111000
1110010000
111001001
1111001000
10000001001
1001010
1111101100011110
1111110011110101
10011110
1111111110111100
101011010
111111010
1111111010001011
1111111011110110
11001
1111110100000101
1111110011111110
1111110011010001
1111111000100111
1111110111011110
1111110100111000
1111111000011011
1111110010100111
10000000
110111100
1111111101100010
1111111111101111
1111110001010110
1111110001110001
110101111
10100111010
1100110010
1001010111
11111101
1111100110110111
1111110010011011
10000011
100101100
1111011100
110001111
1111111111110001
10000100
1111110110011110
1111110001110101
1111111011001111
1111111100101010
1111111110101111
1111111101110111
1111110110010011
1111111000100100
1111110101100100
1111111110101110
111101
1111111001001110
1111110100001011
1111111010000000
1111111100110010
1011010011
1011001101
1110010010
1110000011
1111110111001000
1111011001000110
1111110100111100
1111111110111100
10001000111
1110111001
10011100
1111111100011011
1111111101000000
1111111000010111
1111110110100100
1111111111100101
1111110111111110
1111110110001001
1111110110011100
1111111100101101
1111111010111100
1111110100110000
11010111
100101011
1111101010011011
1111110110011111
1111111110101100
11100
1000001011
1111111001110011
1011011010
1111111110100101
1111110000000000
1111110011010111
1111110011010101
1111111011100111
111000011
1010010101
1111111110011001
10011101
1111111010101110
11011111
1111111010010010
1111110110010111
1111111001110110
1111111101101001
10000
1111111111010000
1111111111101110
1000011
11110
1000010
1111101011101011
1111110101010100
10100110
1000111001
1111101101
1100001010
10100101001
111111000
1111110100111101
1111110011000110
1111110001000000
1111110000100000
1111111110100001
111101111
1111111101001000
1111111100000100
1111111111011001
1111111110101111
101011001
111100
1111111110101000
1111111110110000
101101011
11011010
101111101
10101001
1111111111011011
1111
1111110100010101
1111110000100011
1111111100011110
1111101
1110110
111011111
100000011
11001100
1111110101001001
1111110001100111
1111110100100110
1111110000010110
1010000011
1000101
1111111011100001
1111111110000111
1111110110101010
100001101
10111010
1111111110011001
11001000
11001010
1010010110
1000001111
100111000
1011010101
11100100
1111110101101110
1111110100000011
10110111
1111111011111101
101111
11110
10111000
10011010111
10000011011
1111111001110111
1111110111011101
1111101110110011
1111110010100110
1111111111011010
1111110110110101
1111111101000101
101100
1111111010001000
1111111111011100
1000001
1000000111
100000001
1101001111
101100100
110101001
110110000
1010010100
1111111011110101
1111110101010011
1111110111111101
1000110110
11001110
110001100
1100001101
1101010001
10001111001
1000010000
1100010
1111111001001011
1111110110010010
1111111001111011
1111110111111100
1111110110000100
1111111101111110
1111111101100000
1111111101000011
100000111
101010110
1111111100000100
1111111111100001
100011000
111001000
111001001
1001001100
1101110011
101001111
1111111011100000
100111011
1001100110
111001110
1101110001
101101000
110000100
10101010
1001100001
1111111011101101
11101111
1111111100110101
1111110100110110
1111101111100101
1111110001010000
1111111110110010
1111111
1001100111
1100010100
11010011
1111111010011100
10000101
10101100
1000000010
1111111111001011
1111110101110001
11100111
1011100
10110100
1111111011111001
110100010
1111100
1000011111
1111110010100011
101101011
1100111011
1111111111111100
1111110101111000
111100111
11110010
1111111000010001
1111111100100001
1111110111011100
1111111110111110
11111101
111000000
1011011010
1111111111111000
1111111100000100
110001011
1101101
11001101
1111111100011000
1111110110010010
1111111111001001
1111111011100110
1111111011011001
1001100
1111111010010101
1111001
1111111011111101
1111110101010000
111011101
1111101011
1111110110001101
11011100
10001100
10100111
1111111101101101
1111110111000011
1111110011110110
1111111101110011
101
10000111000
10000001101
101001000
1111111100010010
10100001
1111110011001101
1111110100110011
1111110111111100
1111111110101110
1111110111010110
1111110110111110
1111101100111000
1111111100001110
1111111100001110
1111111011011110
1111111011010101
1111111101010101
1011110101
110101100
1111111011110010
1000110010
11011010
1001010
100011
1111110111011111
1111110010101010
1111111100000010
110
1000110000
11000111
1101000100
110101110
1100111
1111110011110100
1111110011000110
1111110010111110
110101011
10001
1111110111111110
1111110010001001
100111110
1111111101100001
10101000
1111111111101001
110110111
1000010100
1111111100101001
1111111101011011
1111111100001110
110111111
1011000110
100111110
1111111001010010
1111110101001110
1111111011000110
1111111101010110
1011010
10011
1010100011
1001000011
1111111110000011
1111110111011100
1111111101011100
1111111110110111
101110011
10110010
1111111111010110
1001100
1010001
111101
1111111001100100
1111111101101000
111101111
110011110
100100100
1111110111001110
1111110100011010
11110000
1100111
100001000
11001
1111110110001101
1111110100001100
1111111100110101
1111111011101110
1111111001000000
