1111110111110000
1111110111100111
1111101110001100
1111110111000011
1111111110110111
1100110
10111000
1111110101111011
1111101100000011
1111101111100101
1111101101111010
1111110100010010
1111110111010011
1111111100011010
111100
11000110001
1101011100
110101011
1101100011
1111111001001111
1111111001001001
1111101100100100
1111101001011100
1111100110111000
1111110100011000
10110000010
10101001000
11000111011
1111110100000011
1111111000110101
1111111000000010
1111111000111101
1111111001010111
10010010
10011000
1111110110001000
1111101111001010
1111110001000001
1111101001010100
1111110010011000
1111110101111101
1001011
1111111101000111
111000000
1011100001
1111111001110111
1100111101
1111111111111000
1111101101100010
1111110000011010
1111101000001101
1111100101101000
1111110111110101
1101110110
1010010010
1100010111
1111111000110000
1111110011101111
1111111000000011
1111110111110110
1111111011010101
10101001
10111
1111110110111101
1111110010010111
1111111000001010
1111110000000000
1111101111011011
1111110010001111
1111111000100101
1111111011100101
1000101011
1111111111111110
1111110010001101
1111111000001101
1111110100111000
1111110011000111
1111110000110000
1111110001001010
1111101001010110
1111110110001000
1000000110
1111111111001100
10001000001
1111110100100110
1111110101101011
1111110111011010
1111111111010001
1111111110111101
1111111100000111
100111011
1111110101100100
1111110010000110
1111111111111001
1110100
1111110001001111
1111111011011011
1111101110010000
1111110000010101
100100011
1111110011110010
1111111010011010
1111111110000000
1111111011010100
1111110110010101
1111101011111111
1111101111100010
1111101011001000
1111111101011001
1000001000
11101011
1011111001
1111111100101101
1111110101101111
1111110111001100
1111111111100000
1111111110100001
1110011
110000011
1111111111011100
1111111101101100
1111010
110110100
1111110000010100
1111111100110110
10010101
1111110011110110
1111111100100000
1111110011000011
101011000
10000001101
10000001011
1111111100101111
1111101111011111
1111110000010010
1111101110110011
1111110011000100
100101111
1111111010011111
1111111110111000
1111111001110010
1111101111101001
1111111100001110
1111111100110010
1001101
1111111110001111
111001010
100101
1111111100011011
1111111101100101
1111111110110010
1111110011111000
11101011
10011111
111010101
101011100
101111010
10010001100
10111000100
10100001001
1100111111
1111110011101100
1111111001010010
1111111011000100
1111111001110101
1111111110000111
1111111001010001
1111110100111000
1111110111100001
1111110110001011
1111111100011110
1111111100010001
1111110111111101
1111110111110101
1111111110101110
1111111110101001
1111111100111101
1100100
1111110111000010
1111111010010111
1001000111
1101010111
10110111110
10011011110
1110110010
110100000
10100110000
11111100000
1101100100
1111111011100100
1111010001
1000001111
1111110100101010
1111110100010010
1111110001010101
1111101101111100
10101110
1111101110010000
1111110111001010
1111111111010000
1111110110001100
1111110111100110
1111110101001111
1111111101110101
1111111101111010
1111111111001000
11001111
11011010101
100111011110
100110001000
10111001110
1111111110001011
1111110011101011
1111110001000000
1111111101001110
10111001100
11000101101
1111111101110010
10010010110
10011111111
1111110110111101
1111111001101000
1111111000000101
1111110100010101
1111111101010110
1111111000000110
1111110101110011
10000010
1111111010101011
1111111111001011
1111110110110110
100111011
10001000
111111111
1011101111
11011000010
101001101110
110110001001
101010100010
1111111100001010
11100011
110000110
1111110101111110
110010111
11010100110
10011110001
10101111001
111011001
1111111000010101
1100110
1111111110010111
1111111011100111
1000111
1111110010101101
1111111010011011
11011001
1111111011011001
1000011
1111110101101010
1111111110111100
1101101
1110010000
10011010001
10100011000
11010010000
110011111011
101111011001
10011000011
1111110001100000
1111101011101100
1111110011111000
1111111011011101
1001001101
10100000000
1111010111
1111010011
1111111111011100
101011
1111111011101010
1111111000000001
11001110
1111111010110000
1111111110101011
1001011
1111111001111111
111100111
11111100
1111111111101000
1111111101011100
1111111001000100
110011
11000000110
1010110010
10011000
1111000100
10010111
1111010101011111
1111100101111100
1111111100110110
1010011011
101000100
101010100000
11101000111
11010001111
1011010111
111001101
11010011
1111111100111010
1111111111110001
1111111101000011
1111111100001111
111011
1111111000000110
1111111010110101
1111111100100101
11010100
100000000
1111111110011011
1111110101011000
1111111010101111
10011
1111100011100100
1111011110011110
1111011010100101
1111001110011000
1111100011011100
1111101011110011
110001
1111111100110000
100111001110
100101101000
11110010010
1111000010
101110
1111111101010001
1111111111101010
100101010
1111111000110001
110
1111110011011110
1111110001010011
1111111000111100
1111111100010101
1111110110100010
1111111011001100
1111111001011111
1001001101
1111101010101010
1111101010011111
1111101010001000
1111001100011111
1111000011011000
1111011110001000
1111100110110011
1111110000101101
1111110011001010
1111101010111101
11001110101
11000011001
10110101100
1101100101
1111111101011011
1010001000
1011100
1111111011111110
1111110010100000
1111111001111100
1111101111111011
1111110111100010
1111111000010110
1111111111010000
1111111110101001
100100001
111101001
10000101111
1111101011001101
1111011010001100
1111110001011011
1111110001001110
1111001000000011
1111011101110100
111001100
1111110011010001
1111110000000110
1111100101110010
1111110111111000
101101
10100000011
11100001110
1011001100
10010110000
101100101
1111110011000011
1111111001001101
1111111101010110
1111110010101101
1111110110101100
1111111001000100
1111111010000101
100001000
1010111111
110100100
1111111101100100
1111110101011101
1111011111000111
1111011110001110
1111101001101100
1111100000100101
1111110001000000
1111110100011100
111110111
1111111011101010
1111110001101011
1111101010010000
1111110110111001
10110101010
100000000101
1000010011
1111001110
1000101101
1111110001111101
1111110110010101
1111110111011110
1111110110111110
1111110111000101
1111111110001010
101010111
111110100
1001110001
1100001111
100111000
1111101111010100
1111011101101111
1111101011100110
1111100001101101
1111100101111111
1111110100100110
11110110
1110101111
10001000101
101100011
1111100000011101
1111110010111000
11101010001
101011010000
1101100100
10000110000
1111111111110010
1111110011001101
1111111000110001
1111111101011001
1111111000010010
1111111100010001
1111111001001100
110101111
1010111110
11110110
101110111
110001111
1111111111101110
1111100111111001
10100011
1111100100110100
1111100001111011
1111111100000000
10000000100
1111111100011111
1110100111
11110100
1111110011000000
111001001
100111111111
11110110010
10010110001
1000001010
1111111111110011
1111110000001110
1111111110011100
1111110010101100
1111110011111110
1111111100101001
1111111010010100
10111110
1001110011
1111111110100010
1100111010
1010001100
1111111101010001
1111100111110110
1111100101101001
1111100101010101
1111011011111110
1111110010001011
100000011
1111110111110011
1000011100
1111111000111010
1101110111
10101101
11110110011
10101110000
11000010001
1011101010
1011001
1111110010010010
1111111001111111
1111111010110011
1111111000100110
1111111101100101
1111111110101001
1111111111011110
101000100
1011001001
1001010011
11011111
1111111010100100
1111110000101100
1111100101111111
1111101110111001
1111110110101010
1111111000011111
1111110111101100
1111011111010011
1111101101000110
1111101001001011
1111001011
1000010010
1011011100
1100100101
10001111000
100101011
1000110101
1111110101000111
1111111111001101
1111111011110111
1111111001101001
1111111101101111
1000010100
111000110
1000110000
1100110010
1000101110
111100000
1111110100001010
1111110001110011
1111111001100101
11101110
1111111110000101
1001011011
1111111011001011
1111101010100100
1111101111000101
1111111111100111
10011110001
10100110100
1011111110
11010000011
10101010111
1000111101
11100111110
11010
1001100101
1111111101000010
1000000000
10011101
1100001
1111111110000110
111011100
1101001001
11100101
1111111111101101
1111110111100010
1111110110101010
1111111101001101
1111111011000100
11000010
10100011001
1010001000
1111111100111001
1111110001100010
1111111101011111
10000101010
11000001101
10100101011
11011110101
10010101001
1001001100
10010000100
101111010
101001010
1001011111
1101011010
1010101111
1010100111
111111100
1000010111
1001111111
1110001
1111111110001111
1111111011101100
1111110101011100
1111111110100111
1000101011
1111010110
1111010010
10001110
101011111
1111110110100000
10010000010
100100000000
10101011000
1001011100
10001000010
101110110
10001
101001111
100101110
1100000110
1111010011
1011111001
1101100100
1000110010
1100010101
1010101101
1001001011
1111011100
1000100010
101111111
1001100010
1001101111
1011100
110011101
10100011101
1100010010
1010111
100100011
100101000100
11001000010
101100011
1011010000
110011011
111010100
10010001
1010000010
1011011
1110010111
10111100100
10010010001
1010000001
1111111010101100
1111111100101011
11001001
111000001
1100010100
111011010
1111111110101010
10001001110
1111111111010101
100101100
1000010101
10111101001
1001000111
1111110110101000
1111110010
10001111111
101001
111001100
1111111111000111
1111110111011010
1111111111001000
1000001
10001111101
101011101
10010001001
1110111100
1101100011
1001000111
1111110110111100
1111110011111001
1111110001100001
1111111110111010
1111000
1111111111000100
1111111101110111
1010111001
1111101011001010
1111110010110010
10110111
1110110001
1111111001100111
1111110100111111
1111110110011111
1111101100000101
1001001
1111101111010110
1111100111011000
1111011111000101
1111101100111011
111001
10001000010
10101110100
10001111101
1000001011
111000101
110001100
1111110111111110
1111110110001011
1111101010010011
11111100
100101
1111111111001001
1001000111
1111000
1111101111011110
1111100101111010
11010111
1111101111101001
1111101100001111
1111110010001011
1111100111111010
1111101111101110
1111110111000100
1111101011110001
1111011100100000
1111011100101011
1111101011111010
1111110110101101
1111111110000101
1011101000
101101111
10110010
101011000
1111111000000110
1111101110010010
1111110010111000
1111101101110100
1111110011010111
1111111001111000
111010010
101011100
1001010
1111110111110110
1111101101001011
1111111011100010
1111101111101001
1111101001101100
1111101101010101
1111100110111101
1111111111101010
1111110101001111
1111101110101101
1111101001010111
1111101001011101
1111101101001001
1111110101101001
1111110001101010
1001110011
1010010000
101011100
101000111
1111110111110011
1111110000100111
1111101111100101
1111111000100100
1111111100100010
1111111100101100
1011001110
10111110011
10010111100
101111
1001111111
1010100110
1111110011001011
1111101010001100
1111100011100001
1111100111001100
1111110000011011
1111101100010101
1111011110001010
1111011111011011
1111011111010000
1111011001100011
1111011111000101
1111100100000110
