10000011001
1110100110
10011101
1010001
11011100
100110110
1011
10100100
1111111111010111
1111111010011010
1111110100110110
1111101100100100
1111101100011101
1111110000011101
1111110000000100
111100
1101011111
1011110001
1101100010
10110101
1111111100101001
1111111101110001
1111111000101010
100001111
10001110011
11011000100
11100111110
100000011101
1101010001
1100000000
11111101
110100111
110110010
111010
100111110
110110
1111111101100101
1111111100110011
1111110101100110
1111101010110011
1111110101101110
1111101011101110
1111101110110010
1111111110010011
110101111
10001000
101010111
111011100
100011010
110010110
1111111110011100
10110110
10010000101
100000010010
10101110000
11000001011
1000100111
100110001
110001111
1010010011
1001011
110111
1011110011
1111111010111011
111001111
1000001110
1111111011101000
1111110000111101
1111111000111101
1111110110110100
1111110011111110
101100001
1010011101
1111111101101111
1000001111
1000110
111101111
11010110
1111110110011100
10101101
10011011001
11010110011
10000111111
1111111010
101010111
101100011
111111001
101111001
1111111111111101
11000101
1110010000
1111111101011001
1000110010
10011011101
1000100010
1111101110000011
1111111110111010
1111110010101100
1111101111111110
10011111
110011001
10000000111
10100110111
111111010
10101101
1100110
10110101
1111111100100011
10000010110
1101010111
1101010011
10000100000
100011000
110000100
1111111100101011
1011001111
1111111010110011
1100101
10101111110
1111111111111101
100111000
1111110010
1000100010
1111111100001011
10010
1111110011110111
1111101111010000
101100001
110111000
10101010011
11010101001
10000000001
1010100100
100000
1111110110110010
11011011
1111111100111000
101110001
10000110001
100111011
1111111010100101
1100001
1111111101001010
111100111
10000010
1111111001000011
11000011101
1111111010111011
101110000
10101100011
1010101000
1111111010111100
1111111000110101
1111110010100001
1111111001010001
1100
1101100100
1100111111
1111111010001011
101110111
1010000
1111110100001110
1111101011100100
1111111111111101
1111111001110100
100000000
1101001000
1000110
111000
1111111111101001
1111111010000110
1111111110011100
1111111100100110
1111111110011111
10100100111
1001111011
1001010101
10101100001
1111111011011110
100010010
11001100
1111111101001010
1111111110001101
1000001
101000111
110101001
1111101110010100
1111110101111100
10100110
1111110101101101
1111111011101111
1111110011001000
1111101110101111
1111111010011010
10101000
1111111101011001
1111111100101101
1111111111010010
1111111010010001
110111101
11010010
1111111101000100
110100000
10100010010
101101001
1110000110
10010010
10011001101
11000001000
10010000101
1011111010
1111101111
11111
1111110001110011
1111111011010001
1000011110
100011101
1111110011101101
100100
1111101101011100
1111011111000101
100
1111111101110010
110011
1111111111000101
1111111011001111
1111111000100011
101010110
10111110
1111111101000010
111010001
10001110110
101101001
10110011
1111111111100001
10110010111
100000001001
100100011010
10010001010
1100111110
10001001
1111110110101010
1111101111010000
1111111011110110
1111110111011110
1111101110100011
1011011
1111110010110000
1111011100110011
1111110011000100
1101010
111010001
11000
1111111010010000
10010111
110101010
1111111101110111
1111111101100101
1001001100
101110001
111100100
10000110
1111111100110101
1110101010
1100101000
1011000000
1100100
1110100
1111100110111101
1111101010110010
1111110001000000
1111101100110100
1111101110010001
1111110001101111
1111111101101111
1
1111101011110000
1111101001100011
1111110101100110
1001101001
1111111110001011
101100
110001010
111001101
11000000
101111011
111001000
1000011000
1011110111
1111111011010101
1011110
1000010100
1111111111110100
1111110101011100
10110100
1111101111000000
1111101010100101
1111110001011100
1111110110011010
10101001
1111111100011110
1111110100110110
1001011110
1111111011111100
1111110010111101
1111101001000010
1111110000111000
100000010
1111111111000011
1111111101111010
1111111011111101
1010010
1111111100111001
1000111100
1111111101010110
101011000
100001010
1111110000011101
1111110111010110
1111111011010101
10110010
1111110101101110
1111111100001010
1111100100001111
1111100011110100
1111111000100000
1000011011
10100101101
1111111111010010
1111111100111101
11100001010
1110111
1111110010110101
1111101110001101
1111110101111110
100001
11100100
10001
10000
10111001
1101000
1010100001
100000
1111111100001111
1111110110111100
1111111010001000
1111111101110001
1111110001001010
1111111111000110
11101000
1111110100101101
1111111010101000
1111100110110110
1111110110010100
1001101001
10110
1111100110000011
111101000
100100101011
10101011
1111111000111110
1111110001110010
1010101
11010100
11011001
1111111110000001
100001
1111110101101010
110001101
101001011
1011001
10101011
1100010
1111111101011100
1111010001
110010101
1111111000101101
1111111011000100
1111110011101111
1111111010000010
1111101111001110
1111111011001010
1011000100
1111110000110110
1111100101000111
1000111000
10000011001
1111111110101110
0
1111110101101101
1001010110
1111111101011111
1111111101010101
0
100001000
1111111011111001
1111111111010001
1111111110111111
1000111010
101110
101001101
1000111111
1110100011
10100000101
100101110
1111101001010010
1111110100111011
1111111101110000
1111101101111010
1111110101010110
110010100
1000111011
1111111000111000
1111111100010100
1001101000
1011110101
100000001
1111111100011000
111011100
11000011
1111111110111111
1111111100010010
1101010
1111111101011100
100101111
100101000
11011010
1111101
10111100
1010100010
10100010001
100001101001
11000111000
1101110000
1111111001010011
1111100100110001
1111111001100010
1111111111011111
110011110
10101011010
1101111110
1111110100011011
1111111101100111
1100110111
10110
1011111
11000000
11
1111111011100000
1111111110010010
1111111111000111
1111110110011001
1111111110011010
1111111100001100
1111111101111001
100000011
10111010
110100000
100000100100
101011100001
100110000010
10101111001
10100101
1111111001111010
1111110000110010
1111101111011001
1111111111011001
1101010110
1111111101010011
1111110101101110
1111111000101110
111110010
10110000100
1111111110011010
100101111
1111110110101001
1111111001010111
1111111111010110
1000110
1111111100111001
10100011
1111111110111110
1111111001100011
1111111111100100
1111111001101000
1111111000110110
11000111101
100010010110
1101110011
10001111000
1100100010
1111110111001100
1111100100110111
1111101010111000
1111110001001110
1111111001011010
1111110001101000
11011111
1111101110101010
1011
110101101
1111111111100010
1001100100
1111111000100110
1111101101000110
1111110110101000
1111110111001111
1111111000111111
1111111110110100
1111111011011010
1111111100111110
1111111100111101
1111111111110011
1001101010
10101111001
1011100100
11001001
1100011101
110101100
1111111001010001
1111110010110100
1111100110101111
1111011101000011
1111101100111001
1111101011100011
10010
1111110011100111
1111110101111010
10011011
1101111010
1111111001001011
1111111110110110
1111101010000010
1111110010011001
1111110110011101
1111101111010111
1111101101001101
1111110100110010
1111110000111000
1111110111000000
100001110
1000101000
1100100111
1111111111111001
1111111111100011
10101010101
10010001001
1111111010011001
1110110
1111111000010110
1111110011101111
1111101000000110
1111111000100101
1111111110010000
1111101111010101
1111111010010010
10101001101
10001010
1111111101001100
101010101
1111110001110001
1111110011101011
1111110101010000
1111101111011010
1111110101001101
1111110001100110
1111110000100101
1111110011011001
100010110
101100111
1111111101110100
1111110100010001
1111111101101111
10110000111
1110111100
1111111010001011
101000111
1111111010100001
1111111010011100
1111110100011010
1111111000010111
1111111110011110
1111110111101110
10100010111
1100111100
1111111010010011
1111111001101100
1111111000000001
1111110111010100
1111111100101111
1111110111001100
1111111110000010
1111111000000001
1111111010011101
1111110010010010
1111111001010010
1111111001000011
1111111111101111
1111111010000101
1111101110101000
1111100100001011
1111111011010111
1111111011001101
1111110111111010
100111000
10000100
101101111
111101
1001000100
10000000
111100011
1111110010
111101111
100010111
1111111001000000
1111110011010001
1111110110101010
1111111010010001
111
1111111011101100
1111110110111101
1111111101110010
1111111000101100
1111111011111100
1111111101011000
10000011
1111111000111101
1111110001011101
1111110011001000
1111111101010010
1111111101000100
1111111011111111
1100010111
1111111111
1111111111011101
100010
10011000010
1000110010
1010100010
1100100000
101100001
1111111100010010
1111110010111000
1111110011011110
1111101100101100
1111111110010100
100000
1111111101110000
1011101
1111111110101100
1111110010001011
1111110110101011
1000
1111110111010111
1111101101101101
1111101100111101
1111110101101001
1001101001
1100100010
10
1010111100
10001000101
1111111010111101
1001101100
10000100101
10111001010
100100100
1111111110000001
1111110011010011
1111110100010010
1111111100000001
1111111011110110
1111101111101100
1111111110111110
1111111010011011
1111111011100100
1001001011
1111111000001010
1111111000001010
1111110100111110
1111110100111001
1111101011110101
1111101000111100
1111101011111111
1111111001100110
100111
1111111101101011
100001011
1001011001
10101001011
11000010
1010100111
11100000
111000100
1111101101011001
1111101101011000
1111111100011011
1111111110000011
1111111100001001
1111111000110101
1111111100111100
1111111110001010
1111101111110000
1001100010
1001100111
100001
1111110111010001
1111110100101101
1111111010111101
1111101011101111
1111100101010000
1111110101000000
1111110111010000
1111110000000111
1111111000000100
1111111101010001
100000100
1111111101011110
1000010111
1111111000001111
1111111001010010
1111111101111110
1111110111011111
1111111011110011
1111110100111111
1111111101011110
1111111111111110
1111110101101111
1111111011010011
1111110000011111
1111111111000010
1001111011
1011111101
1111111111110010
1111110010111010
1011111
1111110101111000
1111110100000011
1111111010100111
1111111000101001
1111110100000000
1111111100111111
1111110111011101
101101111
110001101
1111111111010101
11100010
1111101100001110
1000101
1111111111111001
11100101
10010100
1111111100111100
110001101
1111111110001100
1111110000011101
1111111110111111
1111110101101111
100111111
1011010111
110101111
1111111111101110
1111111001011010
10010101
1100010
1111110101010110
1100001
1010100001
10101111100
1111101
1111111100011100
11110001110
10000001
1111111000101011
1111111001101000
1111101110001100
1111111011010110
1111110111110110
1111110011011100
11011110
1111111111011100
1111110101111010
1111111001010011
1111111010010100
