1100011011
1010011010
1000111100
1111111110110010
1111111111110000
101110001
1111111100100100
1111110111011110
1111110101101011
1111101111101111
1111101011110100
1111100101110111
1111100001101111
1111101001010010
1111101010000100
1111111000000111
1010111011
1010010110
1001100011
100101100
1010001101
11100101
1111110110110110
10000100
1001000010
11011110011
11110101010
100000101100
1000110100
1001
11110010
111000
1011110
1111111111100100
1111111111011010
1111111001100111
1111101110100000
1111110011101111
1111110000000011
1111100001100100
1111101011110001
1111100111000101
1111101011011000
1111111010000100
101000001
1111111011001110
1111100011
1000010101
1101001111
1010010001
1111111110111000
1111111010101100
1101011101
11110001100
10111100000
11011101100
1111111110000000
1111111101010001
101110110
100100101
1111111011001111
1001011
111111110
1111110111110000
1111111001100110
1111111011001001
1111110011101100
1111101001110010
1111101010100100
1111101001010001
1111110010011010
1111111100000110
1111111100101100
1111111010100000
1111111110001011
1000110001
1001000001
1111111111010010
1111111010010011
101011111
10000100000
10000100101
10010100011
11000010101
1011110
1111111010000000
10010
10011011
1111111101010111
1111111000111010
10010010011
1111111011110011
1111111110100000
1100001101
1111111101011001
1111101111101110
1111110100011000
1111100111000110
1111100001011011
1111111111011000
1111110011111110
1111111101011101
1110100101
110001010
100111100
1111111001111000
1111110110101111
10110011
101101100
1100000011
1100001011
1011010001
1111111011110010
1111111011011010
110100
1100101
1111110110111111
1111110110110101
1100100001
1111111001000011
1001110
1110111011
1011100
1111111011001110
100101101
1111100100110110
1111100101100100
1111111010000100
1111111110000010
1010001100
1100111001
10000010010
11111110
1111111010010111
1111110001001000
1111110110111000
10000111
1101001011
101101010
100101010
1111111111010011
10100
1111111111001110
11001100
1111111100000100
1111110101110110
1110100010
1111110100111100
10100100
1100110010
1100010
1111111100010011
1111111000001100
1111101110110110
1111110001110001
1111111011010011
100100
1010001
1111110011100101
100010111
100001000
1111111011100001
1111101001010000
1111110010000101
1111111000011010
11000010
1000010110
11111101
1111111000101001
1111111011010111
1111111101100001
1111111111111011
10100101
1111110011110110
10000110101
11010010
10111010
1010101011
1111111100100011
1111111111000011
101010000
1111101111100110
1111110001100101
1111111101111101
1111110101100001
1111111001111010
1111101000010100
1111111100001111
1111111101110000
1111110110010011
1111111001010011
1111101000101011
1111100101101101
1111111010010111
1111111110101001
1111111100011101
1111111011101101
1111111011000100
1111110111011001
1111111101000001
1011
1111110101011001
1001101000
10010011111
1011001
1110101111
1111111100111100
1100111
10010100101
1111100100
110011011
101100000
1111110011101111
1111110001100111
1111110111001000
10011000110
110110000
1111101111001111
1111111100111110
1111101001111001
1111011011100001
1111111111100110
1111111111000011
1111111011001110
1111111100010110
1111111010100101
1111111011011100
11111011
1111111110010001
1111111010010001
110001001
1101100000
11001111
1101011100
100110110
1011110010
11010110100
11001100011
1011000010
111
1111111100101111
1111110011110100
1111111000100010
101110100
1111111010010110
1111101000010110
100011111
1111110001110011
1111011000001010
1111101111100110
111010
11101111
1111111011000001
1111110110111001
1111111101010110
1111011
1111111100111000
1111111111110000
11010
1000001101
1101011010
111101010
1000011101
1000000111
10011110100
111100101
11011101
100010
1111100010110101
1111100011100001
1111110101110001
1111110001110011
1111101100001101
1111110110000011
1100110
101000010
1111101000110111
1111011010000000
1111110011000000
1111001
1111111100010101
1111110111010111
1111111000111110
1111111011101110
1111111100011010
110111010
1111111111100100
1001010100
1011001001
100000011
110010000
10101010001
111110011
1111111001101100
11001001
1111110001001100
1111100000000110
1111011100111100
1111110101100000
100101011
1111110010110101
1111101100100111
1111111001
1000010011
1111110001001110
1111011100100001
1111101011110110
1111111111111110
1111111111101101
1111110111111011
1111111101111100
1111111010110011
1111111011101000
1101001011
1111110110110100
1111111111101110
1000101001
1111111110011011
1010110111
110111111
1000101100
1111111010111111
1111110111110101
1111100101001001
1111001110101101
1111011110111111
1111111000110100
101100000
1111110100110111
1111110100001101
11100011000
1001100001
1111110001000011
1111100101111000
1111101110100111
111111
1111111100101011
1111111011100110
1111111101000011
1111111110100110
1111111110100010
111011010
1111111000101110
1111111010001001
1111111110111111
1111111111100110
111011011
1111111110010010
11110101
11010001
1111101010001001
1111101111110011
1111011000010101
1111101001110001
1111111101101110
1111101010100000
1111011100011010
1001110001
100100111101
1001011
1111110000011110
1111100001111011
1111111110000011
1111111100011001
1000100
1111110111001111
1111111111100110
1111110110110100
101111011
11101
1111111111100111
1111111110000110
1111111001101101
1001001001
10011001001
1100111100
1111110110011101
1111110111000001
1111110001010111
1111111011000011
1111110010110001
1111111100110100
101000111
1111101100011101
1111010000011101
101010111
1100001011
1111111001110000
1111111011111000
1111110001110100
11011110
1111111100101000
1111111001010000
1111111000001011
1111111010111001
1111110010010010
100011110
11100011
110101000
11000011
10101011
111110111
10100001010
10111001110
1111110100110100
1111010110011111
1111110011001010
1111111110111111
1111110101111111
1111111111110010
1101101010
10011
1111101111011011
1111110111110001
1111110111100110
10111
1111111001001101
1111111100111100
1011010110
1111111011111111
1111111010111100
1111111000101001
1111111111010001
1111110110010100
1111111111110001
1000010111
100111111
1000010110
111100011
1011111101
1111010001
11001010000
10001001100
1111111111110010
11000111
1111101110100000
111101100
10101001000
10100111110
11000001100
11010001
1111011111000111
1111110110010101
111111010
110111000
1011000010
100111100
1111111111110101
1111110110001111
1111111001001111
1111111001101000
1111111000100110
1111111110110111
1111111001001000
110101111
1011010000
100010111
1111111110110101
11111110101
101000011111
11001010010
1011011101
1111111101100011
10010000
1010111010
1111110100
11101110
1110111011
1111110111100010
1111100111101100
1111110110101001
111110011
10111111000
101010
1100101110
1111110111001100
1111111001001001
1111111011100100
1111111001110000
1111111111010000
11111101
1111111010101010
1111111110000000
1011001011
1111111110100001
1111111110001000
10111011110
11111101101
1000011001
10000111111
1011110010
1101101
1111110110110100
1111111000110100
1111111000010001
1111111010000000
1111100001111111
1111111111001011
1111110100010110
1101011
111001101
11101101
1000100000
1111111101100100
1111110000101001
1111111010111000
1111111110011011
1111111010010001
1111110111100111
1111111001010111
1111111010011010
1111111101011001
1000111
1001110111
10100000011
10001010101
11101
11000011011
1110100101
10110111
10110
1111110110101100
1111100110001011
1111101011101101
1111101011110100
1111111011001100
1111110100110110
1111111010111110
1001110110
10001101011
110110111
1111111110110010
1111110101000010
1111110001100010
1111111011101000
1111110100110001
1111111000010010
1111111001100101
1111110110101101
1111111110011001
1000011010
1000100101
1101101000
110110110
100110000
100110001000
11111111011
10011010001
10101101001
1010010011
1111110111110110
1111101011110111
1111111101010001
11011000
1111101110011010
101101001
11111000010
111010010
1111111011010110
101110111
1111110001001101
1111110111100101
10000
1111111101000101
1111111000011011
10
1111111000100011
1100100
111100010
110110011
1111111110011001
1111110101101000
101010000
101000101001
11111001011
1110000010
11101000101
1101010011
1000001111
1111111010010000
1111111111101010
110000100
1111110111111000
11110111000
10001110000
1001011100
10101000
11010011
1111111010101000
1111111010100111
111011
1111111110101111
1111111011110100
1111111111001011
10110110
1111111110000100
101101111
1100001111
110000
1111111010111001
1111110111000111
10011000110
10110000010
10001011100
11101000010
10010111001
1111010010
111000110
1001010011
1001000101
101111111
11001000001
1110110000
1101101011
11101
1111111110110111
1111111001011100
1110110
111111111
101001001
1111111110000110
1111111100010111
1111111011110010
1000111010
101010011
1000001011
1111111100010001
1111111011101100
101101000
10001001110
11001101100
111111010
11100010000
10010001000
1111111101010110
1000
10111011000
101001001
11011010100
10100110001
1101100100
11100011
1111110111100010
1111111110111111
1111111010001001
10101
111011011
110101010
1111111111111101
1010001000
1111111110100110
1111111011000101
1000110111
1111111110111110
1111111111100010
101
1001011101
11010111100
11000001100
110110100
11001011001
10110111111
11101111
10111101001
10000011100
10011111111
10001001000
1111111111000001
1111111110010101
1111111101110100
11010
1111111111100100
1111111001110111
101010000
101000111
100000110
1000000101
1111111111100010
1111110101110100
1111110101010000
100000010
1111110011011101
1111110100000110
10011101
111001010
1010110011
10011100
1010011110
10101011101
1100001101
11110001
1111011001
110110
10110011100
1111110101100011
1111110001101111
1111111111001111
110010110
1111111101101110
1111111011010110
1111111101010000
10111111
1111111011001111
1000111001
1110111010
1101001
1111101101110010
1111110010110101
1111111110100101
1111110000111100
1111110011110000
101111111
1111111100101101
1111111001011101
1111110101111101
1111111101010100
101101001
1111110100001110
1001010101
1111110011001101
1111111110010111
1110111
1111110011110000
1111110110010010
1111110011010111
10010000
1111111101110110
1111011
110011011
1111111001100110
1111111011010011
1101101110
100100110
1001001110
1111110101111010
100100
1111110110111101
1111110101011101
1111111110001110
110100010
1111111110101110
10000
1111111010001111
1111111110110010
1111110100010010
1111110101000111
1111111000000000
1111110001000100
111100001
11000101
1111111110011101
101100101
1100000
1100000011
1111111111000110
1111110111001011
1011000
1111111110101010
1011100010
1110101010
1000001011
101001011
1111110101101110
1111111101001111
1111111111111111
1111111011111110
1000011111
1101110111
10011011101
1101010100
10110101
101100000
1111100111110001
1111101110101101
1111101100111010
1111101111110111
100001011
11110100
11100110
1011000011
101100110
10111100
1111111000011100
1111110001111111
