1111111000000100
1111111010101100
1111110101010101
1111111111101110
1001111
100011
11000
1111111001001111
1111101001001011
1111100100010110
1111100001110100
1111110100111111
1111110101110010
111101111
1010011010
10001111000
1100010111
1100010000
11110001001
1110010110
10110101
1111110011111110
1111101010101101
1111100101100010
1111110010111110
1101110110
10001111101
10011000011
1111111110100001
1111110110110111
1111111011010101
1111111100000000
1111111011001010
111111
1011000
1111110000000011
1111101100100011
1111100010111111
1111100110001010
1111110110000110
1111110011011111
1111111111111100
111000101
1001001100
11100011
110010
10010101101
1001000011
1111111001001100
1111110111011010
1111101011001110
1111101011001101
1111111101001010
100010100
1100110101
10010001000
1111111010011101
1111110010110100
1111111110101110
1111111001100001
10111
110010110
1111111011011111
1111110111010101
1111100111011000
1111100100100111
1111100101100000
1111110011000100
1111110100101011
1111111000111101
1111111010100011
1000010010
1111110101000010
1111110000110010
1111111011011110
1111111111110100
1111110110100010
1111110000100010
1111101010110111
1111110100000111
1111111011111100
110000001
11001001
1011101100
1111110111010100
1111111000101011
1111111010101100
1111111101010000
1111111110000100
11101010
1111111101111010
1111110101000100
1111101101100111
1111110100000011
1111110001001100
1111101110000111
1111110100001101
1111110101101000
1111110000110011
101110010
1111100001111100
1111101100011100
1111110111011011
1101001
1111111001001010
1111100101100100
1111101111010011
1111110110000110
1111111110001001
1111111111111011
11011010
111001000
1111111000011101
1111110010000010
10011
1111111100111111
1111111100111111
11101001
1111111011001000
1111111011111000
1111110001000111
1111110001000101
1111111001111100
1111110110001000
1111111011001101
11101000
1111110010010010
1111110110000000
1111100111110010
1111111010001011
1010001101
1010100110
1111111111010111
1111101110000001
1111110010101010
1111110010001010
111
111111011
11010110
110010111
1111111011101001
1111110001010100
1111111011111101
1111111100101011
1111111010100011
110001
1100100
1111111000001001
1111110011101111
1111110000001010
1111110000011001
1111100111100001
1010101111
111
10110111
1111111001011000
1111110111101000
10000000101
11010101111
10101001100
11000010
1111110100111111
101010
1111111101100010
1111111011010101
1011011
1111111011001110
1111110101000101
10001
1111110101001010
1111111010111110
11100110
1111111100000001
1111111100010110
1111110101110100
1111111100011100
1111110110000001
1111110011001000
1111110010111101
1111111000101110
1001111100
1110100111
10101100101
10010000011
1010011101
100000110
10111001011
10110111100
1100101010
1111110001110101
10000100101
111010110
1111110110101111
1111110100011001
1111110010101111
1111110011100110
1111111010100001
1111111000101111
1111111100100100
1111111011001100
1111111101000110
1111111111110101
1111110101110011
1111111110110010
1111110101000100
1011001
1111111010111011
10011110001
11000011110
10111101001
10000011000
1111110101101000
1111110100010000
1111101011101110
1111111110100001
11011001101
1000110111
1101110
10100010011
1010101110
1111111101111001
1111110101000010
1010
1111111001100110
1111111100110110
1111111001001110
110110
100100000
1111111001101111
100100000
1111101110010000
100110010
110011101
1111011101
110001101
10011111011
100010101000
100011100111
11101100110
1111101110001011
1111111000000110
1111111110010110
10001010
1101100011
11001001100
1001101010
10001111100
11000101
101000101
10011011
100101100
1111110100110010
1111111110000110
1111110110000010
1111111110111000
1111000
1111111010111111
10111000
1111110110100011
101011011
110000000
10110010001
10001110010
11010101101
11000000101
100100101111
101010000001
10010111000
1111110011001111
1111110011000111
1111111110011111
101111010
1110011110
10111001110
10010000100
11001011011
100010110
11101001
1001110101
1111111011101000
101001110
1111111011110101
100000
1111111110101111
1111111001111001
1111111110101011
1111111010100100
1111111001111001
10010010
1111111110100101
1100010101
10101001000
100010110
1111111000100000
1100100110
1101110011
1111010110111110
1111100010111101
11100000
1111100001
1101000
100111010010
100011001011
11100101001
1011000110
101011000
1001001110
1111111011110010
11100110
1111111101010101
1111111110101101
1111110111100110
1111110110100000
1111111100110001
1111110111001011
1111111011001110
1011100101
1100110001
10100
1111111111011101
10101010
1111100010100100
1111011011100011
1111011100111000
1111010100101000
1111100111011000
1111101000111101
1111111101111111
1111111100110010
101011111011
101000101101
100101010000
111101001
1111111001010111
11110111
1111110110001001
1111111001000011
1111111111011011
1111111101111000
1111110001001011
1111110011101010
1111110001101000
1111110100100000
1111110111010010
100010100
1010001101
10000100100
1111110111110000
1111111000000110
1111110101101010
1111011100111111
1111001110001111
1111101001010101
1111101110101011
1111110101011100
1111110110001100
1111110010110101
11010010010
1110011001
10111111011
100100010
1111111111000011
111000101
1111111011010101
1111111000110000
1111110110000001
1111110010011000
1111101111111000
1111110001101010
1111101101111110
1111110100011111
1111101111011111
1111111100110100
10100011010
10100000100
100101010
1111101000101001
1111110110000011
1111111000000100
1111010010000001
1111101110110101
111101101
1111111001011110
1111110100000111
1111101110100101
1111110111111110
11101001
1111001111
10010111101
1100100001
1101101011
101110
1111110001011111
1111110010011010
1111110101001100
1111101111101100
1111110100100110
1111101111010101
1111111001011011
1111110111111010
101100011
10011010101
11111100
1111110110110000
1111100100110000
1111101011001110
1111111010010001
1111110001111111
10011010
111001100
1100100101
1111110101000100
1111110011100000
1111101101010001
1111110100010111
1111101110
100011100110
1010100000
1110101
1001001110
1111110011000100
1111110000011111
1111111000010101
1111110010011100
1111110011101101
1111110100100101
1111111101010011
1111110101000101
1101010001
10000010101
1000111010
1111111001110100
1111100000000101
1111101011100111
1111110110110111
1111110010011100
1111111111110101
1001111001
111101100
1111111111000010
1111111100010010
1111101101001110
11
10100010010
100001110011
111100000
1011010011
1111111110000111
1111101101000001
1111110001010111
1111110000100110
1111110011000010
1111111001111111
1111110111010101
1111111100110101
1111111001010000
1000110101
1100011001
1001110010
1111110010010011
1111100011111100
1111111101111111
1111101111110100
1111101100001011
1000001011
11001101111
1111111010110001
1111111011111001
1111111100111110
1111110001100010
1010011101
100001011110
11001100000
111110111
11010101
1111111100101101
1111110000000100
1111110011000101
1111111000001110
1111111000100100
1111111101110011
1111110111011011
1111111101101101
111001
110010111
1101110101
1111101
1111111110011110
1111101001010111
1111101101100101
1111101110010000
1111100011111100
1111111100100101
1000101001
1111110001011010
1111111100011000
1111110111001001
100101000
1000101111
11011000110
10001110110
10010011010
10101010
10100000
1111101110001001
1111110101100011
1111110011110110
1111110111010111
1111111111110001
101110
111100111
110000111
1001110100
1110100100
110011100
1111110011010010
1111110110010000
1111110100100111
1111111101100010
1111111000011011
10110101
1111111111100000
1111100100011101
1111101100101100
1111101000000110
1000011101
101111101
1011000111
1010111001
10010100001
110111110
1010000101
1111110011100000
1111111111110101
1111111111000111
101101010
1000100101
1010011010
1000111010
1001001010
1011010110
1010100101
101001100
1111101101111111
1111110010111001
11000001
11100011
1101110
1101001000
10101101
1111101110010100
1111100101100101
1111110111100100
101000011
1100010101
1101110011
1100000100
1011001101
101011000
1110101000
1111111110111110
11100100
11001
111110000
1110010010
10011001
111111101
1001101101
1110010101
1011100011
10000011
11000
1111111011000001
1111111101010000
10110000
110001010
11100010011
10101010001
1111111001111011
1111110010101000
1111111010110001
1000111011
10001110010
100101
10100110010
1111111010
111010010
1010101000
1111111111011110
101110001
11010010
1111001101
101101101
1101110111
1110001010
10001100000
1100110111
1000000101
101000101
100001110
110010110
100111011
1101000110
10001100101
100011010100
10110100111
1000001100
1111110111110111
1011011011
10000110111
111110011
10010101
110010110
10001010
10010101
1011001011
10011000
10000001111
10000010110
1110010000
1001110100
1110010100
1111110100
10111010010
1111011100
1010101010
1100011110
10011011011
1111001001
1100001000
1101001010
1001101001
10110110101
10000110110
1111111111111101
1001010111
10101000100
1001000010
1111111110011001
1111111110100011
1111111100101001
110011001
1000001001
1010110111
11
110001111
1100011110
10111010111
1001000010
10100111
101111101
111001001
1110100110
1111101111
10001010001
1011010100
10100010001
1010001000
11111001
1010010110
11001000101
1111111101001000
1111110101001010
111110001
11000101
100111
1111111100000100
1111111100110001
1111111000111001
11011001
110110111
1101110110
1010010111
1100101100
1110100111
111000011
10100101
1111110100011011
1111111101011101
1111110011111101
11110101
1100010001
1000001000
101111010
110110111
1111110100011111
1111101001010001
1010000010
111101011
1111101001111000
1111110111101111
1111110010001011
1111101100111110
111001101
1111110010111011
1111101111011011
1111101011010010
1111111100001011
1101000100
10101100000
1100100010
1001001110
111100111
1110111
1111111011010001
1111111010111010
1111110101011110
1111101110001000
1111111010000011
111000
1101110
1100010101
1111111110011000
1111100101100101
1111100010011110
1111111001111101
1111110000010101
1111100100001001
1111101111010000
1111100100101111
1111110011110110
1101
1111101101100011
1111100110100111
1111100010010111
1111110010010000
1111111101101011
1111111100010011
1010000101
111100110
1111111101110001
1111111000000110
1111111000110100
1111110010010010
1111110010010101
1111111001101111
1111111010011011
1111111111001111
101000001
1010000111
1111111100011100
1111101100110110
1111100101110101
1111111101001100
1111101000001111
1111100111111101
1111100111101100
1111110011100011
10110001110
111010101
1111111011010011
1111101100010001
1111101110000000
1111111100011010
1111110010010101
1111110111011110
1000110001
10011010110
1011001011
10101001
1111111011110000
1111111010000010
1111111010010111
101010001
1111111011010010
1111111001101000
111100000
1100100010
10000000
1111111010000101
1111111100011111
1111111100011000
1111100010110001
1111011110110011
1111100101111011
1111110000101000
1111111011111010
1111111010110100
1111110010010010
1111101101001001
1111100010110011
1111100011100100
1111101000110011
1111100011011100
