1111111111100100
1100101
1111111111110111
1100
1101110
110100
1111111010101010
1011100
110011011
1010101001
1000001110
110111010
1010100
1111110011011011
1111111000011101
1011111001
110011101
10010010
1111101110000000
1111100010110110
1111100000111111
1111100101010100
1111110111100001
10001011
1010111101
10110000
1110011010
10100001101
1111111011111011
1111111110000110
1111111110101001
1111111110111001
111100
1111111100000101
1111111011111001
1111111001100001
11110110
1001011110
10110010
100000001
1111111111101100
1111111001100111
1111110011011011
101111110
10001100010
1111111001110111
1111101101100010
1111100010100011
1111011010100110
1111100100000100
1111110101000110
1111111101001010
11101011
11000101
110111111
10000100011
1111110111001100
1111111010000000
1111111110100011
1111111001011110
1111111110110101
1111111100110111
1111111110111101
1111110111100010
101111
1011101010
11100110
1111111010100101
10110010
1111111101110101
1111111011101101
101000010
10001110011
101010000
1111100110001011
1111101001110010
1111101001001101
1111110110110010
1111110010100010
1111110101100111
1111111111000101
1111111100101110
100101111
10001001011
1111111001111111
1111111110011111
1111111111110100
1111111001101011
1111111010101000
1111111100010101
1111111111110000
1001001
10110000
1111110000
110010010
101011
1111110000101111
1111110010101000
1001110011
1110110000
10111100010
1101100000
1111111110000110
1111111001111011
1111101100110001
1111111011010110
1111111110010101
1111111000010011
1001010
100000111
1111111101100100
1111110100
1111111001101001
1111111001011010
1111111111110101
1111111001111001
1111111110010101
1111110101011110
110011110
1111111111111001
1111111000111000
1100010101
100100001
1111111000000011
1111101000111100
1111110001010101
1111111010101111
100011010
1110010110
10111101010
100010000110
10110100111
1001000101
101011011
1111111100101001
1111111100101110
1111111111101101
1111111111011111
10010110
100001001
1111111011101010
1111111010011100
1111111001101010
1111111101101111
1111111010111001
1111111100110010
1111100
100000000
1111111101011101
101001111
111001000
1111101101110111
1111100111101101
1111110100101110
11100000
1010010
10011000101
10111010100
10000110100
11000100001
11110001010
1101100001
1111011
1111111100101011
1111110101111101
1010001
11111111
10101001
1111111101101010
1111110111000001
1111111101010000
1111111111100111
1111110111011000
1111110101001100
100101100
1111111101111000
1111111101101010
110111101
1111110101010101
1111110011110100
1111110011010010
1111111000100100
110111010
110110100
1110111000
1100110000
10101110
1101011011
11000110100
100100
11101
1111111110010001
1111101110111110
1111111000101000
1111111100110010
1111111111011000
1111111110101111
1111111010101111
1
1111111110111110
1111110110001001
1111111011010111
1111110101111010
10100000
1000001
1111111101000001
1111101010111011
11010001
10011011111
10111110001
1111001000
1111101001
1010110011
101101100
1111111110001001
10110101110
11010000111
1111110111010001
1010
11101000
1111110011111111
1111111101011010
1111111001110010
1111111111001100
110101
1111111000110001
11110000
100010011
1111111001000000
1111111000110011
1111101111110000
1111111001000001
1111110001110101
1111110101010001
1111111001101110
111110010
1000101001
11110011001
11001001001
111000000
10100011011
10010001001
1000011
101001110
1000001110
1111111001111101
1111111110101001
1111111001100111
1111101011000000
1111110100001010
1111110101001111
10101001
10111100
1111111111100110
1111111010101110
10010
1111111001101110
1111111000101011
1111111000110111
1111110010001101
1111100111010111
1111110001010110
1111110110000011
100101010
1111111111110010
10010111100
1001011111
1111100001
1111111100101001
1111110011111011
1111110101100111
1111111010011111
1111111010000100
1111110011001011
1111111000101100
1111111000001011
1111100111011011
1111100110111010
1111101101011111
1111111101110101
1111111101001111
1111111110001011
1111111011111110
11100010
1111110111101110
1111111111111101
11110110
1111110110110101
1111110010110010
1111100011111110
1111110111111110
1111110100001101
1100101111
1011011110
1011111111
1001100111
10000110
1111111000000111
1111110110010101
1111111100001010
1000101001
100001110
1111110000000000
1111111010101100
1111101111101010
1111101011111011
1111110011101110
1111111010111101
10001110
1111111011001000
100101111
10100101
1111111100011110
100110000
100001111
11111000
1111110000000110
1111100110010000
1111101001100110
1111110111010100
10001
1111111111101100
1000100010
1111110100011001
10010011
1111111001110101
110110110
1111111110001010
1111101000000010
110110011
110001000
1111110011100101
1111110010111101
1111110000100011
1111110001011011
1111111110011101
1111111110011100
1111111001011100
101111101
1111111111000010
1111110111010001
1111111011100101
1111
1011001001
1111101111111010
1111011111111011
1111101010000001
1111111001111000
1111111000010011
11100010
1111111111000000
1111111100010010
1111111011001011
1111100011101000
101001001
1111111001101010
1111101101111011
1111111000011100
100100000
1111110111010111
1111111100110000
1111110100001001
1111111100001110
1111111111001000
101111001
110010110
111101011
10001101
10011000
1111111110010011
1111111110001100
101010110
111001100
1111111010011010
1111111010111001
1111111100011110
1111110111000110
111011010
1111111101100111
1111110110001110
1111110101011010
1111111111101000
100110001
11011
1111110100011011
1111111111101100
11011101
1111111110101100
111100010
10010101
110111101
1111111000011010
100101101
101111110
101111110
1111111110101010
10110100
1000100
1111111111000000
11011111
1110101100
11100001
1111110110000000
1111111001010100
1001111101
1111111010010111
1111111100100010
1111111000000100
1111110010100110
1111111001011111
1111111001111011
1110001110
1110000000
1111100
10010110
1111111101000110
11011010
110001101
1010011100
1111111100011010
100010
1101101
1111111111011110
111000000
1010111000
11101100
1010110
1000011100
110100000
1111111010101101
1111110110001001
1111111001101010
110111
1011100010
1111110110001110
1111101011110011
1111110001010110
1111110001001000
1111111010101110
10110110110
10001001010
1111110010101000
1111111100001010
1111110000110111
1100001
111101010
1000000100
101010110
101100110
111110101
1111111101010100
100111111
101100101
1010100
11100101
1101100100
10011110
1111110111100010
1011110001
1111111101000000
1111111100111101
1101100111
1111111000110100
1111101011100110
1111100110000011
1111110100000101
101000110
110011010010
100100011000
1000110110
100101011
10101011
110110001
1111111011000101
111000001
1111111001111111
10111001
1111111111001011
101001100
11011111
111000011
100001111
1001110101
1100000100
1111110110110111
0
1010110111
1111111111011100
1111111000010010
1111110100111110
1111110101111111
1111110110011001
1111100010001001
1111111000001110
1011000101
10101001001
10011000001
10011101001
1111111100011111
110110010
1111111101111110
1101000
111101011
1111110010100111
1111111010111110
11000
1011001
101001011
11111100
101001110
100100011
1111111101011010
1111111100111011
100111111
1101010100
110101100
1111111001100001
1111100010001111
1111100100100101
1111100100100111
1111100100110101
1111110101001010
1111001
100111100
1011011101
10001000100
1010111110
1111111100111011
1111110111000101
110111110
1111111111100111
1111111101001100
1111111011110111
1111111111011111
1111111011110111
100001011
1111111100001010
10111000
11001
1111111000100110
101000111
101100000
101011101
1000000100
1111111000001100
1111110101110100
1111101000110001
1111101011011101
1111110101000101
1111110011101000
101000010
1101100010
1011000
1010100111
1001111000
1111111011011010
1111110110001000
10110100
1101000110
1111111011101100
1111110111000110
1111111010001000
1111111111010110
11101001
1111111011111111
1111111011010010
1111001
1111111001100110
101001101
101011
101101010
10010111
111100111
1111111011101110
1111110011101110
1111101111111101
1111101110100111
1111100010010011
1111111100000010
1111111100100101
1000011011
1000001101
1000011101
100110
1111111111000100
1010110000
101001001
1111111100101100
1111110101000110
1111111111100111
1111111010101110
1111111011010101
101011011
1000100010
1000011100
1111111011111010
11100000
1110000001
110101100
1111110101000000
1111111001101010
1111111001101011
1111101000100111
1111110110110001
1111101100000001
1111101001010110
1111111001100001
1111111010000010
11011000
1010100110
110011111
1011010010
1000001110
1101000111
1001110
1111111001010000
1111111011101010
10011001
101100000
1111111011100000
1111111011100110
1011001
10010001
1111111100011101
11001100
1011111000
11111011
1111110111000111
100100111
1111110111101101
1111111000110001
1111110010100111
1111111000111101
1111101111011110
1111110000111010
1111110000101111
101
101011101
101101110
110000000
1100110101
1111
1111110111110000
1111111000110110
1111111011111001
101111111
110011101
10
1111111110100101
10010110
1101010110
1111111101011110
1111100
1011011001
1011011100
1111111100110001
1000101001
1111111000010101
10110010
1111111011111000
1111110011000011
1111111101010000
1111110110000100
1111110101111100
1111111010010010
1111111100111011
111001000
10000010111
1111111111110001
1111111100001100
1111111100101001
1111111011011010
100110001
1100011011
1111111111011011
1111111100010000
1111110101111001
1111111100101011
100110
1111111000101011
110010110
1101000111
1001110000
11000111
100110010
1111111111011011
1111111110001010
1111111111110110
1111111010100101
1111111001011101
1111111010000101
1111110000001101
1111110111000101
1111110101110000
10011111
111100010
110101
1111110111111000
1111110101101111
1111110101001111
1010101000
1100110101
1111111110011110
1100100111
1010101010
10101
110000110
1111110111000111
1111010011
10000110111
110110
1001100111
11111110
11101010
110011
1111111100100001
1111110101110010
1110
1111110111100001
1111111000001011
1111111101010100
10101110
1100011111
110101000
11100110
1111111100100010
1111111100110101
1111111011110110
1001011
100011101
1111111111010011
1000010010
1010000001
110001110
1111110101011100
1111111001110001
1110100100
111100100
1111111110001001
1111111110110001
1111111101101101
11101101
1111110101001101
1111111000111010
1111111111011101
111001011
10000110100
1101000100
10110111
1001101101
10001000111
10101
111011011
10001100
10011011
1111001
110101101
1111111100110011
1000001
1100001011
110111
1111111010111000
1111110110111101
1111110111110110
100001111
1111111111111011
11000011
1111001101
10100000101
110101011
1111111100110000
110110001
101111110
10111101000
100000100010
1111111111011111
110110000
110100011
1111111100101110
10000001
110010100
11000111
1010000
110001000
