1111111100011111
1111111010110100
1111111010101010
1111111011000110
1111110111011101
1111111110010000
1111111111011100
1111111001100010
1111111000010100
1111101110011000
1111110001110100
1111111100101000
10110
1010000100
1001010101
1111111101111111
1111110101101011
1111111100111101
1111111110101011
10001001111
10001000111
1011110101
11101011
1111111011110010
1111110110000100
1111101110100001
1111101011100100
1111011010010110
1111111111000000
1111111111111100
1111111111110011
11001001
1111111011101011
1111111100011100
100111100
1111111010101101
1111110101010001
1111101111001110
1111110011100010
1111110101000100
1111111010000001
10010001
1110001001
1111110111011110
1111101010111100
1111111111011010
1010
1001011011
1010001001
1010000110
110100011
1111111111110101
1111111101100111
1111101110100010
1111101101010001
1111100111100000
110100011
11001101
1111111111010011
10100100
1111111101010111
11111010
1111111011001101
1101110
1111111000110110
1111101010100000
1111111000110100
1111110111101000
1111111001001111
111010011
10001111
1111111000111001
1111100011000010
1111111010011101
110011010
1101011111
1011011011
110110000
1011000110
1001000110
1111111000001010
1111110001001011
1111101011010111
1111101011011000
1000011000
1111111100111100
10101110
1110001
1111111101111001
10010111
1111110110001010
1111111001100101
1111110010111011
1111100011110110
1111101001011011
1010101
1111111111100101
10110100
1111111110000110
1111110010000101
1111101010100001
1111110010100110
1111110101111111
11011110
1110010010
101110
1000100011
1010100011
1111111001100111
1111111010111010
1111110011000101
1111100011111000
1010011000
111010011
110001001
1111111011100000
101
1111111111111011
1111111010110010
1111111011111110
1111110110000101
1111100011111000
1111101101101001
111
111011111
1010110000
1111111110010101
1111110001000010
1111101111111101
1111101011110101
1111011101001100
1111101100001100
1111111101011010
100111
111000010
110110111
11100010
1111111110110011
1111110100001101
1111110100110110
111000000
111011010
10000111
1111111110000100
100110110
10100100
1111110101011010
11001
1111110100100101
1111011111100100
1111110100001110
110100000
1001000110
1100110011
1111111111000000
1111110110011100
1111110110010101
1111101011010011
1111110011110110
1111110001000110
1111110000011110
1111111100100011
1111111100111011
1111111100110110
1111101101
10110001
1111101100111000
1111110011111010
100100101
111001110
1111111111111101
1111111100110100
110001
1111111111100000
1111111100101011
1111111000110100
1111101101101011
1111100000001110
1001101
1111111100101110
110101100
1000101100
1111111110011011
1111111011011100
1111111100101101
1111101101010011
1111110110000111
1111111010101100
1111110101110101
1111111100011100
1111111100100100
1001000
1001011110
100000101
1111110010100010
1111110101010110
10110010
100100101
1111111111000001
1111111111000011
11001001
100011110
100100101
1111111000111000
1111111100011101
1111111001100110
1111111110110110
1111101111111110
1111101001010001
1111101100100001
1111101011000101
1111101110111010
1111110111100001
1111111110000000
1111111010100111
1111110001001010
1111101000101100
10100
1111111111100101
1111110110100100
101001011
1111111101111110
1111110110100111
1111101111100101
1000111011
1001001011
10011000
1001001
10110111
100010010
101101
1111111111000110
1000100
100000011
1111111100001011
1111101101000011
1111101100010100
1111100000110001
1111100110011001
1111110001101111
1111110011011010
1111110100111101
101110011
1111111111010101
110010000
1101010010
10100101
11101110
10001011111
11101101
1111111100000001
1111110101100011
111100111
11001101
10001000
1111111010100100
10000010
1111111101111001
1111111001101100
1001000100
1100010001
1001110010
1111111110001011
1111110000001101
1111111001101011
1111101101010001
1111110110110101
1111111001111011
1001101101
1001100000
1101011111
10000011110
1101111001
1110010010
1010011111
101101110
1010010111
10101010
111000111
1111111110010010
110101011
110100110
1111111001101011
1111111001011110
10010100
100110110
1111110110010110
1111111011010100
11100001
11001101011
1000010011
1111111001000000
1111111101010001
1111111010011100
1111111011110110
101101000
1001010101
1111111100111011
1101010111
11111001
1111111111110011
100111100
1101111010
1011010111
111010001
1000011001
101010000
1111111001000101
1111111101011100
1111111111111011
1111111101100111
1111111111101110
1111111110010001
1111111011111100
1111111000101100
1111110101110000
10000111
11000100111
11010101000
1011110011
1111111110110101
1111111000110101
1111111010000110
111000010
11010
1111110111100000
1111111001110000
1111111110100100
1010001111
1111110101111011
1111110001010110
1111111111110100
1111111011110110
1111110111000000
1111111011000100
1111111011100000
1111111110000010
1111111111000101
11100
1111111100001110
1111110111100001
1111111010110110
11100
1100000
10001010101
10101100001
10001011000
10001101000
10010001100
1111111100111100
1111111011100100
1111111001100001
1111111111110101
10001100001
1111111100101011
100010100
1111010110
1111110111100110
1111110010010001
1111111000101101
1111101110011011
1111111011101110
1111111110111011
11101110
1111111101101010
1111110111110111
1111110111001011
1111111101110101
1111111010011100
1111111101010100
100010101
1111111110000000
10000010
10000101
1111111100101111
1111111110111110
100110
1111110101101010
1111111000101011
1111111010110001
111010011
1001010111
1110100010
1101101
10111101
1111101001100000
1111101010101010
1111101101111110
1111101100100001
1111110100100000
1111110000110010
101110110
1111110001110010
1111111100111001
1111111011010010
1111111001111100
1111110110001100
1111111011001001
1111111000011100
1111111010000101
1111111110110111
1111111011010110
1101001
1111110111111100
1111101101111101
1111111101100111
101001001
110111101
10100000011
11000001111
1111111001
1111111011000100
1111110000010101
1111110000010100
1111101101100110
1111101100001111
1111100111001001
1111101101111001
1111110100110000
1010011
1111111010010011
1111111001111110
1111111010110010
1111111010111010
1111111100111111
1111111000101000
1111111110001000
1111110010010101
1111111100100111
10110111
1111110111001001
1111110000110101
1111100010111111
1111110011000001
1000000110
11101100100
10111111000
11100100100
10001010011
1111101010101101
1111100100110011
1111111111100110
1111110100001011
1111110100110100
1111101111110101
1111110100011001
1111111110101011
1110100
1111111110010110
1111110110011001
1111111010101001
1111111101110111
1111111110000101
1111111110000001
1111111110001100
1111110101101100
1111111010111000
1111111111100110
1111110101001110
1111101100010111
1111110001100000
1111101111001111
111010001
10111100111
11010110111
1101101111
101000
1111011001100011
1111011011001001
1111110111001111
1111110010110110
1111101010110001
1111100110011000
10111011
1101100
10100000111
1111111100001001
1111110111110010
1111111001110101
1111111011100100
1111111010100110
1111111011001101
1111110011101000
1111110111100001
10100100
110110001
1111110101100110
1111111000000111
1111110100010101
1111111010011111
1101001010
10110101010
11111111011
1101100100
1111111100011101
1111101111100101
1111101111011001
1111110100110010
10001
1111110000001000
1111111110011101
1000000001
1100010101
11101011001
1111101
1111111101010100
100011101
1111111011001010
1111110111110010
1111111111110111
1001001
10101011
1111111111100000
101110011
1111111110010100
1111111001101001
1101000011
11000110001
11101010001
11101001111
11001100111
1011111111
1001111110
1011011
1111111011101101
1111110011011010
1111111000111001
110101110
1101010110
1011101101
1110010101
1100111110
1011001100
1000000000
1000110101
110001111
1000101001
101011100
111110100
1110100001
100101010
10000011
1111111111000010
1010001111
1100010010
10011100011
10011000010
10010001000
1111111010100100
1111111111111111
1111111011011111
1111111111011111
1111111011100011
1111111011011000
1111111100001001
1011001011
10001000110
1101011001
1001111100
1100010101
1100100101
11111100
1010011010
101111101
1010110110
101001000
110110001
10010101101
1110001111
1101001010
1000001100
10101100101
1011110000
110010010
110010101
1111001
100011010
1101011100
1011101
1111111010101010
1111111100100110
1111110100110101
1111110111111111
110011
1110011100
1111101000
101100101
1000011111
1001001100
110000111
101100100
110010100
100010000
111100110
111001111
1101101011
101101010
1001010110
10011010110
100100100100
100000001000
10101010111
1010001001
111111100
1010110010
1100000111
1111111111011000
100010001
1111111101011011
1111111101111111
1111111100001011
1111111111000111
1010000101
101000011
10010000010
10101100001
100111000
1111111100010010
1110011
1010001111
10000011111
1100000000
1100101100
10011010111
110111110
111011001
10011101111
11100110111
1111100100
1001110011
10001011010
1110101100
101010101
11010010
1100011000
10000110000
1111111111010000
10111011
111010
11111111
1011010100
10100010011
10011010000
11000101101
1110010010
101100000
110010000
1010110110
1100011101
110011000
1010110100
1010011010
111000001
1000001100
1111011100
10100110110
1100000011
110001101
1111111110110100
101011101
1010110
1111111100001101
101101010
10000100010
1110010110
111001101
100001001
1001100111
11001110111
11010010001
10101001100
10101110110
110100110
1010011010
1010011110
1100000010
1010100000
1000111000
1111111111000000
11000110
1110011
110010011
1010101101
1011000000
1110111
1111111101010100
1111111101011001
111001
1010000
1010000
101100100
10110101010
10110100001
11011011110
10001110100
10000111001
10000110100
10100100100
11100011011
11001100110
100000111
101011010
110000111
1111111010110010
1111111011001111
11101
1111111100101011
1111111111101100
1111111011001011
1111111110001000
10010011010
11001101
1000010010
1111111011001001
1111111011010111
1111111111001000
10010000010
111000111
1100111001
11001011011
10111001110
10001111110
1001011000
1100010100
11011001010
10101100011
10100100100
11001100000
1000100100
101101011
11100111
1111110111010010
1111110101001011
1111111011111101
1111111111001110
1111111001001100
1111111101011011
1100001
1110101001
1010111101
101001100
100010001
101110101
1111110101
111100101
1100110001
1011001
1011011110
1100010110
1101101001
1011110001
10001111111
10010110011
1011101111
1010101111
1111111011
111010100
11000001
1111111100011000
1111110011010000
1111111011111001
111101
10111100
1111111111111101
1111111011110111
1001001010
1111111101010000
1111110000111110
1111101110111101
1111111011011001
1011010001
1111111110000010
101010110
101000001
1111111011011011
10011110101
1001011011
10010100111
10110010011
1101010110
1010110100
10000110111
1110000000
1111111101101001
