101110101
1000010001
1011100010
1011000110
1100001010
100000011
111100111
1111000100
10111100010
11011011010
10001000100
1110111110
1100111101
111111010
100110000
1111101001000110
1111110100000001
1111110110110110
1111110100010011
10111100
1001110101
10010001011
1110010111
10011101000
10100011
1111100100100111
1111100000101100
1111011101111100
1100110011
1000010010
1011001000
1100100000
110111110
1101100
111011111
1110010100
11000100011
11000000110
10111110100
10001111110
10011000000
100110101
1001111011
1111110101110101
1111111100000011
10010001
1111111101001110
101010000
1010101110
111010001
1111101101
10000011110
1111111100000011
1111110101100000
1111101101101101
1111101000101011
1111011010
10000001101
1101000111
1010100010
1010011011
11101010
111000111
10000011101
10111000000
1110101101
10100101110
10010100111
1101100011
1000101011
110111000
1111111001110110
1100001
101011000
10100010000
101110001
1100011110
1010000011
10110000010
1110011011
1111111111001001
1111111100101010
1111110111000111
1111101111001010
1011111111
1111000010
1011000101
100110011
101000000
110001001
10010100
10000100011
1100110111
11000110
111010110
10010001111
1111000000
11010101101
10110101001
1111110010111011
1011100110
100101001
1100111
111111
1011000001
10001011011
10100100011
1001110111
1111111011000101
1111110110111101
1111111001011010
1111101101110000
1010111101
1001100101
110110111
1001000111
1000010110
1010100111
1111111011010011
110010001
1100110001
110100001
110000010
10011011000
1001010000
1001011000
10110111001
1011000011
1000001001
1111110100111110
1111100100111011
1111101011001110
1101110
1110001011
10001111111
111100000
11110
1111111011110101
1110100
1111111110111100
1011101000
1100111111
1111001100
1000100101
110110001
10000110010
1111111111100001
1001111010
1000000111
1101001111
111101111
10110110000
110011100
1010100100
1111111100000000
11101001
1111111111110111
1111101110110110
1111101011001100
1111100010001110
1111110101100010
1000000110
1111111111100100
1001101001
101110100
1111111111111011
1010010
1101011010
1101110110
1010110001
11011110
1000011110
111000000
1100100111
101101110
110111001
1000010100
1011010100
1110001000
1111101001
111011111
11001011
1111101110111111
1111110011100110
1111110111110110
1111101111101010
1111110001100100
1111101000001111
1111101101111011
11000100
1111101100110101
1111111011111100
10111001010
100001001
110010100
10001111001
110001011
1111100000
1100100011
101101101
1110011001
111111100
10100110101
1111111101111100
1001001001
1000100
101001001
1111110001110010
1111100100100001
1111100000101000
1111101010111100
1111111100101110
10110
1101100011
1111111110101111
1111100011101101
1111100011101001
1111111111010000
1111101100111000
1111110100111001
10011001111
1001111001
110111111
101001001
11100000
1111010110
1100011101
10101001
111110110
1010001000
1111000001
10111
1111111110000001
1111110010001010
1111111110000000
1111110001110000
1111011010000001
1111000101011100
1111011000011010
1111111111010000
1111110010001000
1111110111101000
11000000
1111101010011111
1111100110111101
1111111001100111
1111101111111011
1111111111001000
1001111111
1100111010
10100111
1001100000
101010101
111110011
10001
1111111111110010
11000111
110100010
101001100
1111111111111000
1111111101101001
1111101101001001
1111110011010101
1111100011111110
1111011111001101
1111010010111011
1111001111101100
1111100101010011
1110111011
10111101111
101100110
1111111011001110
1111110010110011
1111110010110101
1111101100011110
1111101110011001
1010110011
1010011001
101100100
10110010
11110001
1110001100
1111111110101010
11000100
1001000011
1111
10100101
1111111101000001
1111111101100001
100
1111111000111100
1111100010100100
1111101101010010
1111111000010000
1111100101101101
1111101110011111
100010100001
100011010011
1011010000
1111111010101101
10110
1111100101010010
1111101010111001
1111101010110111
11001000
1100011000
101101100
1010101111
100111111
1010111011
100101010
111000
110000110
1111111101110100
1111111101011111
1111111000111010
1111111010010110
1111111111011010
10100010
1111110101000010
1111101111110101
1111001011
11010111111
100111001111
101010110000
101000011001
11010000001
1101011
10100011111
1111100011000000
1111011110001000
1111101000111101
1000011111
10110111010
1110111101
111011111
1011111
1011001110
10001
1010111110
101011010
111100010
110110010
101
101010011
110000010
1111110111100000
1111111110110111
1111011
1111111111110011
100111111110
110111001000
100000110001
100011110011
10101001111
10001010100
100111100111
1111110011010100
1111101100111100
1111110100110110
1010001100
1101100101
11000011
110001010
1100001101
111111111
1000100011
1111011101
10110110
1000010111
11110011
10111101
1111111101101111
1111110001011011
1111100111000111
1111111111001101
10010011111
100111110
1010010111
110011001000
11111001010
110000
100010000
10011000011
100111110110
1001011100
1011
1111111111010010
1111110110000010
1111111001101010
1111110001101001
1011111
1001110100
10100101
1010110111
1001001110
1111111101110011
101100101
11110001
1111111010101101
1111101111100001
1111101101101111
1111110100111100
11111011
10010110001
11111000001
10000011011
11000000001
10001101000
101100001
1111111010010101
101000100
10000010001
10100110110
10001010011
111100
1111101001111111
1111111001011000
1111110000101000
1111110101111011
1001011110
1001010010
10101
111111111
11100
11111
1111111010000010
1111110111010110
1111110011001000
1111110011100011
1111111100110011
110001101
10100111001
1011100100
1011010000
11001001000
101000111
1111110001010010
1111110101010000
1111101011101001
1111111011111111
100101100011
10110001001
1111110110010000
1111100001011101
1111101111011111
1111110000101010
1111111000100101
1100011011
1001011000
101111000
111000010
1111111010011011
1111111011111000
1111111000010011
1111110110011010
1111110110101011
1111110110111110
1111111000111011
1111111101011010
1100011011
1111110101010110
1001100010
11000101010
1111111100111110
1111100111000111
1111111110100000
1111100111101000
1111110011001001
10100101111
1010100
1111100000111111
1111100101000000
1111110101110101
1111110101110000
101100100
1111001000
1101101
110000011
110111010
11100
1111111010010110
1111111000110111
1111110111001110
1101
1111110010010110
1111111010110000
1111111011001000
1010000110
100110111
1111111111
11000100111
1001100011
1111111100110100
1000101101
1111111010000101
1110010011
1111111111010110
1111111011111010
1111101001001101
1111101100010001
1111101011110010
1111110111110100
11100110
1010010111
1001110
111100100
11101000
1111111011010001
1111111101010110
1111111011001100
1111110111001011
1111110001000100
1111110000011101
1111111000110000
10011011
1001010010
10000101110
1111001000
101111000
1101101101
1110101110
100100110100
11101101110
10110110101
1111111100000000
1111111111000100
1111110011111101
1111110110000110
1111101100010101
1111110010110111
1111110101010110
11101101
1111111111100110
1101100
1111111001110100
100100
1111110110111101
1111110101111000
1111110000110011
1111110010000001
1111110010001011
1111110011110010
111001110
1101000101
1111111110101100
1111111111111011
1111111111100000
1111111100100010
1001111101
11000001001
10110010100
1010000011
1111111100111011
1111110001010111
1111110000010100
1111101001011110
1111101111110001
1111111000011101
1111110000001010
11100111
1111110100111100
1111111110010100
1111110100000001
1111111010100110
1111110111001011
1111110011001011
1111110110011111
1111110101010101
1111110010011010
1111111001001100
1111111100000001
1111111101001011
1111111011110000
1111111011110100
1111111100000000
1111101101100000
1111111011110111
110101001
10010001001
10011111
1111101111011101
1111101000010000
1111110011000101
1111100101001101
1111101001010011
1111111001011000
1111101101100101
101010
1111110101101010
1111111001000111
1111101111110010
1111110010000111
1111110001101111
1111101110111110
1111101111111000
1111101111000001
1111110010000110
1111111000010100
1111111000011000
1111111111001000
1111111101001001
1111110110001010
1111111001001101
1111110001111100
1110
10010
10010101100
1111110110010010
1111101010101101
1111101100111000
1111101101101000
1111101011011100
1111110100011010
1111111100000000
1111110111111010
1111111101100110
1111101011001101
1111100111101001
1111101110111111
1111110011010010
1111101101111111
1111101011011001
1111101011101000
1111101011100101
1111110000110001
1111101101011010
1111110100000101
1111110101010110
1111111101001110
1111110111010111
11101
1111111000101100
111011
1001100100
110001011
1111100100111111
1111101000100111
1111110001101101
1111110000010111
1111110011011100
1111110110100010
1111110111000111
1111110011011101
1111110010000011
1111101000000010
1111100100000110
1111100110100100
1111110001111011
1111111010010111
1111110110001111
111001
1111111100100000
1111101110001000
1111111011001011
1111111111101001
1111110001010000
1111111100110111
1111111111110011
1111111100110100
1111110111010100
1111010
1100011001
1111101001100111
1111110001101011
1111111001011001
1111110001000100
1111111010001100
1111111010001110
1001011
1111111100110000
1111101110101110
1111110000110100
1111100101101110
1111110010110011
1111101110101011
1111110110011011
1001101111
10000110
1110101011
10111110
1111111011000000
10001
10101010
1111111100010011
10111000010
11000001001
110000010
1111111010101101
10000111
11010011
10101101
100101110
1111111100000001
111101110
1010010001
10101100110
1101110101
10101100
1111110000000110
1111101100100010
1111101000110111
1111110011000100
1111110101111101
1111110110001100
1111111111100000
110111011
10100000000
1111111111011001
1111111011011011
1111111101011011
1111111100110101
11001001
11001110100
11010011100
1111111111100101
1101010100
1001101000
100101110
10000011010
10110000
1111111111000011
1100001000
10011101101
10110011000
1001110011
111001001
1111111101000001
1111101110101110
1111110101101010
1111110001110110
1111111100010000
1001010
100101001
10001101100
10001110110
1001011101
11001011
1111111110110011
1111110101001111
1111111111100100
111111100
1111110010
10110101
1010110010
1001001
1111111011110000
101001100
1111101110001110
1111110100110101
1111111010100101
111100101
110110101
1111111111000001
10001100
1001110101
1111110000010110
1111110001001001
1111110010110110
1111111011100111
110010000
1011100110
1010000000
1100001001
101011001
110110000
1111110001111111
1111101011010001
1111101000110000
1111111001011110
1111111110000100
1111110001000101
10011011
1111111111101000
1010011
1000111111
1111111110101100
1111111010001001
100110100
1011110101
1100110001
10011101001
1110010010
1101010010
