1111111111001100
1111111101111001
1111111110011111
1111111011110000
1010
100111011
1000001101
1111111010101100
1111110110000010
1111101100101000
1111101101110001
1111111011111110
1111111100010110
111011010
1111001110
1111111110000011
1111111101110110
1011100110
10100001100
10011011100
10011001110
1010011011
1111111111100110
1111111011011111
1111111011010111
10101011
101101
1111110101111100
1111111101001111
1111111101101101
1111111110101011
1111111110100100
1000101
11100111
1110101
111001
1111111000100001
1111110011000010
1111110001110011
1111110101010100
1111110100101001
11000100
1100010111
100110
1111110110100010
1111111111100000
1100101100
10010011010
10000101001
1010101110
111001100
1111110111101010
1111111000101110
1101
1111111010011001
1111111001110111
1111111101110100
1111111111101001
1111111110101000
1110111
10010100
111001100
1111111100100110
1111111001100111
1111110111001011
1111101001011111
1111111001001011
1111110111001010
1111111001110111
1111
1111111111000010
1111111001111100
1111100101000010
1111111011101100
1111001000
1010001100
1101010001
1111111100111000
1111111111110011
100101001
1111111101101111
100011111
1111111110101000
1111110110101111
1000101
1101000
1111111101001011
1100101
1111111101000000
10111110
1111111100010100
1111111010101111
1111110011101010
1111101110011101
1111110011001110
1
1111111011110100
10010111
1111110011100010
1111111011010111
1111100011101111
1111110000001000
1111111000010001
1111111111000010
110001000
1111110100011110
1111111101111100
100100110
11111
1111111110110000
1111111101001111
1111111111100011
1001101
1111111100111111
10
1011100
100010
10010111
1111110011001111
1111110100001100
1111111000010010
1111100110011000
1111110001011011
1111111101011101
110100100
111110
1111110111001001
1111110000011011
1111100110000011
1111101001111100
1111101111011000
1111110110100100
1111111001010111
1111110100100111
1111111110101010
1111111100000111
110001000
1111111110010010
1111111101110001
10000011
1000110
1111111001011101
101010
1111111011100001
1111111111101000
110001
1111111010111100
1111111111000011
1111111011010010
1111100101111001
1111110101101001
1111111000001111
1100101110
10110010
1111111010011100
1111110110011001
1111101101100110
1111111100101000
11111101
1111111111010001
1111101011010100
1111110100000110
11110100
1111111010110010
1110011111
10000000
1111111001110110
1111111001001110
1111111111110101
1111111010101100
100001001
1110111
1111111011001000
1111111110000101
1111111000000110
1111110101010100
1111110000101111
1111101110100101
1111111010111110
1111111110110001
100011011
110
1111110111001111
1111111010101110
1111111110111110
1111111111110000
1010101111
10110011
1111110100010110
1111111000110010
10000001
111010110
1000011000
1111111110011110
1111110110110101
1111111001101111
1111111110110011
1100000
1111111110010101
1111111011001100
1111111100111110
1111111101110001
1111111001000111
10000010
1111111100110100
1111111001111110
100100000
1111111011011000
1111111011110101
1111110111001101
1111110001001011
1111110010100000
1111110101100000
1111110010001101
1111111101000111
1111111100101111
1111100110100111
1111111111011010
1010100010
110100010
1000110101
1111111110100110
10010
1111111010110100
1111111010110101
1111111111110000
1010011
1111111010101111
1111111101010001
111101011
1111111001110111
100010100
10010111111
1010010000
100110101
1111111100001110
1111111100111110
1111101110110011
1111110111000000
1111101101000111
1111110001111101
1111110101000111
1111111110111010
1110110
1101000
111011001
11011001
110101011
10100110111
1001000010
110010111
1111111001010011
1111111111111100
101111111
1111111011000011
1111111110101011
100001001
11110
1111110111000010
1001101100
1110011100
10100100000
1011110000
1111111111010101
1000001101
1111111101001101
110101101
111000000
1111111111100001
1011000
101000011
111000010
1001011101
10010011010
1001101111
111100111
1010111101
1111111101
1010011101
1100001
10001110
11000010
1001100
1111111101101011
100101100
1111111111000000
1111110011110101
1111111110100011
1110000101
11001001100
10001011111
1100110111
10010001
1111110010011100
1111111111110000
100111110
1111110000111001
1111110010000101
1011000100
1010010
1111110111000111
1010011010
11010010001
1110101010
111110110
1101101011
1110100110
110101
100101101
111010110
1111111110111100
1111111100101001
1111111100010100
1111111111001011
1111110100110011
1111111101000111
1101101100
11011111011
11100111101
10010011000
1010000110
10010
1111100111110000
1111111001011110
1111101111110110
1111101100010110
1111100001101010
1111110111011101
1001000010
10001001011
110011111
10000011111
111011011
110011011
111100100
1111111111000010
1111111011011111
10010011
1111110101000101
1111110101111000
1111111000101111
1111111000000111
1111111110100111
1111101111000101
110100100
11111100001
100000010100
10000111011
1111011110
11011011
1111110001111001
1111110101001001
1110000
110010
1111101001100101
1111111011001011
1100100001
10001000000
1111111011000111
1100001110
1001011
11111011
1111111110011110
11110101
1111110110100111
1111111000011110
1111110010111011
1111110111111011
1111110010101000
1111111001100110
1111111011110011
1111101111010100
100101
10000001010
10000000010
10011100111
110101001
111110
11110100
1111101110010111
1111111111010010
101100
1111110000011111
1111111110001010
1111111110100001
1111110111101010
1111110011011100
110100
1111111110110000
1010000001
1111111001101001
1111111111111100
1111110000011010
1111111010111001
1111110110101000
1111110111001000
1111110011001000
1111110111011001
1111111001011001
1111110110001110
1111111100001010
1111111110101010
111010010
110101101
1111111001110111
111110100
1110001101
1101
1001111000
1010111100
1111111101010100
1111101011100110
1111110100110010
1111110110111110
1111110110010010
1111110110000001
1111111111000000
1111110110001000
1111111010101111
1111111100010001
1111101111100100
1111111010110111
1111110010010011
1111111111100110
1111111001101100
1111110100101010
1111110101000101
1111110100101001
1111111010011110
110100000
110111010
1111111010100101
1111110000010011
1111101101100110
1100000110
1100110110
1111100000
1011010111
10100010
1111100100111111
1111110010010001
1111111110111101
1111111010011111
1110101
10011110
1111110111001100
1111111100011110
1111110101000011
1111110011001111
1111111001001010
1111110110000100
1111111111101000
1111111001011111
1111110110001110
1111111010111000
1111110010000101
1111111110001000
11001100
1111110111100100
1111110101001111
1111111000000011
1111110111001000
1101011010
101110010
10010001111
1110110111
1111111001000101
1111011010000110
1111101110111101
1111110010011010
1111111100101100
1111111111010100
1111110111100011
1000001
1111111010010010
1111111000101110
1111110101000100
1111111011010000
1111111011010101
1111111110011100
1111111000010110
1111110101110100
1111111010110011
1111111101101000
110111011
1011011010
1111110000000110
1111111111001000
110
11000
1000101011
1111111110101011
10000100010
11110001
1111111011110000
1111110000100011
1111101010101010
1111101010100001
11010010
1111111011101111
1111111110000100
1001111010
1111111111001100
101101001
1111111011110000
1111111110111101
1111111000011100
1111111100111011
10001111
1111111111110000
1000011
1000111011
11100111
111011110
1111111000001010
1111110010100110
1001001000
10111011111
10111011101
1110010000
10011111010
10000001100
1111110010110001
1111110011010100
1111101101001010
1111101000011100
1111110010101110
11111001
1000111011
1111111110111001
1111111010001101
1110011
101110011
10000011
100101011
1101000011
1010000000
11011001
111101111
1100100110
1111111110100010
11010100
1111110111101111
1111110101111000
1111111010110100
100011101
10000010010
111000101
1001000011
1110001010
1111110011010001
1111101100111011
1111111000110010
1111110010110000
1111111000001110
1001011111
10001011
1111111001011100
1111110011111010
11100
100111110
111100
111101010
101100110
111010110
101001101
1001000000
10010101111
100001101
10110
1111111100101001
11101001
1111111011011110
1111111100011100
10100011
1001100010
10001000100
10110111010
1100100
1111110111111011
1111110011001111
1111110101110101
1111111110110101
1111110111000010
101100101
1111111101101001
1111111001111100
101001
11100010
100001001
1010111011
1001001101
1011001101
10010101
1110111110
10000011100
1111111111000011
1111110111011100
11011111
10000011000
10001011000
1000011010
10101001001
1100001011
11001011000
11001111100
1010111011
11001
1111110101111001
1111111100011000
1111110110001011
1111110101010010
1111110110101001
1111111010100001
1111111110110000
111101111
0
110101011
11000100
1100010100
1011001001
10001011
1111110110
1010010001
11010101
1111111101000010
11110101
10010100001
1011010010
10101001001
1011111000
1000001011
111011010
1001101010
1011001000
1000010001
1111111001110010
1111111011101010
1111111010110011
1111110011100000
1111111011111001
100110110
110111101
1000111101
1001
1111111111000011
10111001
1010111110
110101100
1111111011110011
10110001
101110100
1000101111
111100000
111001111
1110000110
10001110
111100100
1111111000001100
110001010
1001011001
1111111111110110
1111111101110110
111010100
11011100
1111111010000100
1111111011010111
1111110001011011
111100
110000000
111100111
1110100101
10010010
1111111101110101
101110101
1111111100010101
1111111011001101
1111111100111010
1111111111011001
1111111111001011
10000110
1111111000101001
1111111110110001
10001100
10111100
1111110100110100
1111110111110010
1110011
100100011
1111110000001010
1111111101001101
1000001101
10000110
1011100111
11101101
1111110111011110
1111111010000100
1000110011
10000111000
11001101010
1111111110010011
1111111101101000
1111111001100100
1111110100100100
1111101010100001
1111101110110000
1111111100101010
1111111011101111
1111111100000001
1111111000101100
111110100
10111010
10101101
1111110100010101
1111110110001000
0
1111111011101100
1111101100100111
101001010
1111111111101010
11010000
1011011001
1111111110000011
1111110000111000
1111111110011000
100100101
1101001101
11010111
10110100
1001101010
1111111001010000
1111110100111101
1111101110011010
1111110010100110
1000111010
1111111011100011
1111110110001111
1111111111100101
1010010110
10000111
1111111110001000
1111101101110100
1111110111010000
11110010
1111101111111100
1111111011011100
1111110111001010
1111111011010101
1111111110
100110010
1111111001110101
1111111010100011
101111
1111111111100000
10000001
101010
1010011010
1000001101
10100111
1111110011010110
1111111001001100
111011
110001100
1011010000
1111111111011001
1010
0
1111110011101100
1111100111000100
1111101101101011
1111110110011101
1111110000011100
1111110100101000
1111110100000010
1111101011101111
11100001
111010110
111011000
111000111
1111111011100100
1111111010001000
1001
10010010
1111110100100011
