0
100110101
1001001
1111111011001001
0
1111111010101101
1111111000111011
1111100
101011100
1010101100
1100100101
1111111001110000
1111110011011110
1111101011011110
1111100111110000
1111110001011011
1111111001001011
1111110100001101
1111110000100011
1111110101111101
1111110100101110
1111111111010100
100001010
1000011100
1101101
1111111000111111
1111111111111101
100101110
11111101
11101010
1111111100001101
110011
1011100
1111111101010010
1111110011111001
11111010
1010010100
1010010001
10010101
1111111010011001
1111111100001101
1111101111011101
1111100111110111
1111111000011000
110100
1111111010100011
1111110110111010
1111110000101001
1111110111011001
1111111011101111
111
101010001
100000000
1111111110101000
1111111101101011
1011000
1111111010111101
11010
1000
1111111001010110
1111111110110101
1111111010010101
1111111100000001
1111111111011100
1111011011
111011100
1001011
1111111110101000
1111111100110101
1111111000110001
1111111001110111
1111111010001101
1110101110
110010111
1111111100011100
1111111001000000
1111111110000000
111110
0
1111111001110100
1111111110101011
1111111011110010
1001010
1111111100101101
1111111111001011
101100100
110
1111111011111011
1111111001011001
1111111001000001
1000000
101001000
111100101
1001101100
110000111
1111111100011101
1111111111000101
1111110010110110
101000101
1000110111
100010111111
10110100000
100001111
101100
1111111001111111
110000100
110010110
1111110110011010
1111111100110110
1111111110101101
1111111111010001
11111
1000101
10010010
1111111100010101
10100011
1111111011100000
1111111000111010
11100000
1000011000
101
1001110000
101010110
10010001
1111111111100100
1111110010000001
111000100
10110010110
11110101110
10010110111
10101101110
1001100101
1100010000
1100111110
111001
1111111000011101
1111110111011110
1111110101011101
1111111111010000
1111111100111000
1101010
1111110
1111111110111010
1111111101100101
1111111111111100
1000110
11000101
1111111110010000
111101
10101001010
1011010101
11111100
1111110101100001
1111111000011100
1111111110110010
10001110011
1110000110
11100011
1111111000100110
1000000001
10011000011
1000111110
1111111011111000
1111111100001101
1111110101010101
1111111011010010
1011000110
1111111110100000
1111111111000101
1111111101110000
1111110101111110
1111111111101001
1101100
1111111001101101
10100100
1011100
100110001
10101100101
10001010
1000101101
1111110100111001
1111111010101011
101011011
1000001
111011
1111111111100100
1111111001010101
1111111111001101
1101010011
1001101000
1111110101010101
1111100110110000
1111111000110010
110100010
111001100
100111111
1111111010001111
10110010
1111111011000001
10100000
1111111111011111
1111111111010011
1010111011
11
10100001
101001101
1111111101100000
1111111000001110
1101111
1111101111
1010001110
10010001000
1100101111
1111000101
10110010
1111111101100010
10000010001
100100
1111101111011000
1111110001110110
1111110000000110
11111111
1111111101110111
110001101
1111111101110101
1100101
1111111011111000
11001001
1100110
1111111001111110
111011001
1111111000100000
1111110011111001
1111111001001011
1111111011000111
10000110
100001010
10010000111
1001101101
11001011111
1000110000
110000100
1111111101111010
1111111000010111
1111110111101110
1111101011010100
1111110110110011
1111111010001011
1111101001001100
1111110100011001
1111111011111010
1000110101
1111111011000100
1111111111000100
1111111001010000
1111111011101101
10001010
1111110101001101
110110001
1111110011110110
1111110100011000
1111101100011001
1111110101110001
1111111000111100
10010000
1111111011100000
1111110111111110
1
110000
1111111010111101
1111110001101110
1111101110111000
1111110010010111
1111101001000000
1111110000110001
1111110010010111
1111110000010011
1111101100110101
1111110010110111
1111111110010100
1111111110011101
1111111011001011
1111111001100111
1111111101010100
1111111010001001
1111111110110000
1111111111111000
1111111
1000
1111110010110101
1111110001111010
1111110011011100
100001
110100110
1111111110001000
1111110110110110
110000101
1111111100110100
1111101011110111
1111110001010001
1111111011010111
1111100000110011
1111100101110101
1111110001010111
1111101100100001
1111101010111011
1111101011111000
1111111101011011
1111111100111110
1111110101010101
1111111010010111
1100100
1011011
1111001
1111111101011110
1101000
1111110100111101
1111101101010000
1111101010000001
1111110101000011
1111111100000001
1001110011
10000000101
100100010
110101010
1
100010011
1111111011101110
1111101111101110
1111100010010110
1111101101110100
1111101100111111
1111111101001101
1111110101101011
1111110100001001
100011011
1111111111101011
1111111001101011
1000011111
111000001
1011101110
1110010010
101010001
111110
1111111001101110
1111100100111110
1111100110001010
1111111111100110
1111110111011100
1111111001101001
1111111100100010
110100011
1111110010001001
1111101001011010
1111111000001100
1111101101101101
1111101000000100
1111101000001110
10100111
1111110100010000
1010110
1111111100101001
11100111
100001100
100101001
1111111111100011
1010010001
100110010
110111100
1110111010
1000100111
111101110
1111111010011110
1111101100110101
1111110000011100
1111111011001101
1111111010011001
1111110010110111
1111110001100101
1000000011
1111101110010010
1111110001110011
1111111101000110
1111111101001010
1111110110010010
10000010
1111111111110100
1111111001110111
1111110100010100
1111111001111110
10010011
1111111000110000
10010010111
111110011
1011000110
110001101
1110000000
1100111111
110101110
101100001
1111111000000001
1111111110100110
1111111010010110
1111111011101001
1110011
1111110000111001
1111101111100011
1111110111110111
1111101010101100
1111110001110100
1111111010100011
100010111
101100
100001
1000111001
11001
1111110111010100
1000001110
1000010000
1111111101111101
1010010000
110111111
1100000100
100110111
100100101
1011001110
1001001110
1000011000
1011101
1111110010100111
1111111110011111
1111111101110011
1011011111
10000101010
1111111001010110
1111110001011111
1111101100100000
1111110011100000
1111111110011000
1011111001
10011101
1111111000101001
1111111111010000
1111111001011011
1111110010110011
1000100001
1111110111010100
10110
1010011111
110110010
1001000010
1101010
1000110000
1010000010
11110000
1100100011
1111111111101111
1111110101111010
101011011
110100101
1000000011
11111011
1111111000010010
1111111100010110
1111110011101011
1111110011000000
110101111
11001100010
10111100
110100001
1111111001100011
1111110100010011
1000000011
11000111
1111000
1111111011000110
1001011000
1010000111
100010111
100001001
10010101
101101111
10001011
1000010101
1111111101110111
1111110101010100
101011000
1111111100100101
100100001
1111111100000000
1111111101000100
10111010
1111110011010111
1111110111010101
111101010
101100111
111100101
100101101
1111111110111101
101011010
100110010
100000
1111111110000001
1111111010000101
11000100
101111110
10101100
1111111101010011
1111111110100100
1111111011111110
1111111101101011
1111110111110000
1111111010000101
1111110011010100
10001
1001111100
1111110100111110
1111111001011101
1111110001010110
1111101101011010
1111101011100100
1111110111111000
1001010110
11110111
1001110101
1010011010
1000111000
1111111010011100
10011111
10101100
1111111110101010
1111111000000111
1111111001011101
1100110
1111111010111001
1111111011000001
1111101110111010
1111111011011011
1111110111101011
1111110101100011
1111111010000110
1111111100110010
11000011
11011011
1111111101100101
1111111010111000
1111110010101110
1111110101010010
1111111101111110
1000
1010100101
1010001001
1100101110
10000001100
1111111100101011
1111111101101101
1011110
1111111001101110
1111111100101011
1111110011011010
1111110100000000
1111111100001010
1111111011001000
1111110110000010
1111110101100010
1111111010001010
1111111001010111
1111110011001110
100110
1111111100110111
10001001
1111110010111100
111
1010000011
100110111
1111111010111100
1111110010100011
1111110111011001
110101101
10111100
1011101101
10100100111
100011101
1011100110
111110
1111111110100001
1111111101100101
1111110001001010
1111110110001110
1111111011110110
1111110100011001
1111110011101100
1111110100011011
1111111000111110
1111110111001001
1111110001010101
10100011
101110011
10010001
1111110001111001
1111110100100000
1111111000100110
1111110001100101
1111111000010111
1111110011111011
1111110001010111
1111101
1000100100
1010100011
100100001
101011100
10010000000
10111000
10101100
111110
1111110010111111
1011011
10111
1111111000110111
1111110101011010
1111101111011011
1111110010101110
1111110001000101
1111110111001011
1111111101111111
1111111000111100
1111110110010001
1111101110100000
1111110100110010
1111110110010010
1111111100101000
11101111
1111111111101001
1111111000101001
1000010111
1111111110000111
10001011
101010101
1111100011
110100100
110011
1111101110111010
1111111001001011
1111110011000001
1001101
1111111110101010
1111110010111001
1111110000001101
1111110100111000
10000011
10011110
1111111101010010
1111110011100011
1111110111101010
1111111110101111
1111111000111001
1111111001000001
1010101
10011000010
1100010
1111111010000011
11111100
10000100010
1111111000010111
1111111111101100
111010111
1111111101100011
11110100
1111110101010100
1111111000010100
1111101110101100
1111110010010111
1111111110101100
11110111
1111111010100010
1111111010110110
1111111110110100
11100
110101101
1100010
111010100
11100
110011001
1010101100
1111111110110001
1111011100
1110110010
1111110111010000
1111111101010001
10000111010
1111111110000110
1111111110111111
1001101110
1111110110110101
1111111010000001
11001111
1111111010110100
1111111010110001
1111101001110100
1111100000111011
1111110110111011
1111111001001001
1111111101110110
101010011
1011010001
1110100000
1001011101
100100110
1001001111
10010011011
111001000
10000011
1100001000
11000110101
10010110011
1111111001100001
11110001
1000111101
100010000
111000000
10000111
1111111001011110
1111111011001011
1111111101110010
1010001
10100
1111111000001001
1111111001101010
1111101101100011
1111110101001010
11100010
1011100110
1111111000
1011001001
101
1000001
1010111010
1111000010
1000100
1101011
1011101110
1110101111
1000100000
1111110110101110
10111000
111100000
110101011
1111110111110000
1111101100001000
1111110100000001
1111111001111001
1111111101110000
1010101
1111111011000100
1111111000101001
1100100
1111101101111011
1111110000000000
101001001
110000100
11000110
1001101
1111111000101101
1111111101011010
10
1111000
1000110101
1010101011
10010110001
1110110011
1111111001011110
1111111111001110
1111111100001110
1110000001
1011001100
1111111000010111
1111110000011100
1111111000011111
1111111001000000
1111111111110101
1010101010
1111111111111110
1111111100100000
1001001
