1111111010001100
1111111011111101
1111111111110001
10110101
100110000
110101
1100111111
1111111110111101
1111110101110110
1111101111100100
1111110011110110
110001001
1101110010
1111001110
10000110111
1100100101
110000010
110111000
1100110011
111101101
101010001
1111111000101010
1111110000001010
1111110101001111
1111110111011010
1000001111
1100010111
1001011100
1010011
1111111101101001
1110010
100101000
100010111
101010011
101100001
1111111
1111110111010010
1111110101110000
1111111010011001
1111111111011110
1111111110001000
1100001000
10001101100
1011010001
1111111010001001
1111111111010000
110000110
1000001000
101000110
1111111110001100
1111110111110110
1111110110010111
1111110111011001
10001110
111001001
1111111110100011
1111111011011100
1111111000001010
1111111100001100
10110001
1111111101011010
1010100101
100100
0
1111101110100000
1111110110100100
1000010
1010100
1110100
1111111111101111
1111111100101100
100000110
1111100110011111
1111101101100110
1111111101100011
1111111110100011
11100011
1111111010100001
1111111011000100
1111111101010011
1110
11101100
1111111101111001
1000010101
1111111110001001
1111111001011100
110110011
1111111111010010
11000100
1001011101
1111111111101110
1111110101011100
1111110101111011
1111111100000101
1111111010101101
1100
1111111110001000
11000011
1111110000010110
1111110010101011
1111010111111001
1111101000010101
1111110100001111
1111111001000100
1111111111011001
1111101011011010
1111110000101001
11111100
100100011
101001111
11101100
1111111111011011
100001100
1111110111111001
110110101
1110011
100111010
10010000
1111111110110011
1111111110111110
11
1111110011001011
1111111100010001
1111111100111101
1111111111101100
0
1111110101010100
1111101100000001
1111010101110001
1111101100000110
1111101011100010
1111101110101101
1111101010111100
1111101110101111
1111110110001100
1111111100110100
1010100110
1001011000
111101011
1111111111011111
110000
1111111001110011
101000101
1111111111110111
1111111101011010
11010111
110100001
10101011
1111111011101101
1111110110000110
1111110101110000
1111110000101011
10000101101
1111111111100001
1111111000101101
1111110000110110
1111101011001110
1111111001110110
11110000
1111110001111001
1111100111100011
1111101100110000
1111111100110110
111000011
1001100000
1111111111010110
1111111011000111
1111111110001000
10010
1111111011000001
11000000
1010010
11010000
1000001
1111111001101000
1011001
1111111001011001
1111110011010001
1111111101011000
1111111101110011
100101101
1111111101010001
1111111110010110
1111111010001110
11101010
1111111011100000
1010110
1111111110100011
1111110010011100
1111110110110101
110010111
10011101010
101110110
1111111000010010
1111110010010010
1111111000110001
11010000
1110011
1000010011
101000101
1111111011111101
1111111110100110
1111110110001001
1000001101
10011100
1111111100011011
100100111
111001101
1111111011000010
1111101101100101
1111110011111011
1111100101011001
1111101100100101
1111101000010001
1111111101010110
1000100
1111111000100010
100000110
10000100011
10010101111
11000001
1111111000101010
1111111110011101
1111110010111011
1111111111010110
11101100
1111111110110101
110001100
110001100
101001011
1111111010010001
1001101010
100010101
1101101010
1000011
1001000010
1111111101010100
1111110110010001
1111110110000100
1111100001010111
1111110101111000
1111111000000010
11101100
1101001100
1010001100
1010110001
100110100
1011111
1111000111
110011101
10100010
1111111000011101
11100111
110101001
110011001
1111111100101111
111010
1100000101
1111111101010111
101101010
111100010
1110111111
1001001001
100111110
1111110101001110
1111111101001001
1001010011
1000110
1111111000101011
110110
1010111100
10000111111
10010001111
10100011010
111001000
10101001100
10010001111
10100101010
1011111111
1111111111100100
1111111111111001
1000001010
100101111
1111111111110110
1111111110010000
101111111
1111111110001101
10000001
1111111001000001
10000111
111000100
1100011001
1111101011110101
1111101011000001
1111111110101101
100011011
1111110100000100
101110001
11010011100
10100001010
1011111010
11101100111
10101011110
10001010010
10011101110
1110010100
1111110110
1111111111001000
1001001010
1000111010
100001111
1111111100010110
1111110111001100
1111111010001100
1111111011000101
1111111101111001
1001101010
1111111100
1011001001
1111111100101010
1111110101110100
1111101101100111
1111101110010001
1111110101011111
1111110110111101
1100110111
1010010
10101000110
11001011010
100101010100
11100001101
10101101100
1000110101
101000111
1001000
1111111001001110
1111111100011111
1111111110110010
1111110111110011
1111111001001010
1111110100110001
1111110100010010
1111111110100001
1111111011110110
11111110
1110111000
10010100111
1111111111000100
1111111111000111
1111111110010001
1111111110101101
1111110100110100
10001110000
11110111001
10001101000
10100110000
10100001100
100010100011
1110001111
10101101110
1101001100
1111000
1111111111011101
1111110111011001
1111111001111111
1111111001111100
1111110111100001
1111110010010111
1111101111000100
1111110100010001
1111110010100010
1111101111110001
1111111111110111
10101001111
1100110000
110111011
11100111
1011010010
10101001001
1111110111100001
1010100101
11111001110
111110111
10010010
1100001001
100111000
1000111100
10001010111
1011111110
10000100
11011111
111101110
1111101110011111
1111110100010010
1111110111001010
1111111011011101
1111110011101001
1111110101111000
1111110100001110
1111110110001101
111100101
100011100
110110000
1000011111
1111111100010000
1000110011
1110100110
10101000
1100111101
111110001
100101000
1111111000111010
110000110
1001001001
1000011100
1000101001
10110100011
1111111100011001
1111111111101001
10001110
1111101111000000
1111111000101001
1111110101101000
1111111010000010
1111110011011101
1111110001110110
1111110011111000
1111101111111011
101100100
1100001001
1001101110
1111111100100110
1111110110000101
1111110100001101
1111111011010011
1110110011
11000010
101000011
1111110111001110
1111110110111011
111101110
1011101100
1010110000
10111100010
10010001100
1111111111011010
1000010101
1111111100001010
1111110110111001
1111110110100001
1111110100010011
1111110110100111
1111110110000110
1111111010100001
1111110111111111
1111110100111111
1001101
1010100001
1110000
1111111011110111
1111110100110100
10010001
1111111110010111
1001000
1111111111000001
1111111111111000
1111101100011011
1111101010110100
10010101
1000011101
10110000000
10000001111
1111
1111111001001101
1111111010100110
1111111011110011
1111111000011010
1111111010000100
1111110111010101
1111110110010001
1111110100100111
1111110100101000
1111110100001111
1111110101011011
1000000001
111000101
1111110111110011
101101110
1111111111000111
1111111100101111
1111111111100000
1111101111001010
1100001
1111111000000100
1111101110000000
1010111
1111111010000001
11100011
111001101
100110011
1111111010111100
1111111110101011
1111111100011001
10101100
1111110000000000
1111110011111101
1111110111110111
1111111111000001
1111111100100000
1111111010110101
1111111100111111
1111111100111110
100110000
100011000
1111110110001010
1111110011110110
111101100
110110001
111110010
100000100
111111011
1111111101111110
1111100111111101
1111110100000000
1111101110101100
1111110011000101
10000000
10111111
1111111100110000
11111111
1111111110100000
1000101101
1111110111101010
1111110111011000
1111111001011101
101011010
1000011111
11111110
101011
1111111110110001
1111111100001111
10001000
1111110001110010
1111110010010011
1111110101011101
111011
1111111110011101
1111111000101010
1111111011010010
11110101
1111110010111010
1111101010101000
1111110111111111
1111101101010000
11011011
1111111000010101
1111111111011100
101010100
110
1110000010
1111111110011101
1111111110011111
11100100
1000001010
1001000111
11000111
1111111111101001
1000110111
1111111
10011110
1111111100101110
100010111
1111110011000011
1111110110011001
1111110110110010
1111111110000101
100010011
111
1111110110111010
1111110001101110
1111101100111001
1111101111111000
1111111010011011
1111101110100100
10100010
110111010
1111111101101000
110010001
1000
10010000
101001000
1101101100
1010100
111011110
110000100
1010011100
1111111101011001
1111111000011010
1111111110001011
101101
111101
110101
1010000011
110010000
10000001001
1100111101
1111101
1111110111111101
1111111011011110
1111111010111011
1111110011000010
1111101111010101
1101110
1111111100010001
1111111010000100
101101010
1111111111000001
1111111101011010
1111100
11101001
11010100
110001001
1011001100
1010001101
1111111011011011
1111111100101101
111010111
1100010011
100000100
111101010
1111111000010001
1111111000000010
110000100
1000011110
1011101
1101101000
101011010
1111111000100001
1111101111001011
1111111000111010
1111111001110100
1011100001
10110000
10000010000
1111111101000100
1111111101110011
110011101
111000111
100101010
1111111010110010
1111111000110000
1111111110001000
11010000
1010011
1111111100010010
1101110
1111111111010111
1111111100100111
1111101111010000
1111111110111001
1100000001
111011
1111110100000000
1011001101
1111111101000000
1111111011111101
1111110101010010
1111110101001110
1111111101000011
100000101
111001111
1111110101
1111111111010101
1111111100110111
10110101
1111111111111110
1111111011111100
1111101111111110
1111110011110010
1111110100101011
1111110010001111
1111110101100001
1111111000100010
1111110101010010
1111111110011100
1111111000000101
1111111100101111
10011101010
1100010000
1111110010100100
110001100
101111
1111111011110000
1101110
1111111101000100
1111111100011010
1111111010101001
100010
1100100000
10110110010
100100100
1110011
1111111001100001
1111110001101110
1111110010010010
1111101011001101
1111101111101000
1111110010011100
1111101101111101
1111101100101001
1111110111110011
1111110110111000
1111111101100010
1111110010001001
1111110111000111
10101111110
100110011
1111110011111001
10101000
1111110111011000
1111111110011101
101100001
1111111010000100
1111110110011111
1111111000111110
1111111001000101
1100001101
1111111111110101
1110101000
1011100011
1111111100001000
1111110011101101
1111110111010111
1111110011101010
1111111101001101
11000100
1111110110111010
1111101111100011
11110011
1111111011101101
11111001
1111110100110110
111001000
10010010110
111011111
1111111110111011
1111110110001100
110101
11000111101
11101100
1111111101101100
1111111011111010
1111111000111000
101101100
11100100
1111111100000100
1000100000
1101001011
1111111110010000
1111110101111101
1111111100100101
11111
110100000
111001110
1111111101100111
1111111100100101
11110
100010000
1111111100111001
101010110
10000101101
1101100101
1011000110
1111110100001000
1111110110000100
11000010
1000010001
110000101
1111111100110000
1111111000011111
1111111000001100
1111110110100110
1111111010000110
1111111011101000
