1111110111001001
1111110011001110
1111111000010101
1111110100100001
1111111010110011
1111111011110110
101111
1111110111101110
1111111011000110
1111110011100100
1111110101111111
11000011
100100000
1100101000
1010110110
1111111011110011
1111111010111101
1111111110010101
1111111110110101
10001000110
10111001111
1111111010
1000110001
110100011
1111110100111101
1111101110110000
1111101100010000
1111011110010101
0
1111111010000110
1111111011001011
1111111110101010
1111111011010101
1111111010100110
1111111001100001
10100100
1111110101010100
1111110010100111
1111111011011101
11001001
10101000
1101010011
10010111010
1111111010111111
1111110001011001
10000100
101001010
1110100101
1110001100
1110101010
1000011101
1111111101000111
1111110011110110
1111101011111110
1111110000001000
1111110000000010
1111111100111111
1111111110110000
1111110110011101
1111111111110110
1111111000111001
1111111001110010
1111111101110100
1111111111110001
1111110110000111
1111101100110110
1111111100100101
110100100
1111111100110001
1010000011
1100010101
1111111011110000
1111100111000001
1101
1001010011
1011011101
1001111100
110111101
1011100011
101110111
1111111100010111
1111110001101010
1111110111000100
1111101011001111
1111111010100100
1111111110111111
1111111111110001
1111111101100111
101001010
1111111111010100
1111110101110001
1111111101010001
1111110101111001
1111100111011010
1111110000100111
100000100
1111111101110111
1001010100
101101100
1111110110111100
1111101001001111
1111110101111100
1111110111100010
1111111101100001
1000111001
1111111011111100
111011011
1010001000
1111111101111101
1111111100101101
1111110111011011
1111101101001111
1111111110000000
1111111111000101
1111111101011000
1111110110011001
1111111111111100
1111111101001010
1111101110110011
1111110110110000
1111111001000101
1111101000110101
1111101101101101
1111111010001110
1101101
1010001101
1011101110
1111111010101101
1111110110010011
1111100111011100
1111100110010011
1111110000110011
11110011
101110010
1011001010
111110
111010011
11101000
1111110011110010
1111110111000110
100111
1111111100011000
11101111
1111111010111011
1111111010011001
1111111110010111
1111110000000100
1111111100001001
1111110111111100
1111100100100100
1111110011001101
1111111110001101
1010101111
1101110101
1111111111010101
1111110111001010
1111110001111111
1111110010100010
1111111110000101
1111111110000000
1111111010010010
1001111100
101011001
1111111101100001
1110101111
11001
1111110010010111
1111111000000001
100111011
110000100
1111111110001111
1111111101101001
1111111010111100
110110100
1111111001011001
1111110100010011
1111110000001010
1111100111011001
11111001
100010000
100111010
1101111111
10000000
1111111101001111
1111111011111000
1111110110011100
10000001
11001110
1111111000101111
1111111110101001
1111111111000110
1001001000
1110100101
110010110
1111111101101001
1111111110101111
1111111111001000
1000101
1111111101010101
1111111101100001
1111
10110001
1111111110011100
1111110001011000
1111111101000111
1111110110010111
100100001
1111101111010110
1111101000110110
1111110100010100
1111101000000011
1111101001010011
1111110110100001
1111111101011100
101111
1111110010010000
1111110010100011
1100000000
11000000
100001111
10010010001
1111111110011110
1111111101010100
1111111000101000
1001
1111111111011010
1111111101100010
1111111011010101
100000100
1011
1111111111011111
1111111111001101
1111111100110000
1111111011001110
101100011
1111110101100110
1111110000001000
1111100010000110
1111101101101011
1111110011101001
1111111001111110
1111111100010110
1101001010
1100100
101010000
1010111010
1111111111010000
110000111
11010110110
110001101
111011
1111111011111111
1111111111000100
1111111111010100
1111111101110101
1111111001000000
1100000
10010011
1111111101101000
111110011
10000000
1011000111
111010011
1111111011111110
1111111101111001
1111111010010011
10011110
100110111
10100011100
10001001100
11000001010
10100000001
10011101010
10010000110
111011000
1011101010
1010111011
1011011111
10011100
0
1110010
111100111
1111111100100101
1111111100000111
10010111
1111111111011111
1111110110010010
1111110101110000
11110000
1111110000
111100111
101101000
1111111100011001
1001001
1111111010110111
10010010110
10001100101
1010100001
1111100011
101001000
110010111
1011011011
1010011100
101010001
1000010011
1111000011
1011001111
1111111100010111
1111111000111011
1001001
10010100
1111111001010100
1111111110111100
1111111101110111
1111111110001000
1111111110000110
11010000
10111001000
1111000010
1010101010
111100100
1010010
1111111110010011
10000100100
10000011100
110101
1111110010111101
1111111010001100
1011000011
1111111111110001
1111110011111111
1000111101
1011001
11011
100
1111111101011011
1111111101110101
1111111111101110
1111111011110100
1111111010111110
1111111111111110
1111110110111001
1111111100110110
1111111001010001
1001010001
1110100010
10100010010
10100010111
1011111000
10111011
101000010
11001101
10000110000
10101010010
1111111000001001
1000111000
1100101001
1111110110110100
1111101111101011
1110001
1111111001111110
1111111101111100
1011000
10111111
1111110111010100
1111110111011001
1111111011010000
100111010
1111110011010001
1111111011011100
101000
1111111011010010
1111111101111010
1111111110101001
1111111011100011
101011000
101000101
1111110100110111
1111111111101011
1111111011111010
1110000110
1111001100
100001101
1000000101
110111000
1111101001000101
1111101101100000
1111110001001010
1111110100100001
1101
1111111001100111
1111111110101101
1111111000001001
1111110110011100
1111111010111001
10100111
1111110110001110
1111111010110111
1111111011010111
1111111011100101
1111111011100010
1111111110011011
1111
1111110101110111
1111101100101011
1111111110001100
100100001
101010000
11010100100
10111011001
1011000011
1111111001010000
1111111101101000
1111110100101100
1111100110000011
1111101110110000
1111101010010101
1111110000011011
1111110001011101
1111111110011000
1111111011100001
1111111001011010
1111111111010101
11101101
1111110111001000
1111111101000000
1111110110100110
1111110100101100
1111110111101010
1111111000111100
1111111001110110
1111101110010001
1111100101110011
1111101001101100
1100010011
11011101110
10111010111
11001110000
1100001111
1111101110110100
1111100111110110
1111111101111011
1111110111011100
1111110100100011
1111101100101111
1111101111101001
1111111101111110
1111110111101001
1111111010110110
1111111011010111
1111111111011011
100001111
1111111111100100
1111111111001110
1111111011110000
1111110100101100
1111111111001100
1111111111111001
1111101111011001
1111101000001001
1111101010101010
1111101000111010
100100110
10101011000
11011101001
10011101000
1111111011111101
1111011001011001
1111100110100001
1111111001110011
1111110110100111
1111110010000010
1111100001011011
11000
1111111101000001
111101111
1111111111111100
11110010
101100
1111111111111001
1111111001011111
1111111110111100
1111111101111100
1111111000011111
1001011110
1000011101
1111110011001001
1111110000001101
1111111010110101
1111111111111101
1101111011
1101111100
11010101010
10100010001
1011101
1111110110011110
1111111101000000
1111110011011010
1010110
1111110011011100
1111111001100100
100101111
1111111111001011
10001111110
110011010
1111111111000011
1111010
101000001
10001000
110000100
1000101100
110110001
1011000
100010110
1111110110100110
1111110111001111
110011000
1110001111
10011001110
10111110010
11011101111
10001010010
10011000000
1000011000
1111110111110110
1111101101110111
1111110100110010
1111111000111111
1111111011110011
1010001
10010111
1000010010
10010010010
1011001110
1100100101
1000111111
10000101100
110001000
1011110010
10001101110
1111111101100101
10011010
1111111000011111
100101
11111011
110110010
1010000100
1110000110
1100
110001101
1111111010110000
1111110
1111110111001000
1111101111111010
1111111000101101
1100110
1111111111001100
101000011
1101
11110000
1101000011
10111010
1100101101
10000101100
10000010011
1000010010
10010110100
10111111000
1101010010
1000111010
110000000
1110111011
11110111
1111111010111000
100111000
100110
101010010
1101010010
1111111010101011
1111111010110011
1111111001110011
1111110101011111
1111110110111101
1111110001011000
1111111010101101
100000110
1111111111011000
11001000
1110011000
101110101
10000100100
10000110010
1000011110
111000001
1000011110
1111000001
1001110100
10011111
1101000110
11110110100
10111111111
10001101001
1110001010
100101101
1011011111
1000011000
1111111000001000
1111111010101110
1111101111100000
1111101111000111
1111110001101101
1111110001111110
10011010
1111111110001110
110011000
1000101000
1011111011
100000
10001111
1100010101
1010111101
100110011
1100110100
10010000010
111011011
111001000
1110010100
10100001001
1010010101
1001100111
111110001
1011001000
1111110100000011
1111111001001100
101010010
1111111111101100
1111110000011111
1111110101000010
1111110011001011
1111111101011111
1111111100000011
1000010100
1101101111
10001101110
1111101000
111011000
110111010
1000100101
11000001
10111
110110100
1000001100
1011110101
10101101
1101001100
10100010011
1000110100
11000110
1111110001001001
10110110
1111110100100110
1111101110010001
1111111000110110
1111110101010001
1111111011001111
1111111010010001
1111111100001111
1111111011100110
1011010101
1000111001
1111110011
1110011111
10011101011
111110011
10000001100
100001001
100010101
111010100
101101000
111100010
1001100100
101011100
1110101101
101001010
1111111100100010
1111111011111101
1111110000000101
1111110100001111
1111110111000011
1111110000100101
1111110111011100
1111111110111110
1011011011
1011110001
10000111000
1000011110
1011001111
1100111110
1110010100
10011010001
1001111010
100010000
1100000011
1111110100101011
1111101111100010
1111110111010011
1111111011111000
1101110
1111111100101100
1111111110110110
10000011110
1000001
1111111011001011
1111110011110010
1111110011111110
1111110110100100
1111111101111100
1111110110010001
1111111010111110
10011001
1101011001
10000010010
1111010010
1011010101
1100100100
10000110101
10000100101
10010001000
1000101101
1011011110
1001100
1111111000101110
1111110001110111
1111110011101111
100111110
1111111010011001
1111111100100000
1010011
11000011
11111111
1101010
1111110101001110
1111111011001010
1111111110111100
1111110110000100
1111110100110110
1111110011011000
110100101
1110110001
110110111
111001011
1001001000
110100001
11010100
1011100000
1000101000
110010110
1001011111
1111111101100011
1111101101011111
1111111111110101
1111111011111001
1010110100
1011
1111111001001100
1000101000
1111111100110110
1111110001001010
1111100000001101
1111110010001110
1111111000001111
1111101000001110
1111110110101011
1111111101000010
1111111011111100
10000001000
110100111
1110110001
11000001110
1011111011
100101100
1111111010
1111000001
1111111101101111
