1111110010011111
1111111001110111
1111110100110101
1111110110010111
1111111100111001
1111111111111000
1111111110101110
1111111001100000
1111101111110101
1111110010011011
1111110001110111
1111111100011010
110101
1000010100
10011010111
1110100011
1100000100
100001010
1000111100
101010011
1111111111010011
10
1111110110001010
1111110000100100
1111111110100001
110110001
101011001
100101100
1111111000011111
1111110010011001
1111110101010111
1111110110001001
1111111011100110
11010101
1111111101001110
1111110110001111
1111101100110100
1111101101001001
1111101111011111
1111111000001101
1111111110001010
1011100010
1111000111
111001111
1111111101101101
1111111001011100
111111100
1111111110100111
1111111000110110
1111111111000010
1111110111010100
1111110100010100
1111111101001110
1111111011001100
1111111110010111
101011
1111110101010111
1111110100110111
1111111001011010
1111111010000110
1111111011010100
10100101
1111110111110101
1111110101011101
1111101001110010
1111101011101111
1111110101000110
1111110110111001
1111110100100001
1111111101111011
1111111100000110
1111111111100001
1111110000001001
1111101101101111
1111110101100001
1111110101111101
1111111011010010
1111111000101010
1111110011000011
1111111100000000
1111111110011100
1111111011001001
1111111111001100
1000010001
1111110100110101
1111110110010110
11101
1111111001101100
1111111011001000
1111111101110101
1111101111111111
1111101011101011
1111101100101100
1111101001011011
1111110110001011
1111111010001010
1111110010101101
1111111011011100
1111110100100001
1111111011101000
1111011110001111
1111101000010100
1111110011011111
1111110111101001
1111111111100011
1111110100010111
1111101111101010
1111111010110110
1100
10010011
10110000
10110101
1111110101111110
1111111001010001
1111111111111010
1111110101010010
1111111010110111
1111111110110000
1111110010101000
1111111001101001
1111111001011110
1111101001101001
1111110010101110
1111110001111100
1111111010010001
1111111010100101
1111110010110001
1111110010000011
1111100100111011
1111101100100010
1111111111010001
1111111101010111
1111110111010110
1111111011101111
1111111000101010
1111111001011110
1010001
10001101
1111111101001011
1111111111111010
1111110100101111
1111111011011000
10111011
1111111101110100
1111111111111000
1100
1111101111010111
1111110100100000
1111110101010011
1111101000011100
1111110010010001
1111101100000101
110000110
1111111111000000
1111111100011111
1111101100100111
1111110101110100
1000000000
10101010110
1100010011
1111111111001011
101
110110100
100111000
1001101000
100011001
1111110010100000
1111110110100001
1111111000011000
1111110100111010
1111000
1011001
1111110111011001
1111111110001110
1111110001000010
1111111011011100
1111110100100000
1111101000110011
1111110011000010
1111101110111111
1111110111101111
1011111
100111101
1111111101101110
11110001
1100010100
10011011011
10001111110
111110100
1111111101101100
10000001101
10011001010
10011011
1111110101000011
1111110111000110
1111111011011010
1111111010100111
1111111001100010
1111111100110110
1111111010000000
1111110110011100
1111111000111110
1111100101001110
1111110111010011
1111111101011111
1111110101001110
1111111101010100
101101110
1111111101110001
1111110100011001
1111111011111010
1111101100011011
1111110001110101
1111110101100110
11000111
111000001
1011000
100010110
1111010100
1110110101
111101101
1111110010001001
1111111000110010
1111111100001001
10110110
1111111001110111
1111111010101111
1111110111101110
1111111100001110
1111111100111000
1111101000101111
1111111100010000
111110111
111100011
10110
101010110
100111100
100110110
1111110111011010
1111101001010011
1111110110001010
1111111101001100
111001110
1110110011
10110101000
1100110000
1110010100
10111000
1001100010
1111111001111011
1111111111000111
1111110111110101
110111
1111111010110111
1111111111010011
1111111001110100
1111111011101001
10100100
1111110111000100
100110
1111111110111101
10111011011
10011010
101000010
1111111101110010
10001001011
10010001101
1100001010
11010100
1111110111110000
1011101111
10100100100
11000000101
10001011010
10010111101
110111011
1001110110
1000000000
111100111
1111111010011111
1110110
1111111111001100
1111111101010101
1111110100101110
1111111001010000
101001100
1111110111101010
1111111111100011
1111110111000100
1111110010
1000100010
1000010110
101001101
1111111010000011
1011010000
10101011000
1111101101011011
1111111001101001
10100010101
110000111
111011011
11101010111
10100010101
1110001000
1001000
1010011100
101011110
1111111101111100
1111111101101011
110000010
1111111110010100
1111110011000110
1111110010011000
1111110111001100
1111111100100011
1111111100111101
1000101010
10011110111
1100100011
101110100
11111100
1111101111110100
1111110001111100
1111110100001001
1111110110001111
1111110000010011
1111101000100011
1111111011010101
1111111110111111
11001110101
1011100111
10001110101
1111111010011010
1111110111101101
101000001
1111111000101001
10000110
1111111011111111
1111111010101110
1111110000100111
1111111000100100
1111110000101110
1111110100011111
1111110101100011
1111111010100000
1110010000
11001010110
100100101
1000101111
1001010110
1111110010111110
1111100111000000
100011
1111111000101011
1111110101101000
1100111
1111111111101111
1110100110
1111110101000101
110001100
1111111111011100
1111111
10011111
1111111001010011
1111111011011101
1111111000110011
1111110111101011
1111110100010010
1111101111011100
1111101110010001
1111110010011101
1111110000110000
1011000
1101100010
10111001100
111010000
10000
1101001010
10011110100
1111101010001001
1101010
10001100001
1111111101100100
1010010
1111111101011011
1111111000001100
1111110001011011
11101000
1001011
110001010
101000
100101110
1111110101110101
1111110101000100
1111110100100010
1111111010001100
1111110001110010
1111101110001000
1111110110101110
1111101111110101
1111111111110101
1100111001
101011100
1111111111000110
1111111011001010
1111101110
1101000000
111011101
1101111100
1111100111
1111111111011010
1111110001110000
1111110101100010
1111110101001101
1111110110110010
1111111010101011
1111010111
101000000
1111111011011111
11000111
1111110100110000
1111111000001110
1111110111101111
1111111100100010
1111111100101000
1111110101010100
1111101110110110
1111101111111011
1111111111010000
1111111111101000
1111111101111001
1111110000111110
1111101001000011
1111110000110111
100111000
1011010111
1110110111
1001001000
1111111000110100
1111110110011111
110101111
1111110011110010
1111110111110110
1000010010
10001111001
1001010
100100110
1111111010101100
1111110001010101
1111111101011101
1111110011111001
1111111111111010
1111111011001101
1111111100000110
1111110101100011
1111110011100101
1111111111010100
10000111
1111110001001101
1111101011000010
1111101010000100
1111111000001011
1111111111010101
1111111000110111
111010101
10001010000
1111111011111111
1111111001111111
11000100
1111111100011110
111001000
10100100011
100010110
10101111
1111111110100110
1111111011000110
1111111010000101
1111110101111111
1111110101011100
1111111001111001
1111111111011001
1111111110100100
1111111111000011
1111111111011000
1111111101101110
111011000
1111101101010110
1111110011001010
1111110011100011
1111110110010101
1111111011011111
1111111011110001
10110100
1001110101
1111111100100111
1000001011
101001101
1111111100001001
1001000100
1000111001
1111111100000000
1100010000
11110010
1110010
1111111100010011
1111111001000101
1111111101010000
1111111111110000
1111111101110110
1111111101111101
1111111111000110
111000110
1111111110011001
11110001
1111110011001011
1111101110000111
1111111111000110
1111111001011000
1111111111001011
111111111
1000100010
1100010011
1111111011011010
1111111010101110
1111110000010100
1111111100001010
111001101
1010011100
1111111001101110
1010111
1111111110001110
11100100
1000011
100110
1111111100100101
101111101
1101110101
1000110110
1110100100
1101101001
10110101
10111000
1111110001111000
1111110100000110
1111111001111100
1111111010011001
1111111010011011
1111111100111000
1101110
1111110
1111110111001001
1111101111011110
1111111010101001
1111111100000101
1000000000
110010011
1111111101101000
10101
1111111011011111
1100000101
100111010
110000000
1010001
10001001110
10010101100
110100101
1000001011
1101110110
1111111101101111
101101000
1000011
100110111
1111111111101001
100000
1111110111100010
1001101111
10001110110
1010010001
1111111101100101
1111110101100101
1111111000100011
1111111010101000
10001010011
1111110000011011
110010110
10101001
1011000
1000000100
110111110
101111
110100101
10010010100
1111111010
1001101110
10100111111
10010011001
111111111
1111111110111110
1010110
1010100000
10000101100
1010000110
1111110101
1000111011
10011001100
1001000011
1111111010011011
1111110000110100
1111111010000001
1111111111000111
1111111111101111
1111110110110101
100011000
1111111110101010
1111111111110110
101111001
110110010
110011110
101110111
1111111111
10010001010
1001111101
10011010110
1100111100
1100101101
110111010
1011111101
10111010100
1110010010
1100011101
111111000
110101000
1000000
1111111101100010
1111110110110011
111011011
10101000
1111111101111100
1111110010000011
1111110110111011
1111111001000101
1001000000
110101000
1101011110
100110110
11011101
1000100111
1001100111
111100011
101010011
1010111100
1001111100
1011011000
10010001000
10010011001
1011111010
1010110111
1100100
1111110111011100
10111101
100011001
1111101110100101
1111101101010101
1001010001
1111110110001000
1111110111010001
1111111111100111
1111111100000100
111
11100111
1110111000
1100011000
1001011000
110000000
1010011000
1010001
10101011
1111111010001001
111101
110010
1111111111100010
1101010001
1001010010
1010101101
100100001
1111110001100000
1111101100100010
100111101
1110001
1111100011100110
11000
1111101111111110
1111110101111000
101
1111111011010011
10010011
1111110110000001
1001010
1110111101
10110011111
1011110010
1011100110
11000000
1111111110110111
1111111001010011
1111110110111010
1111111100111101
1111111010001110
1111111110001011
1111111101001001
1000110100
11111010
100110
1111110000101100
1111101010101001
1001111110
1111101111101111
1111110011011011
1111111101001011
1111110001011111
1111111000011010
10010000
1111111100110000
1111111100001111
1111110101001101
101001
100001101
1111111110111101
1101000011
10001100100
10100011
1111111000101101
1111111000100111
1111111011010000
1111111101010011
11011101
1111111001001100
1111111101000000
110111110
1111111110100010
1111111000000100
1111110011100100
1111110011110010
1111111010011010
1111110010001101
100000101
1111111001110011
101100000
1111000010
1000111111
100011110
1111111101101111
1111111001100100
1111111111100011
101
1111111100100101
10001110101
1100001111
101111001
1111111000011110
1111111111110001
10110011
1010101001
1111001110
111010111
1111111110100100
100101011
1111111101000011
1111110100010111
1111101101101110
1111111100010000
1111111011010010
1111111110010001
11111110
10011101
10110001
110111011
10000000111
1001010
1111111101001001
1111111111000010
1111111000000011
1111111001000000
1111110111101111
