1110
1111111100001111
1111111100101110
1111111011001101
1111111100111000
1111111111110000
11001001
1111111101110100
1111111111000110
1111111011001010
1010100
1001001111
1011101010
10001010010
1011010111
1111111101100000
1111111000010110
1111111111010110
1000111
1101101101
10000100000
1101001011
10111101
1111111010011001
1111110010111011
1111101101100111
1111101010111111
1111011101111001
1111111111110000
1111111000100001
1111111110111111
1111111010011000
1111111010011000
1011101
1111111110010111
1111111111110000
100000111
101110
1111111101000010
111011100
1111111110001101
1101111101
1001010011
1111111001001001
1111111010011000
1111111110001011
1000001001
1011010110
10101001001
111010111
1000011011
1111110111101100
1111101110111100
1111101110110000
1111101011100011
1111101100100110
11010000
1001000
1111111001000101
1111111010000001
1111111100100101
1111111110111000
1100111
111
10010
1111111000000010
11011011
110001011
110010000
1000111000
1111111111110101
1111111001111110
1111101101010000
1111111001101010
1011110011
100000000
1000000100
11011
110101000
1101101
1111110011010101
1111110000000100
1111110101010100
1111100111100101
110101010
101110
1111111101010010
1111111110000000
1111111101001111
1111111100000111
1111111001011100
11000100
1011011
1111110011001100
1111111110001011
10100101
11011011
1111011111
1111111111110010
1111110010101001
1111110110001001
1111110110001001
1111110011000110
1111111111011100
101111111
1111111100000100
100101
1111111110000001
1111110010111110
1111110000101110
1111110110010101
1111101101011100
11110000
1100100
1111111100000100
100111
1011101
101110010
1111110110101110
100100000
1000110001
1111110110110101
1111111011101111
1111111110011000
10000000000
1010101110
100000010
1111110110000011
1111110000111111
1111100111101101
1111011001000000
1111100001000100
1111110010101000
1111110111011111
1111111101110011
1111111010100000
1111111011011011
1111110011001011
1111111000001011
1111111000111010
11010
11000000
1111111011101011
1111111011101011
1111100
1111111110100010
1111111000001101
1111111111010001
101101111
1111110011111110
11010001
110111111
10100100101
10000110110
1111111111001110
10011101
1111101011101010
1111101011011000
1111101011110001
1111100011011101
1111011111101001
1111101111100010
1111111010000001
1111111101111001
1100011011
1111111000000011
1111110100111000
1111110111110000
10110110
101011111
11001100
1111111001100010
10101000
1111111111111000
1111110101000010
1111111001010010
1111110111101011
1111111100010100
1100110001
1101010111
1000110001
1111010
1111111010001111
1111110110011000
1111101101000110
1111101000011000
1111111100100101
1111110001100100
1111100001010111
1111110011111001
10011110
1000000000
1101110001
1111111011001010
1111110101010011
1011111
10001001
110011100
10111001
1111110111001001
10111010
100001000
110111100
1111111001001011
1011111
100011
10011001001
1111111110000111
1111101101011100
1111101000000110
1111101111101101
1111100011111110
1111101011001011
1111110111000101
1111111101001111
1111100111100000
1111101001101000
110010011
1111111101100000
100101010
1010101011
1111111011100010
1111111111110010
1111111010100111
111011
100111000
1111111001001001
1111110110100110
1111111011111110
101111111
1000000101
11000010
1101110001
111101111
1100011100
1111111111000011
1111100111001001
1111011011111110
1111100111101011
1111110000001011
1111101100110100
1111101110110100
1011100
1111111101011110
1111111100101101
1011111001
1111111110111010
10110110
1111110011
1000011010
1111111110010110
1111111101001000
1111111111111101
101010100
1110111
1111111101110111
1111111101010000
1111111110111110
1111111101011111
1000010111
1100001110
111100010
110010001
1111111000101011
1111110001000111
1111100101001110
1111110111000001
1111110001000000
100110100
1110001100
1101100001
10001110110
10011011001
1010010110
1001001
111101001
1111001000
10001111111
1010110010
1111111001101110
1111111010011000
100000000
1111111100100001
1111111101000001
110101100
1111111110111011
1111111111011100
10011011
1011010011
10100001010
11001001
11111001
1111110000100011
1111110111000011
1111101011110000
1011011
1100100111
1001000010
10000110010
100111111
111100111
110011001
1000000101
111011
1011110111
1110001101
1001000001
11001
1000011
1111111111111111
1111111010000001
1111111001100100
1000001100
1111111000001100
1111111110001011
1111111001101000
1110110111
11100111000
1110000100
110011010
1111111011111000
101010
1111111010100100
101111001
1010011111
1011001110
11011010
11110010
10000001100
1111111101011100
1111110110101001
100011100
1000000001
1110110011
1000100101
1111111011011111
1111111000101001
1111111100010100
1111111010101100
1001
111
1111111010011001
1111111111001100
1111111110010101
10001100100
11001000011
10000010100
111000101
11110001
1111111100110011
1111111100110100
1001101011
1111010101
10101101011
1111111101011101
10000101110
10110111111
1100001
1111110011010011
110001000
1111111111111001
1011000
1111111011101101
1111111110010011
1111111001001111
100011
1111110111001100
1111111110000011
1111110110111110
1111111011110001
1111111110111011
1111111011011101
1111111101110101
10011011
1111111110001111
1111111001100010
111001010
1111111100101101
1111111110110001
101101101
1101000000
1011111011
1111111101100101
1110
10011101000
1111111000010110
1111110100111110
1111111110110011
1111111111001110
1111111011000101
1111101110000100
1000101010
1111110100000101
1111111111111000
110100
1111111111001100
1111111010110010
1111111010100110
110111
1111111000111011
1111110011110011
1111110001010010
10001111
1111111111100001
1111111101011110
1001011010
100111100
111001010
10001110110
10010100011
101111100
1111111000111111
1111110110101111
1111111000110001
1111111001101101
1111111101100001
1111110111011100
1111111100010100
1111110010001011
1001010
1111111111011101
1111111001101001
1100011
1111111111101110
1111110100001110
1111111110010001
1111111101000111
1111110001010100
1111110110000000
1111111000000001
1111111010011111
1111110110101111
1111110101110111
1111110011001110
1000000000
1110000100
10000110000
1001111100
1111111101010011
1111100000100010
1111101101000111
1110000101
1111111100111100
11011100
1111110101011010
1111110100101010
1111111000101010
1111111101000100
1100110
110110
1111111101000100
11010100
1010
1111111100011111
1111110101001101
1111101110100111
1111110111000110
1111111110001111
1111101110011100
1111110100110111
110111
1111110100111011
10001100
1100111110
10001101110
101
1111110010011100
1111001110000101
1111100110100110
1111111100001101
1111111101110010
1111111110100000
1111101101110101
1111110111000111
1111111011011110
111010010
1111111011010101
1111111111000101
1111111011111001
1111111110111100
1111111111011010
1111111010101000
1111110101100011
1111111000010011
1111111110111010
1111111110101010
1111101100110110
1111110010011000
1111111101110001
11001010
1111111
1101011001
11100001011
10011000
1111111010001001
1111100011111000
1111101110011100
1111101110111110
111101
1111110110111011
11
1111111000001110
1111111000010001
1001010010
110110110
11010000
11001011
111001
1111111111110001
1111111101010001
1111111000000100
1111110111110000
1111111101100100
1111111001011111
1111100111010100
1111110110111011
1001000111
10000100111
1100101101
1101110101
11000101000
1001011000
1111111110100010
1111111001000111
1111110011011110
1111101010000010
1111111100001111
1111111111110100
11110110
1111110011001001
1111111101000100
101111101
1001000111
101010011
110101010
101100001
11000011
1111111111100011
1011000
1111111011010111
1111110010110001
1111110100010001
1111101101100101
1111110111111011
1111111111000000
110101001
1100011000
110000101
1111111111110100
110011111
1111110111111011
1111110101101110
1111110101011110
1111110001011000
1111111101111010
1111111011111000
1111111110000111
1111111101001011
10101100
100101100
110100111
111101010
1001011111
111101010
1010111011
110011010
1111111101101000
1001111101
1111111101000110
1111110100001010
1111110010000001
1000
100110100
1001110
1010001000
101110010
1111111110101101
1000000001
1111110110000100
1111111100111011
1111101100111001
1111110001101000
1111111011000001
1111110001110110
1111110111110101
100
1111111110100001
1010001001
110011111
10000100
101101100
10110111
10110101
1111000
1000001
110101
1111110100010100
1111101111100111
1111111000111110
101111111
1001111100
11101111
111111110
10010111
10100011
110110110
1111110111110110
1111111100011000
1111101101110101
1111110111001111
1111111011111111
1111111001111010
1111110111011000
1111111001111001
100110001
1010111010
110100100
1111110111111111
1111111100001010
10110010
100000000
110011
1111100
1111111011011110
1111110010101000
1111111001000011
1111111011010001
10110001
1111111100010010
110110100
1110100
1111111100111011
1111110101010011
1111110100001101
1111111101110101
101010
1111111010000111
1111110101100100
1111110010001011
1111110011010101
1111111000101100
1001001011
1000011010
1110001101
100101100
1111110111000010
1111110011111000
11100011
100110010
1111111100011100
1111110100101011
11100001
1111110011010111
1111110010110011
1111110011001111
10010000
1111110011001010
1111110100010011
1111110010010000
1111111011001001
1111111001101001
1111111001011110
1111111110000110
1010101
1111111111110100
1001001
1111111111001100
1111110100001111
1100101
1101011010
1010101111
1101100000
1111111100011001
1111111011010111
101001100
110100011
1111111100111100
110000001
1111111111101110
1111111100110101
1111110011010110
1111101101010000
1111111011001100
1111110010101111
1111111000011111
1111110111010111
1111110111111100
1111110110101001
1111111001110111
1111111110100100
11111010
1101010010
1000100011
110100010
11100010
1000111000
1100101101
1110001010
10000111100
10000100111
1111111011001001
1111110010010010
110011101
1111111011100100
1111110000100100
1111111000011111
10011110
11110
1111101101000100
1111101100010111
1111111101101011
1111110110111011
1111110010011101
1111110000110010
10101101
1111111111010100
111000000
1101010
11110101
1101111111
110001001
10100111
1001100100
1001010011
1100100111
1010001011
1101001110
1100000110
1110000
111001101
1111111011010101
1111111010000000
1111110010001000
1111111001100100
100011000
1111111111010001
1111110110010000
1111111000010010
1111111111010101
1111110101111110
1111111100001110
1111111111000110
101110010
1010000100
101111000
1111111111001100
1111111000110100
110000
1100101
100111
111110
1001010100
101110100
1000001010
1010101111
1110101000
10001
1011110
1111110110111001
1111110110001101
1111111001010111
111011
111010101
11011001
1111110011011100
0
1111110101110100
1111101010010000
1111100111110100
1111111101101111
111110111
100101111
111010111
1111111100000111
1111111101111110
101110100
1011111101
111001101
111001010
101000100
1111111101011010
101101110
1001001010
11010100
