1011001
110001101
11111111
110000011
1001100010
1001010110
1010010100
11000001
1001100
11100111
110110111
1111111010110110
111111
1111111001101001
10101011
10100100100
1101101110
111110101
1001001000
1111110010100011
1111101011010000
1111101101111001
1111101111110010
1111110000100010
111000010
10111011111
11101111101
100110010011
1111111111100100
100101011
10110000
1111111101011000
100110110
11000000
10010010
1111111101000110
1111111011001011
100100
101001101
1111111110000100
1111111001111110
1111111111010000
1111111100111101
111100101
1110000110
1111111010100110
1111111100101011
1111110101001100
1111101101110011
1111110101001111
1111101110100010
1111110110100110
110011101
10100111001
10101111111
11010100011
1111111011011000
1010101
1111111101111101
1111111110110101
1111101
111111010
111100111
1111111110011101
1111111011010101
1101010011
100000010
1111111001010111
1111110111011001
1111110100101111
1111111001010101
1000
1010110010
1111111110011011
1111110000111001
1111110001111000
1111101101001100
1111110111111011
1111101100010010
1111110001001001
110110111
1101000011
1001110010
10111111100
1111111001100101
1111111111100001
101000101
1000111010
1111111101001000
111001100
1110000100
1111111101010011
10011011
10101101111
1001001100
1111111101010011
1111111100010010
1111110010011100
1111101101000010
111100
1111111111001110
1111111111001010
111000110
1111110101110111
1111101100101011
1111110000100000
1111110101010011
1111110010100011
10000
100111101
1100101101
10100101010
1111111110011111
1111111100100101
10100011
100101011
1010111
1111111111100010
1111110000
111101111
111111111
10011101100
10010111110
1111111001011101
1111111011011011
1111110110110011
1111110000010110
1111111110000001
1111111010000011
1100010110
10111001001
10000100001
1111111000111001
1111110100000011
1111110110110101
1111111101000010
1111111110000000
100111110
1011001001
110101110
1111111010001011
1111111010100001
1010011
101101100
1111111111100111
1110001
1001110110
11010001
10110101
10000101110
111010110
1111110011001101
1111110110011001
1111110111111110
1111110111110110
1111111000010111
1011011
10000100101
100110111
10111000
111010110
1111110000000100
1111111001111000
1111111011100011
1111110010110010
1111111110110100
1000001111
100101101
1111111000101011
1111111001011011
1100011
1011111
1111111001010001
1010110
100011101
100011110
110110110
1000000101
1111110111101001
1111110000110010
1111111101111111
1111110000010110
100000110
10000111
111000001
1100000001
11100001
11001100
1111101
1111110101101001
1111111111111111
1111111111010111
1111101100010001
1111110101101111
1111111111110111
1111110110011011
1111111011100000
1111110100110100
1111111010111001
110101
101100
1111111101101010
100010
1011111101
1111111110010101
1010110010
1111110101110110
111001110
10100110010
10011010001
1100000111
1010111010
111001
1111111100011001
111101
1010110011
10001110101
1111110010000000
1111111110110101
110001101
1111110011101111
1111111001010011
1111111010110111
101011
1111111111111101
1111111010011100
1111111101101110
1001110000
1111111001101101
1111111011000000
1111111010010111
101111000
10101
11000111
1111110111001011
1101110111
10101010100
100011101110
11010110100
1111111010111011
1000101010
1000100001
1111111100011011
101001
11001111
1111110011000011
1100101
101011
1111101110011000
1111111000111010
10101110
11001110
110010
1111111110010101
11010000
110001010
1111111100010011
101000
1111001
1111110101100010
1111110101000000
1111110110000100
1111110111100111
1100101100
1000010
10101011101
10000100100
1001111010
1111110001111000
1111110000001110
1111101100110100
1111110001001010
1111111000011001
1111111010111101
1111111101111101
1111111100110000
1111110101001110
1111111101001110
1111111001011010
111001
1111111111000100
1111110111100000
1010101
11011010
1111110100110110
100100
1000010
1111111111110000
1111111000011101
1111101000001011
1111110000101100
11111001
1111111110101011
1111111111010011
10100101
1111111101000010
1111100101010101
1111111000101001
1111111100001010
10110000
1011001
1010010011
1000010001
101001110
1111111101010001
1111110111011011
1111111011011010
11000101
1000010
1100110
111000011
1111111101010111
1111110101110111
110110100
1111111101001110
101101010
1111111011111100
1111100101011110
1111100100100001
1111110001100110
1111110110101011
1111101110111001
1111111010110010
1111101100010011
1111110001110001
11001001
110110001
111110000
1111111101011111
11011010000
11101000110
1000001001
1111111110011100
1111111011100101
1111111001101001
1101110
110010100
11010100
1111010
1111111111000101
1111110110101000
1111111010010100
1111110111110101
1111111101101111
1111110011101100
1111101011111001
1111110111101011
1111101000101110
1111101111101110
110000000
10
1111111000011101
1111111000110111
1111111010000010
1100101001
11101011
1111110011001111
10000010110
10100001110
11111101
110101111
1111111001100001
1111111100110001
1111111100111110
1001010
1111111101101110
11011000
1111111010101100
1011101
1111111100010111
1111111110011101
11010000
10111010
1010111
11011111
100110101
1111111010100010
100111110
1110110011
1111111101001111
1111111011100011
111001010
1111111001110000
1111111101011011
1111111010000011
10001100011
11000011011
1001101110
1110010000
101111110
1011110101
1111111000111111
1111111111000101
1011
1111111100111001
1111110110110010
1000001
1111110110100100
1111111111011100
1111111111011100
1011111010
1001100100
10100
1000000101
101010001
1111110110010111
1111111101000000
1111110100101000
1111110010101111
1111101111110001
1111110101001000
110110011
111010000
1011000011
10100100010
1101101101
10001010010
1010001001
1101111101
10010010
1111110111110110
1111111110111001
1111111000011100
1111110100111110
1110111
1111111011011001
1111111011001011
110011100
1010111110
11111001
1110100101
1110001111
1010010101
1110010010
1111110011101011
1111100111010001
1111101001100101
1111110001100000
1111111100011100
10010011101
11011101010
1111111001000101
111101100
1001011010
11011011101
1010101101
101101010
1111111011111000
1111110100000101
1111111010010010
1111111100100111
1111110011010011
10101010
1111111100001001
10100000
100001010
100001001
11101101
10011100001
11001110011
10111110
10011101101
1111110111100010
1111100100111010
1111101101010110
1111111100111101
1111111110001100
100101010100
11010000011
10101111
111101011
10100101100
10110011010
1001010
1111111111000011
1111110110001001
1111111000101010
1111111000011110
1111111101100000
1111111011111110
11001000
11011010
100100010
1000011
1111110101100010
1101101
1100100001
11000010011
111011110
1111111011111000
1111110110110000
1111101001000011
1111100011000111
1111101010011011
1111110100100000
1001100001
1111111110001100
10001100001
111
1011000000
1001100101
1111111100010101
1111111101111001
1111101110100000
1111101110101001
1111110100100011
1111111001011110
1111111110011110
10110110
101
1111110111110100
1111111000101100
10100010
101000
1101010100
1010000101
1111111101101001
1111101110101010
1111101011100000
1111101111011101
1111100111010100
1111100000111100
1111011111110110
1111111000100100
1111111010111010
1100100011
11111100
110110
1111111100001011
1001110010
1111111101010011
1111111111100111
1111101010001111
1111111001101100
1111110000001101
1111110100100100
1111111101110000
1111111110010010
1111110101010110
1111111011110101
110001
1000011001
100000011
110011
1111110101000011
1111110111110011
1111111110000010
1111110001011011
1111111100011011
1111110101010010
1111101110101010
1111111011011011
11011010
100001010
10101011
1111111111000010
101111111
10111101
1111111110101000
1000000000
1111110011110110
1111111000000110
1111110000110111
1111110111001001
1111110001101110
1111111001110010
1111110111000000
1111101101000000
11010
1111111100101000
1110
1111110101111000
1111110011111000
1011110
1111110010001100
1111110000100111
1111111010110100
1111110100111001
1111111010111101
1111111000101100
1111111001111011
11110
100111001
100011110
1100010010
1111111111010110
11101111
11100010
1111110110110101
1111111001000101
1111110011111000
1111110011000100
1111110011001111
1111110111000110
1111111011110110
1111110010110001
1111110110010010
1111111101111001
0
1111101110010110
1111100110110011
1111110101011110
1111110000001101
1111110001011111
1111111010001100
1111111000001011
100101100
1111111100101110
1000111010
1100110111
1111111111010011
1000011101
101001000
10000000
1111110011100011
1111110101001000
1111110001011111
1111111100000000
1111111001110000
1111111111010001
1111110110100110
1111111011101001
1111111100100110
1111111100101010
1111111111100110
1111111101100111
11000011
1111110011111001
1111111011011101
1111110111111000
1111101101110001
1111101111010110
100010011
110011101
1111110100101101
1111111101011001
1101101100
110010100
111100
10101110
110010100
1111111110111110
1111110100011111
1111111011111011
1111110110001001
1001100
1111111110011010
1111111111010011
1111111100000011
1111111001101111
1111111101011110
1111110110100111
10001101
110100111
1111111010100010
1111101111110110
1111111111110001
110100
11010001
10101100
111010100
1000101111
1111111011111011
110100110
10101001
10000010
10000001
111100011
1111110011100111
1111111010111011
1111111010111011
1111111011101011
1111110010110000
1111111100011000
1111111100010110
1111111001101110
1111111111100111
1111101111101111
1111110011110010
1111110101111011
1111111100110001
100000
1111110001100001
1111110000000001
1111111100011101
1111111100100110
11000100
1101110010
1100000011
101000011
1111111100110100
1111110001100100
1111101111000111
10001111
1111110110101010
1111110101101001
1111110100000010
1111110000000110
1111111111011000
1111111111111010
10101011
110000011
1111111101001000
1000101001
1011000011
1111111010010111
1111111010101111
1111110010001011
10101111
1111111100100100
1111101111010001
1111111001001111
1111111100111100
1111110110110101
1111110111111101
1000100101
1111110110110101
1111111010111001
10110000
1111110111001100
1111111100010111
1111111010101011
1111110110110010
1111111001100011
1111101100100000
1111110101111010
1111111111000001
1111111100010101
111001111
1111111010110010
11001110
1011110110
1010111001
110101
1111110111001100
1111111110001010
10101111
1111111101011010
1111110111110110
1111111110101111
11101001
1111111100111111
1111110111110000
1111101
1111111111001111
100110101
1111010
10100000
111010101
110101111
111010010
1111110101001111
1111111011101011
10010100
1111111011000101
1111111001001100
1111111110101001
1110010
101101100
1111001000
11111000
1111111100111011
1111111011001100
10110101
1111111110100100
1111111010110111
10000000001
10111000010
100000000001
1011001111
10100011
10100000111
1011100100
1111111100110011
1101110
1111110110110000
1111111100001011
1111111011110001
1111110111000000
1111111010011110
1111110111001001
1111110011001111
1111110111110100
1010010
