1111111111111100
1111111011010100
1111111010001000
1111111100101010
1111111010001100
111001111
111011
1111111101111101
1111110110011010
1111111101110010
1111111111011001
1111111001101100
1111111000001000
1111111100000111
11001101
10010001000
1111010111
1000001111
1111111101111100
1111110001101111
1111100110111111
1111100101100100
1111101110010011
1111110101011110
110110101
10001010100
11111001110
100011101001
1111111011111001
1100011
1111110110011110
1111111010000100
1111111000001011
1111111110100100
1001
1111111110010100
1111110110111101
1111110110110111
1111111001100000
1111110110111011
1111111101000000
1111110110111101
1111111111001000
110101101
110111101
1111111110001010
1111110111001100
1111110000001111
1111101001101011
1111101010100110
1111110100000110
1111110101001110
100101101
1100101010
10011011100
11011100100
1111111001110000
1111111001010010
11010
1111111110011110
111
1111111101011101
1111111010110000
1111111011010000
1111111000001010
1111111011000000
1111111010000011
1111111010010001
1111111100011110
1111111010011100
1111111110011101
1111111111111001
110111100
1111111000100100
1111101010000001
1111101100010101
1111100111110010
1111101100011011
1111101111001110
1111110101101010
11011
110011011
100100000
11000111101
1111110100011101
1111110101011110
1111110110000001
1111111000010000
1111111101001010
1111111111101000
1100101
1111111001000000
1111111111011011
1001011001
1011011000
1111110010101101
1111101110010100
1111110000010101
1111110100101101
1110000111
1100001
1111111010001011
11010010
1111110011010100
1111110010001110
1111110101011101
1111110011001101
1111110101101101
10100000
1010000010
1001011000
1110011001
1111110100100001
1111111001001001
1001010
1111111101011100
1111111011111010
1111111101111000
111101001
11010111
1111111101000101
10111011
100111001
1111110001100000
1111110010101010
1111110111010100
1111110111001100
1111111101111100
1111111111110001
1110000110
11111100011
10010010111
10000011
1111110110100010
1111110000011010
1111110101110100
1111111111010100
101010010
1111111111001101
10111011
1111110110000000
1111111001010011
1111111001000001
1111111010110110
1111111100000010
1111111101101101
111000
100100
1111111100111101
101
10011010
1111100101110000
1111101110111111
1111111001110100
1111111010111111
1111111001110110
1111010000
1111111110
10011010010
11000100101
1110101010
1111111100000011
1111111101000111
110110
1111110011001000
1111111001111101
1111111111010000
1111111110110001
1111111101100000
1111110110011011
1111111111110010
111101
1111110100100101
1111110101101111
101001101
10110110
1111111001010111
1111111110101101
1111101110101000
1111101111001011
1111110100111001
1111110101001110
1011001101
11011111
10101110111
1111110010
111000100
1110101111
11000001110
1111111110101101
100011111
101010
1111101011100011
1111111001101010
1111111011110010
1111110100111001
10001101
1111111010110011
1111111111011011
1010101
1111111101111110
1111110110010100
1111110011101101
10111011
1111111111111001
1111111001111110
1111101110001010
100001111
10110000000
1111100110
1100100110
1010001010
100110111
1111111101011010
1001100
11000110111
10100110000
1111110010100001
101010000
101011000
1111110010011000
1111110101100100
1111111001110000
10111
100000100
1111110110011110
100
1111111111010110
1111111100010110
1111110110010000
1111101010010110
1111111101000000
1111110110111100
1111111111111010
1111111010111010
110100111
10111000111
101010101110
11101011010
1111011
10001100101
1101010101
1111111000001100
1000101000
1111100111
1111111011101100
1011100000
1111111100000000
1111101010111001
1111110000100100
1111111000110101
1111111100101000
101001000
1111110101101001
1111111110010100
10100011
1111111110110101
1111111010110101
1111110101111000
1111110101101111
1111110101000110
11111
1111111101011110
1110001100
10000110000
100011000011
11001100010
10110000100
1111110001110100
1111110001000010
1111110101011011
1111111001100001
1111111101100001
1000001
1000101
101001111
1111110001001110
1111101111101110
1111111001111101
1111111001000110
1111111100100001
1111111001010100
1111111100101111
1111111101110001
1111110100111111
11000011
10010001
1111111100110110
1111111001010110
1111101101011100
1111111110001101
101011101
1101111011
1010011011
11000001000
1001011111
1111101110000101
1111110001010101
1111111011001111
10100001
1111111110110010
1100101001
11101100
1010100001
1111110010101100
1111101010011111
1111111000100001
1111111000111111
100011110
1111111110000001
1111001
10101011
1111110110111010
101100
1111111010111110
110111
1111111100100010
1111101110101101
1111101111011100
1111110100010110
1000001010
1111101011001110
1111110110011100
1111101001010001
1111110101111111
1111101110101011
1111110001010010
1111111111101110
1111101110001101
10010100111
10110100110
110010100
1111111011111011
1111110001100110
1111110011101010
1
1100001
1111111000010011
1110010
1111111110011101
1111110111010100
1111110110111010
1111111101011101
1111111011011000
1111110000111110
1111110000011110
1111111100110110
1111111000101110
1111110111000101
1011
1111110001011001
1111101010001100
1111110010111101
1111100000110001
1111111100110101
1111110010110110
1111100111100000
1001011101
1011010100
1111111111110011
1111111110011010
1111111001010000
1111111111010011
1111110111101101
1111111111100001
1111111010010000
1111111001010011
1111110100001100
1111111111001111
1111110111000110
1111110111010001
1111111111011001
1100100
111010
1011011100
100110100
1111110010000010
11111100
1111111101101101
1111100111111100
1111110010100011
1111111011101100
1111111111100010
1111111110000101
1111110010100111
1010011
100100100
101000110
110011011
10010110
1101011111
1111111100011101
1111111001110101
1111111000011110
1111111110101110
1111111101001110
1111111101111000
1111111001001011
1111111101100111
10000000
110000011
111101110
11111101
1111111001001001
1111111011100111
1111110111100110
1111111011011001
1111111000100100
1111110111001111
1111110100111001
10001001
110101000
1111111100000111
1111110111100001
1111111110001011
11111001
10101110000
110111011
1100110000
1011011
1111111011101101
10010110
1111111011000000
1111111100101000
1111111111011000
1111111011011011
1111111000000001
11100100
101010110
101010100
1111111111010101
1111111111110011
1111111110010110
1111111101110010
1111110001110010
1111110011101000
1111110001011100
1111111011111111
1111111111101101
11100011011
10000011011
1111101110101000
1111111011001101
11000011
10110101111
1011001111
11100011
10001
1111111001000101
1111111100010010
1111111101011101
1111111001001100
100111111
1111111101101111
101010011
101101100
100110001
11001011
1101010011
1111111111101101
1111110000001100
10000001001
1111111000011111
1111100100001000
1111110110001000
10111110
1001001101
100101100100
10101010100
1111110111001111
111011000
10000001111
11000010110
1000011010
1111111111001110
1111110110010101
1111110001110110
1111111101111110
1111110111101100
1111111100111011
101000000
101
1000010000
10010111
1111111111011100
111100010
1110001110
110101011
1111110011011100
1111110100010000
1111110000100001
1111100100101000
1111101000000100
1111110111000111
1111111101011101
10110100111
11010
1110011001
111011
10011110110
11111111
1001111011
10100110
1111110010111011
1111111000110001
1111111001110101
1111111001010111
100011101
110111010
110100111
101110111
1001001011
11001100
10100100
101011001
1111111101111010
1111111000111010
1111100111001100
1111101100000101
1111101101000100
1111100010001011
1111100111111100
1111101001010011
1111111000110100
1111111110011110
1110111111
11010001
1111111110011101
1111111011010001
1111011010
101111111
1111111111111110
1111110110110001
1111111111111110
1111111000011011
11110011
101110010
1100000
100010000
11110011
100010011
101001101
110101110
1111111100011010
1111111010110001
1111111001000011
1111110110110000
1111101110100011
1111111101111010
1111101111010011
1111101101011100
1111111000100010
1111111110011000
1011100110
1100011010
1111010
100000000
10001000101
1000000010
1010010001
1111110011001001
1011
1111111011110100
1111111101010011
1111111010110001
10110001
1111111111101001
1111111101111100
101010100
11001000
110100010
1111111001000001
1111111111101101
1111111011101001
1111101110101100
1111110001000100
1111111001001001
1111110010011110
1111110100000001
1111111001001110
1111111011100101
100001001
1111000010
10100010
1011011110
1011101101
101110111
110000000
1111111000110001
101001110
1111111100010010
11111
1111111110101010
10101000
1010100
11100101
11001000
1001001011
111101000
1111111100011110
1111111010101010
1111110110000000
1111111010111000
1111111100000001
1111110110011111
1111110111010100
1111110111110100
1111110000010001
110100001
1011111100
1000111110
1101001011
1011110001
1010101100
1111111011100101
1111111101001001
1111111011101101
10001001
11111011
101101000
11100101
10001111
1001110110
11110
1100100000
1001111110
1011011100
1111111101111001
10010011
1111111000110011
1111110110000011
1111111010011100
10010101
1111111101000101
1111110001110000
1111111101001101
1111011000
110110100
1000111000
1101100001
1101010100
110000011
1111111110010001
1111111101111001
10011111
1000101001
1001011111
1111111111100110
1111111011110010
1111111111101001
1111111110000011
1111111001010110
11101
1101111001
1000001100
1111111011111001
11010011
1111111001011000
111100
1111111010010100
101001101
1111111100110100
1111111000110110
1010001
10111
1101010
1000111111
1010001110
1111111101101100
1111111101011010
11110
10110011
11110
1110101011
1111111111001101
1111111101010101
1111111001001110
1111110010001001
1111111110000001
1111101101111000
1111111000110001
1011011101
1111111100110010
10111111
1111111111100110
1111110101101001
1111110111010110
1111111110001110
1111111011010100
1111111010100100
1111110111000100
1111101111000110
1111110111101000
1111111101010010
1111111010100100
1111111100011000
1111110001101000
1111111001010011
1111111111100010
100000000
1011011001
1100110110
1111110
10110001
100111000
1111111110101000
11101
1111110010001110
110111101
1010001011
1111111000011001
1011111
10001001
1111110111010111
1111110101110100
1111000
1111110100011111
1111110110000111
1111111011000110
1111110111010100
1111111101110000
110100011
1111111010010011
1111110100110100
1111110000110101
1111110100001011
10010010
1111111100001001
100011111
111011111
1111111111010011
1011101010
11110101
1111111110010101
1111111001001110
1111111010100111
1111111111111001
1111111011100100
1111111011110110
1000111010
1111111110100111
1111111011111110
1111110100011000
1111111011001010
1111111010111110
1111111101000010
1001010011
1000100
10000000110
1000111000
1001110111
10001110
1111111010010010
1001010011
1011111
1111111110111111
1000101001
110110001
1011011101
1000000001
10010111
1111111001011110
1111111000101110
1111111001011000
11000
1111111110101011
1101001100
10000000110
10101011110
110010011
1111111011110010
1010000110
1011111
1100001111
1100011100
101101
110001110
1100010
1111111010011000
1111111100000110
11
1111111001001100
1111110110110000
1111111011001111
