110000110
1010010111
1001100110
1111111110010001
1111111111111100
1111111101010110
1111110110101011
100110110
1001011001
1011111010
111100111
1111110100001101
1111101100000111
1111101011100101
1111100100000100
1111101101000011
1111111010001011
1111111000001010
1111110011110000
1111111001110000
1111111101010000
11001001
1001110001
111100010
1000001101
1111110101000000
1111111000001111
10100100
11
110110000
1111111110111100
1111111011111101
100011111
1110000
1111111110010100
1010110
1100101
1100000010
1111111111001101
1111110010010000
1111110011010110
1111101110001110
1111101011001010
1111110100001101
1111111111001111
110011110
1111110111010110
1100110
10111011
10000010
110110100
1010111101
1001100100
1111111111001111
111110001
100111101
111010010
10100101
1111111101100000
11101
1111111111101111
1111111101101000
1111111111111001
101001011
1101101101
1100010010
101001
1111111000110110
1000100
1111110001101101
1111111000110010
1111111101110101
1110101100
1011110010
111100000
101000011
1010110
111011100
1111111110010100
1111111100101110
1111111110101011
1111111111110110
10111001
1111111110001001
1111111110111001
101011000
1111111011110001
1111111100000010
1111111010101100
1111110110000110
1100100000
110101110
101010110
111010011
10000001
1111111110010101
11111
1111111001000010
10110001
100110000
11111100011
10011000000
1110110100
1111011100
101110011
10000111000
11111001
1111111000010110
1111111111110100
1111111111000101
1111111111110001
101101
11001000
111110100
11111
10101101
1111111101111001
1111111111000110
1001000
110010000
1111111111001101
1101100111
10101
101101
1111111110011011
1111110101111101
100111011
10001011101
100011010011
10110100000
10001110100
1011000000
10000100101
1000101110
111000000
1111111011010010
1111111010110011
1111111010110110
10111000
1111111111001010
100101101
1100110
1111111100010100
1111111011000111
10100100
10001011
10010000
1001101
11110011
10110000110
110101110
1111010011
1111110110110110
1111110111100001
1000000011
10000101000
10100100110
100010001
1111111001010011
110101010
1001100011
1001111011
1111111011001110
1111110101011010
1111110001101101
11100
1101101111
1101010
1111111100001010
1111111100100110
1111111000010010
1111111111101110
110000
1001110
101110100
111101010
1001111001
10000010010
1000011000
1001011011
1111111011111000
1001001
1111111101111101
111
1111111101011101
1111111001110100
1111110000111011
1111110111111001
1111111111111101
100010010
1111110011111101
1111100000000010
1111110011100000
101110011
1111101111
1010000001
101101
1111111100000000
1111111110001111
1111111110011101
1111111110110110
1111111111010100
1110111111
1111111110100001
1111111111010010
10100011
1111111111011101
1111110110010011
101111101
110111000
1010100100
11001110011
1010011100
100100010
1111111101001110
1111110111100100
110101111
1111111100010001
1111110001010101
1111100100101000
1111110001111101
1001001110
101001001
1010011011
1111111000110101
1111111011000111
10001101
1100011
1110001
1111111011101010
1001111010
1111111010000101
1111110111011001
1111110011001011
1111111011111001
1111111101110110
110010101
1111010100
101001111
11000000111
11110111
1111111011011101
1111111011000000
1111110111001110
1111100111010111
1111110000011110
1111110111111010
1111110101111000
1111101100011001
1111110111011111
1111110110111111
101100011
1111111010000010
1111111011110110
1111111111001101
10111
1111111101011100
1111111001001000
111101101
1111110111001011
1111001
1111101110110000
1111110110011111
10011000
1001000110
1111111101001000
1111110100110110
1111111111100010
1111111110111000
1111111101010100
1111101101011000
1111101110111111
1111101000101011
1111100111010001
1111101111101110
1111101100010111
1111101100001101
1111100111010101
1111110001011001
1010000111
1111111001110011
1111110101100000
1111111011100101
1111111110011010
1111111110010101
1111110111101011
11010110
10110000
11011100
1111111010000101
1111110011001101
1111111111011011
111011101
1011111100
1111111110110010
1111111000001101
101100110
1111110011111011
1111100110011101
1111101111011011
1111110100101100
1111011111010011
1111101010000000
1111101011101100
1111110000001100
1111100100011111
1111110011101110
1001011101
1111111101101000
1111111001111101
1111111011101101
10011
111110
1000001010
1001
11000011
1111111010010001
1111101100010101
1111110011101000
11011000
111000010
1101011000
1100001010
100010011
1111111111001000
1111110101111001
10101001
1111111001001101
1111101101110100
1111001111110100
1111110011100011
1111110001011011
1111110011010010
1111111101101001
1111111001011100
110000111
1111111000011011
110110
1010111
1010010010
1111001010
1010101010
10011110
1111111110100111
1111110100000111
1111101110010011
1111101001100100
11001011
100111000
1111111110101010
1111111100011001
10000001001
1111101001100010
1111101100011000
1111110001001011
1111101010000001
1111100011101100
1111100000010010
110110100
1111111000111011
1111111010111110
1111111101100111
1111111011011111
1000001001
100110111
1000001011
1010101100
1010100001
10000000010
1110110000
1110010
1110101010
1111111011000011
1111101011110100
1111110100000001
1111111101111100
1111111101100111
1111110111101101
1111101011001001
1101000100
1111101100110010
1111101100001011
11000110
1111101111011110
1111101010010111
1111111011000010
1111111111010111
1111110100010001
1111110101110101
1111110100010001
111000
1111110110101010
1110111001
10111101
11111101
10010010
1001100110
1101110101
101001001
111100000
1111111010010010
1111111100100100
1111110110000110
10111111
11111
1111110000111011
1111110110001110
1111111100010011
1111101111000011
1111110101100010
101011100
1001111100
1111111111110011
1111111001101100
1010110
100010100
1111101110101001
1111111011000111
1100101
1111111110101110
1100111100
100011100
110111110
101000010
1000110000
110100100
1001111110
1010111011
1111110110100101
1111111010000110
1111111111011010
101001001
10111001111
1111010011
1111111001000001
1111110010001000
1111110101101110
1111111001100010
1000010000
1100110001
1111111101101011
1111111100100110
1111111111111111
1111111010011001
1111110000110000
1111111111110011
110101
11010100
1010110100
1011111100
110011011
11000010
10011111
1110111
11100010
1101101001
10111111
1111110101101110
110111010
10010010000
10111101011
11001011
1111110111110000
1010101
1111111111111101
1111111000001111
110111000
1000000001
1111111010010010
1111111001001000
1111110111100011
1111110110101010
110001101
1010011010
100100111
1001010
100100101
11011100
1011001011
111000101
101010110
110110110
11000000
10101101
1111111100010101
1111101110101011
1010010111
1111110
1010001011
101101101
1111111110100110
100000101
1111111111001001
1111111011010101
1001100000
1111111001011110
1111111111110101
110110011
1111111011010001
100000110
100011100
1111111111010010
1111111101010001
1111110101110101
1010100111
1100
1000011011
1111111010110011
1111111101110010
1111111100100010
1101100
1111110111010011
1111111111111111
1111110101110010
1010001111
111110010
1111111010100000
11110000
1111111110100100
1111111001101100
1111110010101011
1111110110000101
1010111011
101111000
1110000011
1011011011
10100100
11000111
101110011
10100100
1111111110000011
1111110000010010
1010
10100001
10110111
1111110000001100
1111110101101001
1111110100110001
1111111001000110
1111110011010101
101011111
1111111000010001
1101101001
1000010000
1110110
110000101
100010000
111100011
1111111111101110
1111111110010000
1000111100
111100001
1011001000
10000110111
1111111010110001
100011100
100110010
1111111100111100
100011
1111110011110011
1111110110000010
1111110110111100
1111111011001000
1111110110100101
1111110101011001
1111111000111110
1111111010010001
1111110010111111
1111111100110001
11010010
1111111111010101
1111111000111101
11101110
1001001111
1101011001
110001000
1111111100001111
100101
1010011110
1110101001
10001110110
10110000101
1111111000100110
10000010000
1110
1111111001110000
1111111000010101
1111110001001111
1111110110011110
1111111101001000
1111110111011110
1111110100000110
1111110000000101
1111111001110001
1111110110101010
1111110001100110
1111111101001111
10100011
1001110
1111110010100111
1111110101110111
11100111
1111110111101010
10010000
1111110101111000
10011000
100110000
1111000011
10001110011
101101110
11011011
10011010010
1111111101000010
1111100
1111111100101110
1111111010011010
1111111001001001
1111111100101110
1111111100010100
1111110101100011
1111110010011010
1111101111111011
1111110100010010
1111110011000101
1111111000011001
101001
1111110100011010
1111101110010011
1111110111101110
1111111011101110
111100010
111100000
10001110
1111111101101011
101000001
1111111100001111
1111111101011101
1000111001
10011100001
11001101
1111111110000000
1111110111000000
1111110110000000
1111110000110101
1111110111010101
11
1111111010101000
1111110000011000
1111110011010110
110001110
1111111100010101
1111111011001011
1111111001011010
1111111000011101
1111111011000110
1111111100000000
1111111011100111
1101111111
10100111110
101101000
1101110
1100000110
1010010011
1111110110111000
1001111110
1000000110
10100001
110001001
1111111100111001
1111110110011001
1111110001111100
1111110000101101
1111110100111011
1111111100000000
1111110111011110
1111110111101101
101011111
11100000
100110101
1111111110001010
1111111110001000
100000010
1000001101
1000101111
1111111100010100
10011001001
1001010011
1111111011010100
101111
10101101011
1111111101010111
100000010
101011010
1111111000001110
1111111101100011
1111111000011000
11110
1111111100110100
1111110000001111
1111100110000110
1111101111010110
1111111001010001
1111111100110100
1011010000
10000111110
10000100010
111111
1100001100
100000001
1001011100
10100010
11111110
1111111111110110
10000101100
1010010011
1111110010011111
10001000
1001010111
101
11110000
1111111100100110
1111110010100010
1111111100000111
1111111100100101
110011111
1111111101001010
1111110010000010
1111110100001101
1111101010010000
1111110010001111
1111111110000010
1010101011
110110110
111100011
1111111001100000
110001111
1001001111
1011110011
1111111100110110
101000110
110101001
1100111010
1111111110011101
1111110100000010
1111111011000010
1111111001011001
10110110
1111110011101100
1111101000011000
1111110100001110
1111111010101111
1111111111011000
110001
1111111110000010
1111111000111110
1111111011011011
1111101001101110
1111110100001111
1111111110010011
10000010110
100011010
1111111110001111
1111110100101110
1111111000011011
1001111011
1111111110101100
1000100111
1110100
110110100
1111111110000010
1111111000111101
1111110011010101
1111110001110000
1111111001111101
1111111011101010
1111111000111010
1111110011101111
1111110001000011
1111111011111010
1111111101000111
1001100011
1111111111111110
1111111001001101
101011100
