1111111100000111
1111111011001000
1111111101010011
1111110111110000
1111111000100111
1111111110011001
1000110100
1111111001000111
1111111001000010
1111110110111101
1111110101111010
1111111111110100
110100
1100101000
1011110100
1101110011
1001010
100111010
1101011000
10110000
111011010
100001010
1111111010001011
1111110101011000
1111110110100001
1010010110
111001101
1111111110010100
1111110101100111
1111111001000110
1111110110011100
1111111000001110
1111110110110100
1010100
100110001
111000
1111110110011111
1111110001111000
1111110111001110
1111111111100000
1111111101000100
100010111
1100101010
1110101
1111111110101001
1111111011110000
100011011
1111111111111110
100011110
100111011
10001
1111110110111101
1111111101111000
1111111101110000
1111111011011111
10111001
1111110101111000
1111110111010110
1111111001011110
1111111011110100
1111111110111010
1111111100111010
1111111001100110
1111111101110100
1111101010010101
1111101100011000
1111110010010100
10010100
1111111010011101
100110101
1101
100001011
1111101001100111
1111110000011010
1111110111101000
1111111110110000
1111111100010010
1111111101100100
110001
1111111100001010
1111111011001101
1111111011000001
1111111101001111
1111111111010000
1111111110110001
1111111101101111
1110101
1111111011010101
1111111010100011
10001100
1111110101110010
1111110110110010
1111110110001110
1111101100100010
1111110100101110
10011
1111110101011110
1111111100101101
1111110100101111
1111111000111011
1111011101011100
1111101010101010
1111101111001000
1111110100010011
1111111100000000
1111111011011100
1111110011101100
1111111111000110
100101100
1111111111010010
11100100
1111111110101111
1111111100000001
1111111011010001
1111111111111011
1111111110110011
11001011
10010011
1111110000010110
1111110100010101
1111110011100001
1111101001111100
1111110101110100
1111110110001001
1111110100100100
1111111111010110
1111111011010100
1111101011011100
1111011110011110
1111101110111111
1111111001111001
1111111001111111
1111110101100011
1111110111011101
1111111010110010
1111111001010100
11000110
1111111110000001
1111111111111000
1000001000
1111111001100110
1111111001010010
100101001
1111111001001000
100000111
10000110
1111110100100110
1111111000010011
1111110001001101
1111100100101101
1111110001000000
1111101011010110
1111111101100010
1111111010011000
1111110110011100
1111110100011111
1111110011010101
10111011
11000001111
1001011000
1111110111000000
1111111100000011
101101100
1111111101111010
101101000
11011010
1111111010100111
1111111001010101
1111111001100111
1111111001001011
1001011
1100101
1010010
1111111010010110
1111101100011101
1111111010111101
1111110011101011
1111101010001000
1111111000001100
1111110000110010
1111110110101011
1111110110000001
1111111011111110
1111111111010111
1001100100
1010101101
1100110101
10011100110
1111111111001100
1111111100110101
10010000011
10111000000
1010110010
1111111001100000
1111111100010111
1111110111101111
1111111110100110
1100110
111011010
1111111101000110
1111111101111000
1111111101101110
1111100110000100
1111110110011000
1111111001001100
1111110000010000
1111110111010010
1111111001110011
1111111001110011
1111110000100111
1111111000101010
1111101011110011
1111110100101001
1111111011100111
11001111
111011101
1111110101011011
1111111101110110
1001010111
1110001000
1110110011
1111110110101010
11101101
1111111100011011
11000010
1111111110101000
1111111110010000
1111111000101000
111
11110111
1111101101110000
1111111110011001
1000001011
1101111110
1111111010001111
1111111110010100
1111111110011010
1111110100110000
1111111010111010
1111101100011100
1111111010100001
10111110
110000
1111010000
10001011110
110101100
1000110100
11001
1110111010
100000011
11010111
1111110110100101
1111111111010110
10011011
1111111101110010
11011
1111111101001011
1111111111000011
1111110101100100
100110101
110110100
10001000000
101001100
1111111111100100
1111111101100001
101111100
10011100111
1111000001
1000011
1111111010111011
100111100
1011110001
10010001100
10010100111
1101111100
101011111
100011101
1110011100
1111000111
1111110111001110
1111111101000110
1111111111110111
1111111111010101
1111110100100111
1111111011000101
1010011
1111110101111001
1111111001110011
1111111111110100
10010111110
1001101101
1110001101
111011010
1111111110010100
1000110000
1110000111
1111110001110010
1111111100001101
1110000001
10110010
1111111110110110
10010000110
10010111011
111001011
10001010
1100000110
1001011100
101101
101010100
11010011
1111111010100111
1111111110100101
1111110101010100
1111110010100000
1111111110111001
1111111001110100
1111111111001001
10001100101
1100111111
1010110000
1110011101
1111110111010101
1111101101001100
1111111001010011
1111111000111010
1111101010111111
1111100010110011
1111110110000111
1111111100001010
11011110111
1101111
1111111000
1111111010111011
1111111011001010
110001101
1111111101010000
1111111100010100
11101100
1111110111100011
1111110010000010
1111111000101101
1111101111011001
1111111000000100
1111110110000110
1111111100000101
1111001011
10110001010
1011100111
1010111010
1001111100
1111111010110111
1111101011010101
10110000
10010000
1111110000100101
1111111100100001
1011010001
1110000111
1111101101110100
1111011
1111111011100000
1111111010111110
1111111101100100
1111111000001111
1111111010110100
1111111001010110
1111110010101100
1111111011011111
1111110101110100
1111101100011011
1111110111010001
1111101111111111
1111111010111011
1011110011
10000000101
1101100110
1011010110
10010001101
10011100101
1111110101010001
1000000000
100101011
1111111001001110
110110011
110000010
1111110011011101
1111110010011001
1111111111011111
101001
101001110
1111111010101101
11011000
1111110111001010
1111110101100101
1111110010000101
1111111100001011
1111101111000000
1111110001101000
1111110000110100
1111110000000100
11110
110110100
101101010
1111111100011101
1111111
10101100110
10001100001
111000
10110100010
1110101111
1111111110000010
1111110111011101
100001
1111111000011101
1111101110110011
1111111010001001
1100000010
10110
1111111101011001
10001011
1111110100011100
1111111010001110
1111111000110010
1111111111111001
1111110111010000
1111110000110110
1111110101001001
1111101101010100
1111111101100111
100010110
11111
1111111000000001
1111100111001101
1111110011000111
100011111
10100011101
1001110111
100100001
1111111010010010
1111110001101010
1111111011101010
1111111101100100
1111110110011111
1111111110111001
10010000010
1111111100100101
11100011
1111111010111110
1111110100011111
1111111000010100
1111110101101000
1111111010101011
1111111011101100
1111111011001110
1111110111011010
1111101110000001
1111111001000101
100011010
1111111000111000
1111101000111010
1111101011110101
10001100
100011010
100011101
100001111
10001001111
1111110100110100
1111110110010010
11000000
1111111011001000
1111111110111101
1000100010
11101110
1111111111000111
1111111001101100
1111110111011111
1111110101100111
1111111011111001
1111110010100010
111110
1111111001100010
1111111101101111
1111111000111111
1111111010011110
100010011
1000100101
1111110000101011
1111110000011101
1111110110000001
10111
1111111101011101
1111110101111010
101110011
100111011
1111110111100111
110001010
10010111
1111110100111100
10101010
100111010
1111111100011110
111011101
1111111100100011
1111111110110001
1111111011101100
1111111101101100
1111111010110101
10010001
1111111110110011
11110
111101110
111110101
11011001
11011000
1111111010000011
1111110010010010
1111111111110101
100010100
10010110
101010011
111011110
1010110001
1111110011001001
1111111000001100
1111110111000100
1111110010000101
1111111010000100
1100001
1111110101101110
1111111101100010
1111111101101011
1111111111101110
1111111111000111
100100001
1111111100101000
1001110110
1011110101
11100110
1010011111
1011001111
1111111000001101
101000100
1111110101011100
1111110010111000
110001
1111111111001111
1111111110000011
11101100
1001101
111010001
1111110101100111
1111110011001000
1111111010011111
1111111000011100
1010111011
100011101
1111110111011111
1111111101010111
1111111110111000
100111110
11100011
10000100
110001
1000000001
1101010001
111011001
1001111010
10010001100
1111111100011001
1111111100101110
1111111101100111
11101100
100010001
1111110111101000
1111110110110011
11110100
1110010000
100111100
1111110101000110
1111110011111011
1111110001111111
1111110000110010
1100001111
1111110010001001
1111111010101011
0
1111111110101101
1111111111010011
11110010
1111011
1101001
111101110
1100100101
10010011
1011000011
1100011011
110110100
1111111110111001
111101001
1101100111
1011100001
100010110
1100011010
1010100011
1101011110
1010010101
1111111110011101
1111101110010110
1111110111100010
1111111111011000
1111111000111000
1111101111000011
101101
1111111001001000
1111111010100111
1111111111000101
10101000
10110000
101000001
101000100
1001111010
1100000111
10001101000
1010101111
1100000000
110000100
1011001001
10001101000
10010011110
1111010110
1000110001
1111111110010111
10011111
11000000
1111111011011111
100100110
1111111110101011
1111111111011110
1111110000101100
1111110101111111
1111111010010111
1011010011
1010101100
1101001100
1000110100
1111111111100011
11111010
1000001110
10111110
1111111010110100
100101101
1011110010
111010110
10000001010
111111010
1100001011
1101011111
1000
1111110111111101
11111010
101010011
1111101011111000
1111110001100101
1010000001
1111111010101110
1111111000101010
1111111010101100
1111111011010010
101101
100011111
1010110101
1011110010
111011110
1111100
1000001011
1111111001111101
1111111100101000
1111111010010101
1111111010111101
1111110111111110
1111111111011111
111010011
100000110
111001001
101101101
1111110100101100
1111110011000111
1000111110
111101001
1111101000011011
1111111100101010
1111110101001000
1111110100101010
1111111101011011
10110100
1111111100011001
1111111111100110
101000
1111101001
10011001000
110010000
1111111111110100
1111111011011100
1111110010111010
1111101011100010
1111110110100010
1111111001011001
1111111001000101
1111111001011101
10100101
1010110
110000110
1111111101100000
1111110001011010
1111101111110100
110100111
1111110100010011
1111101100111111
11100110
1111110100110011
1111111110000000
101101010
1111111010100010
1111111100001110
1111111110000000
1111111001111001
1000100010
11101110
100110100
1001110110
1111111001111011
1111110001110110
1111110111001001
1111110100011111
101010
10000000
1111111011110111
1111111011000110
1101010
1111111111110100
1111111010100110
1111101101110000
1111110110100001
1111111100111111
1111110001000110
100001111
10110100
1111111111111001
10100100010
110010000
100001110
100111
110001010
11111010
1111111011000100
10010100
1111010101
1000110010
1111111000000111
1111110011101001
1111111011010011
1111111110101001
1001100001
1000001001
1111111011010010
1111111111100111
1000
1111111010101110
1111101100010001
1111101100100100
1111111100001100
1111110111010011
10101000
10010111
1111111010111001
110010101
1011111011
1011000101
100110101
10101011
1111111110101001
1111111101100110
1111111011100110
1111101111111011
