11111011
1010000111
1000110111
101111111
110100000
1111111100111111
1111111010000111
1111111101110011
111110110
1000000100
101101100
1111111010000111
1111111011110001
1111110000010010
1111101101100110
1111111101111100
101010100
110010
1111110111101001
1111101100110010
1111110000000100
1111111001001100
1111111111100111
100010011
1010111101
1111111110010111
11101100
111001110
100101100
1001100
1111111110101100
1111111100011110
101011
1111111011011101
1111110110111010
1111111111011100
10011
1000010101
10100110
1111111000001011
101
1111101111110110
1111110011101011
1111111110100010
1010010010
1111111110011001
1111110100111110
1111110001001010
1111101110101110
1111111000001001
1111111011110001
1101110010
1100010010
1000100000
111011000
101110000
1111111100010111
11110111
100101
1111111111110100
1111111111101000
1111111101011010
1111111100100101
10101110
110011101
11010010
1111111000100011
1111111111010111
1111111101101110
1111111001110101
1111111101010100
1010
10101001011
1111011101
1111111011010001
1111111100001101
1111111000010100
11010111
1111111010100011
110001110
1010111000
101110001
1111111111000110
101010011
11111110
111100011
11110101
1111111100000100
1111111101001100
1111111111000010
110001101
1000000111
11011000
111000010
111100000
1111111011000001
1111110111000110
1111110101010010
110011110
1101101110
11011110010
11010111000
1101000110
1001000001
10011
1011001000
1100000100
11010010
10010
11110001
1111111111000101
100010101
10
100001000
1100101
1000011
11101000
1111111110110010
111111010
11011111
1100110
1100111001
1011010
1111111111001110
1111110110111001
1111111101011001
1010001110
10011000110
100100111110
10111010011
100000100101
11000101010
10001011010
1110111110
100111010
1111111101010110
1111111010000111
11011110
1111111101110101
1111111010100110
100000000
110000
101110
10011
1111111011111100
1111111100001111
111011111
1111111001010101
1111111111101011
10000101000
110100000
1111111011010001
1111110011111111
1111111000000001
101001001
10100110001
11001101001
1100111111
1101100100
10010000100
11101000011
10011110101
110110110
1111111101010101
1111110101000000
1111111110111011
1000000111
10010110
1111111100011001
101011011
1111111101011010
1010101
1111111111110011
1111111110110100
1001100101
11110111
11011101
1011110100
1111111000110000
10111
1111111011011101
100011100
1100011100
10011010111
1111110101
1100111100
101001111
11111001
10011000110
1001000110
1111110101011111
1111110011100100
1111111000000010
1111111111010100
1000010000
101110011
11110011
1111111011101101
1111111011000100
101000011
101011100
1111111101100000
11111100
1111111010000010
11101011
1111111101111010
1111110101101111
10011001
1011111101
11000010010
10010110111
11010100000
10000011011
111100001
100010100
110100111
10000111001
1111111100101111
1111110101110110
1111101101100110
1111110011001100
10000000
111001011
1010010011
1111111101111100
1111111111101000
10010011
1111111111110101
1111111100110110
1111111001111011
1000000
1111111000001000
1111110011011111
1111110011100001
1111110110101100
100101110
1110010110
100110011110
10110100001
10101100001
1100111111
1011100100
1111110111011010
1111110101111010
1111110111110110
1111101111101101
11000001
1111111000100010
1111101010000110
1111110101111010
1111111101101000
110111001
10010
111000
1111111110100110
10110001
1111111110000010
1111111101100100
1111111110010001
1111110000100110
1111110011010110
1111101110100000
1111110111011111
1111111101001100
1011110000
1110010101
110001000
101111101
1111111110011110
1111110010011110
1111101011101101
1111100110001111
1111100011101001
1111101011000001
1111110001111101
1111101101001111
1111101110110100
1111101011110111
1111111000100010
10101000
100111110
1111111011110000
1111111011010101
110100101
1111111000000010
1111111011011001
100101000
1111111111000010
1111110101011011
1111101111000101
1111110011101000
1111110111000101
10001001110
10001010101
10000011000
1111111111011110
1111111011111101
1111110110000111
1111100010101000
1111110011101011
1111111000010001
1111110010000001
1111101000110110
1111110100001110
1111101111110000
1111101001101001
1111110001001110
11110110
1111111101010001
1111111110110111
101100100
1001111000
1111111001100100
111110110
110101101
110101011
1111110100111011
1111100001110010
1111110010110001
1111111010011111
100010110
1111111011100111
1110100001
1111111001000110
1111111110010101
1111110000100101
1111111111100110
1111111010011110
1111101011110111
1111100111011000
1111111011100100
1111101001011001
1111111001010001
1111111000101010
1111110011101110
100101101
111000001
1111111110000000
10100101
111000011
110101111
1010100001
100011001
10111000
1111101110100110
1111100011101100
1111101110001111
1111111100000010
1111111101010111
1111111001011000
1111111001111000
1111111100010111
1111110001101100
1111100100000101
1111110111011011
1111110111011010
1111101110100001
1111101001010010
1010001
1111101110010011
1111111110001110
1111111100011001
100110
1111111110010011
110100011
11011011
1011111101
101011011
1011100001
1000010011
110011
111001101
1111111101111010
1111101100111111
1111110010101011
1111111000111101
1111110100101110
1111111011110110
1111101000001111
1111111000110100
1111101011011010
1111110000010010
1111111111011010
1111111110010100
1111110010011101
101100
10001011
1111101111110100
1111111011001110
1111111101110011
1001001000
1111111000001011
1101000111
100110011
1010100011
10101111
1010111100
1010010101
110010100
1000010001
11001111
11101010
1111110101001001
1111110111001011
10100001
1111101101011101
1111101001011110
1111111000000101
1111101011101110
1111101011010111
1111110100001110
1001101011
100111010
1111111100000010
1111111001111110
1111111101111000
1111110110001000
111110
1110101110
11011101
101011100
1001111110
1010100000
1111111111100000
111001010
10110101
1011010
1010001010
101010
1111111011000111
10011
1111111101110100
1010100000
111010010
1111110011110101
1111101110010111
1111110010011011
1111110010110101
1111111010011000
10111100001
1000001100
1111110011011100
1111110101100010
1111110100100110
1111110101101101
111110101
1111111110000000
111100
11011111
1010000010
110100000
111101101
1000110
1111111111101110
110010100
1011111110
11111001
1111111001001000
111110001
1100111011
11011100
111
1111101111010100
1111110010010011
1111110010011000
1111111011111011
1100110001
101001110010
10000101101
1110101
1111111000110001
1111111010100111
100000111
111010
1000110001
1000011
11100010
110001
100000000
11001110
1010000110
110110000
1001110111
1000010000
1000
1111111100101110
10100111100
10110111
1111111110100111
1111110111011011
1111110000100111
1000011
1111101100011001
1111111011101101
10001000111
1100010000
1010101111
1100110000
1111111011100010
1010001
100101001
1111111101001101
1011000
1111111100111010
1111111100111101
1011
100100110
101000010
111010
100101
10001000
1111111101101101
10100110
1111101
10011001110
10001111011
1111111110000001
1111101111001101
1111101111100001
1111110001111000
1111101000110111
1111111010111111
1111001000
1011010001
1100010000
1111000011
1111111111010100
1111111000001011
100111111
1100100
1111111
1111111001110110
1111111101111111
1111111101101110
1111111110110011
1111111001001110
1111111000000010
1100111
1111111010110101
10000
1000110001
1000111110
1110011001
10000011110
111010110
1111111101101101
1111110100101011
1111110100011010
100
1111111001111100
1111001001
10011010011
111000010
1110011100
1111111010000010
1111111110010010
10001001
10011001
100110001
1111110110111000
1111111001101000
1111111010000100
1111111001111100
1111111100000101
1111110010110000
1111111110100101
1111111101011110
1111110100011010
111101101
100000111
1011001101
1111111100000000
1111101
100100010
1111111101000011
1111111010101110
1111111010001110
1111110111100010
1010111001
10001011
1100001000
1100011101
101000
1010001101
1000110000
110001111
11100
1111110110111000
1111110101101110
1111111100010011
1111110110100100
1111110101100110
1111111010001000
1111111011110110
1111111100011000
1111110111111011
1000000111
10000000101
101110101
1111111011010010
1111110100010100
1111111000101000
1111110101010111
1111110011101000
1111110000100111
1111111001101010
101000111
1111111111110111
110010011
100100011
1011111000
1100010000
101011010
111000000
1111111111011101
1111111101111111
1111111101101101
1111111100100000
1111111111001000
1111111101100011
1111110101110011
1111111011111001
1111111110101111
1111110110010101
111110100
1000010011
1111111011111111
1111110011011001
1111111110101000
1111111100001111
1111111100100010
1111111111001110
1111111111111111
1111111001011110
100000110
1111111011110000
1111111101110011
1000010010
1011100111
1101111111
101100001
1111110100010100
1111111001110110
1111101110011110
1111111100001011
110110100
1111111111100111
1111111000111011
1111111110000100
11111
1001011011
1111111111011110
1111111110000011
111101011
110000001
1111111100111111
1111111111010010
111001001
1110100100
101001010
1111111011011110
101100111
100011010
1111111000011101
1111111001100111
10011110
11110011
1100111001
1111110111010100
1111110110110000
1111111010000110
1111101101010000
1111110110101111
110010100
1111110110101000
1111111101100111
11100111
1111111110101110
1001000011
10101
1111000000
111111101
1100101100
1000111101
1000011011
1000010101
1001001011
1111111001010101
1111110011000100
111001001
1111110110111001
1111101101001011
1111111000000111
1111111101100101
1111111100001001
1111111110000100
1111111100011111
1111111011001111
1111110000110110
1111101010011010
1000100
1111111101110111
1111111001110010
1000000111
1011011010
1010100110
111010
101110000
1111000101
1100111001
1010110101
1100111010
1010101
110011010
10100010
1111110011101000
1111111001001011
11010110
1111110001001001
1111110011101100
1111111100000100
1111110111001101
100010
11111010
1111111100010001
1111111101000001
1111110001000010
1111110000001100
1111110110011001
1111111000101011
1111111111100101
111111100
1010111100
101101011
1111110111011011
1111111011111010
1011111100
1001011000
1111111101110100
101111000
1111111100110010
1100110
1111111001110001
1111110000100101
1111111011110001
1111111101110111
101001
1111110010111010
1111110000011011
1111111001100110
110001000
1001
1111111110010110
1111111010010101
1111111010000101
1111110101110001
1111110001011000
1111110011000111
1000110
1010011011
101000111
11011101
1111110100011000
1111110110110100
11000
1000
101011100
1000011011
1111001111
1101010
1111110010010001
1111110011110110
1111111011011001
1011010
1010100010
1111110101010110
1111111010010111
1111111101000100
1111111101110110
100111000
101111100
1111111101111100
1111111001110000
1111111011001110
