10111110
110010010
1010101
11010
1010010100
1111111111010111
1010101
11000010
101111100
1111111111111110
111011000
1111111001001000
1111111001000010
1111110011100101
1111110110110101
1111111110011001
10001111
1111111110101100
1000101
1111111010000010
1111111000001010
1111111101010010
1111111110011110
1000011011
1011010111
101111000
10010100111
10101000010
100111011
11010000
110001001
1111111111010001
101010001
1110
1111111010111000
1111111011101100
1111111110111101
101000
100110000
1111111110011110
1111111011111101
1111111010001111
1111110110000011
1000001111
1110100101
11011111
1111111110011100
1111111000110101
1111111010100000
1111111110110001
1111111101110101
11000101
1000110100
1100000110
1001111111
10101101101
111001110
111011111
1111111110100101
1110100
11010
1111111101100110
10110011
1111111101011001
100011100
1001111010
1100010
1111111011101000
10010000
1111111011001100
11100001
1001101100
10100001001
1110000000
101100000
1000000
10011000
1001
1111111101011110
10001111
1001111011
1001011010
1100010111
1110000101
101101111
1000001100
110010
100011110
101101011
10010100
111001010
11101110
110010101
111101000
1111111111011010
11000
1111111111101100
1111111100110011
101110101
1111100001
10101011111
10011010111
11001000000
1101000111
1000010
1011100101
1010001111
100010001
1000011110
11111100
110110101
10000011011
1110010
111101000
1111111100111001
1001111100
10101001
10110101
1100001100
110100010
101000
10011000010
1011001110
1111111110111001
1111111111001111
1110110
101100
1011010111
10110111011
11010001111
11101100110
11111011001
10100010010
1110111111
1101010000
111101100
101
10100110
1110000011
1000111111
1111111111111001
11011010
11101
100011000
101000000
1111111111011111
101001110
1111111110000011
11000100
10100101010
1000110111
100001010
1111110011100001
1111111111111001
10010110
10010101000
10101001110
10101000010
1001011100
10100010001
11100101111
10001100011
11010100
1111111101101110
1111111001111111
110001001
1010101010
1010000111
1111111101101001
110001101
1111111011010100
101101
10100001
1111111010011010
1011100000
11110110
1001100000
10010010001
1111111111010111
1111111101101110
100001110
1001100111
1011110001
10010001001
10011111010
1010110001
11011010
1000011111
1101010000
110010001
1111110111010110
1111110110111111
1111111000010010
110
1010110110
101110010
1111111111111011
100000010
1111111111101110
10110110
101010110
10010100
1111111111101011
1001010101
1111111110011010
11111010
1111111101010010
1111111111001110
10010111111
11101011001
10011110100
11111010100
1110111110
1101011101
1001111101
1000001100
111100111
1111111100110000
1111111011101100
1111111100000010
1111110111011100
1101001000
111101000
10000000010
10011111
1111111100111010
101100100
1000000000
101111100
11011111
11110
11111
1111111000011101
1111110111101010
1111111000011001
111111010
10100110001
101000011100
11000101000
11011100000
10000000000
101101011
1111111000000100
1111110011111100
1111110000110000
1111110101010000
1111111100111101
1111111100011000
1111110010011110
1100110
1000011
110101010
11011001
1111111100100110
111010010
100001100
10000010
1111111010100011
1011011
1111111000010000
1111110010101101
1111110100001000
100111
11000001
1011001110
11001011101
11110100
101001101
1111111001111111
1111110001010011
1111101011110100
1111101011001011
1111101100111000
1111110000001010
1111110110001001
1111111010110100
1111110110000111
1111101110110111
1111110111101001
101101010
110111010
1111111010000010
110101
111000001
1111111011000111
1111111101010100
1110101
1001
1111111101101110
1111101101110011
1111111001101110
1111111111101001
1001011001
1110100000
1011011001
1111111110110101
1111110100000100
1111110110111101
1111101110100010
1111110001101000
1111110000010010
1111110010111101
1111111001100000
1111110111111100
1111111010010010
1111110110010100
1111111000111101
1010011100
100010100
0
1111111110111011
1001100000
1111111101111001
101010100
1100111
110010001
1111110111010011
1111100101011101
1111110100110100
1111111010100000
1111111111001101
1111111011110000
1010010101
1111111110110001
1111110111011001
1111101111111111
1111111110000100
1111111000001101
1111110001000010
1111110011110001
10110010
1111110111110000
10000111
1111111010010100
1111111001001001
1011001100
10101001
10110
11111011
10011001
10101110
110111010
100110011
101000101
1111111001111011
1111100100110000
1111101001010101
1111110011011100
1111111010100111
1111110100111001
1111111100000011
1111111011001100
1111110010000000
1111101001000001
1111111000000111
1111111001000010
1111101110001000
1111111011110100
1110011011
1111111101101011
100100110
1111111010001000
1010001
1000010000
11110111
10100011
100110101
100110
1011110111
110111111
1000000011
1011011100
1111111101000000
1111111001110101
1111110110111001
1111111010001000
1111110010000010
1111110111110001
1111110000100101
1111110100110000
1111101001101000
1111110000110010
1111111011001011
1111111110011001
1111110100100110
101101101
1000111010
1000
110100111
1111000
111010011
1011011
101101100
101101000
1001110110
1111111110010110
1011100101
1010011000
101111111
1011011011
1001101001
1111111110110010
1111111100100100
1111111010111101
111011
1111101011100100
1111110010111010
1111111010000010
1111101000111001
1111101001000110
1111111001110111
1011001110
100101110
1111111110101010
101011001
100100
101011110
100
1001101010
110001011
111111100
100101110
11111001
1111111101101001
100100000
110100000
11101100
10010111011
1000100110
10010011
100001011
1011010
1011110111
1101011101
1111110101100010
1111101011111010
1111110000011000
1111110100000101
1111111101010100
10110100000
1110111100
1111111011101000
111010
100110
101001101
110111000
100100011
101010
111000011
11010101
101110110
11010110
1001011111
1111111
110100001
1110101000
110101010
10110101
10001010011
1101101100
111010000
100101010
1111111011010001
1111110111110101
1111111010100011
1111111010000001
1110010000
100000000011
10001011100
10010011
1111111010001001
10110101
1010010100
1000110101
1010010110
1111111101101101
1011000
110110110
1111111111010000
1100001
11001110
11000001
1001101000
1001011000
11100101
100101111
10100001110
10000011011
100010000
1111111111111001
1111111101100011
1111111011010101
1111110010111000
1001110
1010101011
1010001001
1001001011
1001110100
11001100
110101001
11101
1100101010
101011010
1111111011010101
1111111000100101
100011000
1111111101011100
1111111111100101
1110
1000011101
1000111111
1010110010
110011010
1011111101
11100011010
1110100000
1001100
1111110101011111
1111110111100011
1111110011101101
1111110011111110
1111110100000000
1110111
101011101
111101010
10000000101
1101001
1111111101001010
10000011
1010011100
100001110
1111111110010000
1111110011000001
1111111110101110
11000111
1111111001010101
1111110111110000
11001011
1111111110100000
1111111101000000
1110000000
1110101001
10111110010
10001000010
100111
100010000
1111111111011101
1111111101111101
1111111100110111
100010011
111101101
1010101011
110000111
1001110100
1111111010100100
11000011
1010101010
111100111
1010010
1111111011000011
1111110110011000
1111111101010110
1111111111011110
1111111001000100
1111110110111111
1111111110110000
1010000
1111111010110010
111101001
1000101000
1101111100
1111111101101101
1111111101101100
1001010110
1111111100110111
1111111011000110
1111111010001111
10011011
1110100100
1101010000
1100000000
1101111010
1010000011
10101010010
10110110
101110001
10101
1100
1111111001110110
11100111
1111111011100111
1111111100101101
1111111111110011
1111111001101000
1111110111010100
1111111110110101
1001001010
1110001111
1010001000
1111111000111101
1111110100110000
1111111011011111
1111111010001100
1111111111101101
1111111110010011
100100100
1100010101
100001101
10000011110
1101101100
1010100001
10011001111
11110100
10000000
1111111000101000
1111111100110010
1111111101100001
100011000
10100010
1111111011011001
1111111001100011
1111111010010100
1111111000010001
1111111100100100
101001001
1000110110
110111
1111110111011101
1111111101001001
1111111000111110
11011110
1011100
1101011111
1111010101
110101010
1111111111110101
1011001010
110110111
1010110110
111011000
110111101
1111110111001111
1111110100001111
1111110101100101
1111111101101011
101011111
100000011
1
1111111001000011
1000111000
1000010000
1000101
1100100
1010010000
111101011
10010001
11001000
11001111
10011100000
1000000101
100101
1100000010
1111111110100001
1111111011111011
100110101
1000010110
110010100
101100111
1111111110010100
1111111000101110
1111110100110010
1111110110101111
1111111111010011
1101101110
100111011
11001001
1110011
1111111100101100
101011111
101101111
10001011000
111110001
10100110
100101101
1000010010
10001110000
1111000101
1111111011001011
1111111011111101
111010101
1111111010100100
1111110011100010
1010010
110100
1111110111110000
1111111111000100
1111110110110100
1111111100010011
1111110001011001
1111110100011110
11100110
111000000
11010111
1101000101
1001100011
1010100001
101100011
11001111
10000001100
10011011100
110000010
1011110111
1010010111
1110111101
1001
1111110111011000
1111111010011000
1111111110000111
1111110110101101
1111111000111010
1111111010000110
1010
1111111001100000
1111111111010100
1111111011100011
1111111010111010
1111111001000011
1111110100001001
1111111010111001
1111111110010010
11101110
1110001111
110001000
10101110
1111111010001111
101000001
1111010100
10000001100
1010001001
1000111011
100011101
1111111101110100
1111111000011010
1111110001111100
1111111000100100
1111110110111000
101
1111111000110111
1111110011011000
1111111000001110
11110000
1111110110111010
1111111000011100
1111111110011010
1111111001000101
1111110101110001
1111111001010101
10111100
101011011
10001000101
101010000
1111111110111011
1111111001010000
10010110
10000100010
111101000
10000101101
10110100100
10000101000
10100000
1111110011001101
1111111000110000
1111111000001000
1111111101111000
101011111
1111111011101001
1111111010000000
1111111101001011
1111111010010101
1001110
1110100
1111111001100010
1111111000011011
1111111101011001
