1111111010001001
1111110110001111
1111111010100101
1111111010101110
1111111000110001
1111111100101010
101101111
100110010
1111111110101001
1111111001101111
1111111001101101
11101010
10000111011
10111000000
1111000110
1001100101
1111111100111010
10011001
1111111111000001
1111111011101000
1111110101001100
1111111110101111
10111001
1111111010111111
1111110110011101
1111111010001001
1111110010111111
1111100101110110
1111110110101001
1111111100101010
1111110111110101
1111111011101001
1111111110101011
1000001
110000001
101001
1100111
1111111010100101
11001
11110100
1000010001
1100010001
10110001000
100010011
1111110110000010
1111111010110011
10000100
1111111101010010
1111110100011010
1111111000100010
101010100
111100
1111110010111011
1111110000011000
1111110011011101
1111110000001001
1111111101001011
1111111101011000
1111110110110111
1111111111011100
1111111110010010
1111111101000110
1111111011110101
1111111111010011
1111110110110110
1111110011011111
1111111000101100
1100000000
100011001
110011000
1101011100
101101010
1111110000110101
1111111101011000
11101100
1111110101111011
1111110111000101
1111110111000111
11010011
1111111110110100
1111111001011011
1111111000011111
1111110100011000
1111110001100101
1111111100100110
1111111010010110
100
1111111000001110
1111111110110100
1010010
1111110010101000
1111111001111110
1111110111000011
1111101000110100
1111110011111101
10011101
1111111010101001
101110100
111101010
11000111
1111110110011000
1111111101011001
1111111011010110
1111110111011110
1111111001011011
1111111110010110
1111111111100011
101001110
1111110110110100
1111110111110010
1111110111101011
1111110110011011
1111111011000011
1101111
10110110
1111111011111010
11100000
1111111110001110
1111101100100100
1111111010010110
1111110010101110
1111100101010110
1111110010111001
1111111110001111
1111111000110010
1011010111
1111010111
1111111001011111
1111110110100000
1111111001100110
1111111001101011
1111111010110111
1111111000000100
1111111101001101
11011101
100101101
111010001
1111111110101000
1111110110101011
1010
1111111101101011
1111111101100111
11000
1111111100000100
111000110
10000
1111101101101000
1111111010010011
1111110001101001
1111011100110101
1111110001001110
1111110111000100
1111111111100011
1000100010
100010000
1111111110011100
1111111000010110
1111111111000010
11011000001
1011000000
1111111000010100
101011101
1011001000
10011010
11001101
1111111100100110
1111111100001101
1111111101011100
11110000
10011110
10001000
1111111011110100
11000101
1111010
1111101010001110
1111111000110110
1111110001110110
1111100001000110
1111111011000001
1111110101000000
1111111111001011
1100011110
1011101011
1010001100
10110010000
1100001101
10111110010
1001111010
1010001
1111111101011010
1010111101
10000010010
1101001000
1111111110100000
1111111001111010
100011010
1111111110000100
101001001
1000101000
10101111
1111111100011000
1111111111111110
1111101100011100
1111110001111101
1111111111101010
1111101101110110
1111111011000011
1111111000000010
1111101101101010
1111110000101111
1111111111110000
1111111101010110
1000101100
1001000011
11101100
1111111000101101
1111110000010100
10010011
100010
1010001101
10111001010
1111110110000011
1111111111000100
1111111011110111
110110000
1011111
1111111101111011
110010
1111111110010101
111001
1111101100100110
1111101100111110
10011001
1111110111010100
1111111000111101
1111110101011000
1111110010110100
1111101111001010
1111111001101000
1111111011110011
10011111
1000000110
100010110
1010100
11011000
1100100101
1111110111001010
1111111111010000
100001011110
1000100101
1111111110000110
1111111000010110
101010111
101000
10101011
1111111010001100
1111111101110111
1010110
1111110100000000
1111111001110010
1111110011110001
11011111
101101
1111110111101011
1111110101111011
100110
1100111111
1100000011
1000111101
1011011010
100011001
100100101
1010011001
101111101
10000111
101000100
1010011101
11001001011
10000011101
1111111101111000
101111010
1010011010
101100111
1111111011101101
1111111110000100
1111110111101111
1111110011100000
1111110011100000
1111110010001001
100000101
110101001
1111111010100010
1111111100010111
110101001
10010
1001100011
10101010
111011000
1111111100000010
1111110101101111
111000
10000011111
1111111111001111
1111111110010111
101101011
11010001011
10001000100
1111111100101010
110100001
1111111110101010
110101
1111111100111010
1111111101111001
1111101110000110
1111111111110011
1111111000100110
1111111001011111
1010100001
10011011
1
11100100
1111111101101000
1111101100111101
11001101
1100001010
101000
1111101010101111
1111101001100110
1111111001101110
1111010100
1111110000001100
101110011
11000010
10000010011
10000000001
1111111111101010
100011001
1110010
10011011
1111111100011101
1111110100001000
1111110010000101
1111111011011100
1111110001001100
101010
111101001
111111111
100011111
1100010
1111111110010011
1111111101110100
1111110101110100
1100011111
111101010
1111110010110101
10100110
11011001110
110110111
1111100100010000
1111111110110001
1110011
1010100000
10110010
100110101
1111111110100011
10100
1111111010011110
101011
1111110110100000
1111110101001001
1111111000110010
1111101100100100
1011001
100111101
1111111011010111
1111111110001101
1110011110
1010001110
1011001010
1111101100100010
1001011011
1111111100011111
1111110100000010
1111010110
100001110100
1111110110110111
1111110001010000
10000100
111100101
100110100
1111111001101010
10010010
1111110110110100
1111110110101101
1111110101011111
1111111110101100
1111110011011101
1111110001011001
1111110110101111
1111110111000111
1111111110010011
1111110100001110
1111111011001001
1111111000000110
1111111101101001
100001110001
1011110001
1111111001000101
1000000101
1111111110011101
1111110001011100
1111110110100111
100000111
11000000
1111111011010010
1111111001101111
110000
1111111001011000
1111110100010001
1111111010101110
1111111000010001
1111110011100000
1111111001011000
1111111011110101
1111110001111011
1111110010001100
1111101101011111
1111110000000111
1111111010110101
1111111101101001
1111110101111110
1111101100010001
1111101010000000
1111110010111000
100001011
1011111000
101110
1111110111001000
1111110000001010
1111101001111101
1111111111001011
110110010
100100110
1111110101001100
100000001
1111111001110001
1111111010000011
1111111010101110
1111111100011001
1111110111010110
1111111001010001
1111111011100011
1111111100111010
1111111111110111
1111110101010100
1111101011101111
1111111001110100
110110100
1111110011101111
1111100001000001
1111100010100100
1111110000110100
1101111
1111110111110000
1111111000110001
1111111010100010
1111110010000100
1111101100000100
10011
100100101
111111
1111111101100111
1111110010011100
1111111110110001
1111110000101011
1111111100101011
1111111100101001
1111111001110000
1111110111001110
1111111101101111
1111111110101111
1111111001010110
1111111110001101
1111110111101101
10000001
1111011110
1111110010000011
1111110001011110
1111110100011001
1111110101101011
1111111001011000
1111110110001110
101110101
101010011
1111111001101100
1111111110101111
1110100011
1111111111101011
110001011
1111111000101110
1111110110011111
1111111011111001
1111110000111111
1111111111100001
11011000
1111111101001110
1111111011000101
100100110
1111111111110110
1111111011101011
11010101
100000101
1111111101101110
1111111111100001
1111111000001100
1111110001100010
111001
1111110000100110
1111111111100110
10101
101011101
111100001
1001100011
101111100
1001100
1111110100100110
1111111011111100
101000111
1111110111100110
1111110000110000
1111111110001011
1111111100001000
1000110101
10100010
1011001
10001001000
1010001000
1010001100
1011000111
1011010001
1111110111110101
100000
1111110100110101
1111111001111101
1111110100110010
1111101011110010
1111101011010000
1111111001111010
1111101011110101
1111110110010101
1111111110001101
110100010
1111111101000011
1111111001111011
1010010010
1111111100000011
1111101100100101
1111110111001111
1111111101110110
1111111010100001
11111001
1111111110111100
1111111110001001
1101001110
1010010100
111011010
1010101010
1111101001
1111100
1111111011001110
1101110
110011101
1111111011000000
1111011110100100
1111101101011011
1111110111010011
1111101111101000
1111111011011011
1111110111111011
1111111110111001
1111111011011111
1111101101110000
1111111111101110
1111101001111000
1111101111011000
1111111110000110
1111110111111110
1111111100110101
1111111101011011
1111111111000010
1111111010111001
110011000
1111111110101001
1111111101000101
10001110
111001110
10111101
1111111001011011
11000000
1111011011
100110010
1111110011000111
1111111010111001
1111111000100011
1111110100000001
1111110101000111
1111110000110011
1111101111100111
1111101010010010
1111110110100011
1111111000100000
1111100001110000
1111110100101001
1111110011101011
1111111110000101
10001
110010
10101111
1111111111111011
1111111101001000
11010011
10000001
1010100010
1100010
1111111110100000
1010101
1110011011
1101101111
1111111100111010
1111111000100000
1111110000010100
1111111010010000
1111110011100011
1111110110000010
1111111010110110
1111111101001111
1111101010110100
1111111100001010
1111100101100101
1111100111110011
1111110011100110
1111111111011001
11111011
1111111110111011
10101100
1111110110011100
1111111001100110
1111111011011111
1101010
1111110101111101
1111111111000011
10000011
101100101
111100110
1101110011
101010100
1111111111100101
1111101101000011
1111101001010100
1111
1111110100101111
1111101000011010
1111110001011001
1111101101101001
1111101101110001
1111101000001100
1111101111100011
1111111001100000
10010011
1111111110110110
101000100
11
100010000
1111111100101110
1111111101100100
1111110010111101
1111110101101100
1111110110110100
10111000
101000101
110010011
1010100011
1110001010
11111100
1111111010010000
1111110100101111
1111110001010000
1111110111111111
1111110000001011
1111011101101000
1111110010010111
1111101111100110
1111110101110011
1111110001001011
1111111101111010
110010000
1111111011101100
1111111101011110
1110101
1011101010
1101010
1111111111111101
1111111010000011
1111101011100001
1111101101011111
1111110100010100
11100
1111111111110111
1000011110
110110000
1110101000
11010010
100000010
1111111000000101
1111110110111100
1111111000011111
1111101111100110
1111111010000010
1111110010000100
1111111001010101
100010100
1111111101110100
1111111101111001
1111111101100110
1000110
1111111110111000
11010111
1000101
1011011
10010110
1111111000101011
1111101100011010
1111101111010101
1111110010011010
1011101110
1111111100111100
111111
1010100101
101101100
1111111001101001
1111111001100101
1111110000110100
1111101110100000
1111110001111101
1111110100001110
1111111011010001
1111111101110011
111001000
100010110
1111111110101010
1111111001101011
1111111111000110
1010001
1111110111011001
1111111010111011
1111111111011101
1111111100000011
1111
1111110100110100
1111100111101101
1111110110000100
1111111100101010
1010111011
11101101
100001001
110100000
1111111001011111
1111101010001101
1111011110011110
1111100110100001
1111101011011010
1111100001000010
11011000
111011
11000001
101000010
10010000
1111111100110011
1111111111011011
1111111010101000
1111110011101010
1010111
1111001
1111111001010010
