11011111
100101000
1001001101
1011000001
111101111
100101110
11010100
100111001
1011110011
10110110110
10110001111
1111111100
1010101010
1111111111100011
111001010
1100110010
10011101110
1011001000
11111100
1111110001100001
1111101001101111
1111110011111110
1111110101111100
10110100
1100011011
10110101000
11110100011
11110100110
101110
1111111110010110
10111000
10011
100110101
1011011010
101011001
10001
1101101010
11011101011
11000111110
10001110010
1101111101
10000011
1111111000110110
1110101011
10111101001
101000100
1111111111101111
1111110110101001
1111101010101100
1111110001001000
1111111000011011
100111
111000111
10110100000
10101000001
10001011110
10010110
1111111110000111
11011001
101101010
100010101
1000011100
1000100110
101001100
1011010101
11111000011
10011010010
1100010110
1001011111
10101010
1111111101111110
10010011100
11110000010
1000011001
1111111100100110
1111110110101001
1111110100011101
1111111110001100
1111110010110101
1111111000101001
101010101
1001110110
1110110000
11010011100
10111
1111111101101001
11000000
11001000
11001101
110000101
10001111010
1100111001
1110010100
11011100001
11100110110
1011011001
1011110111
101010010
10100
10101110110
10111010100
1000100000
1100011000
11010111
1111110110110010
101100011
1111111010101011
1111111100111100
101001101
1000111001
1011010101
11010011010
1111111011110011
10111100
10110101
1000100
1111111111100111
1111111111000110
10000100111
110011000
1111010111
100001011011
100000111001
1011100001
1111111110111000
1101001
1001110100
10111001000
1101111000
10000011001
100000011111
1110001110
100011011
11000011
11000010
1111111110111010
1111111001000011
10110101
1100011111
10110110001
1111111111111011
1111111101100011
1111111100010101
110001010
10111101
1011000
1110101111
1001010111
10001001000
100111000010
11100111111
11
1111110110010010
1111111011101101
1110110000
1101011111
1111001110
10001110010
1010010100
1101110010
100010001
101010110
1111001
1011001111
1111101100000111
1111111011010110
1101011001
1111011111
10000000
1111111110001000
101
1110110
10000011
1111111111110111
1010010001
10001110011
11000110101
11110001101
1000000100
1111111111111100
1100101010
1111111101101101
10000010011
1100000111
111011011
10010001011
10101001
11101010
10011111
1111111111010111
1101011111
1001111110
1111110111100111
1111111011110000
111000011
1010101000
1111111001001011
111011
1111111011111011
101101010
100110001
1101111
100000001
10100100110
1100110010
1100000101
1111111011011110
10110011001
100001111110
11001111001
11101010001
10100110111
110101001
101100011
110010100
1011000101
1011111000
1111111101111110
1111111100111011
100100001
1111111010100010
111000010
11111101
1100101110
1111111011111110
1111111100100010
10110111
10011101
111100
1110010
110101100
1110010111
111101111
1111111100101101
100111010
11100011111
10010000010
11111010001
10000100010
101110010
111111110
100101011
1111111010010110
1111111110000001
1111101101100111
1111101101000010
1111111010100000
1100010
1111101110101010
1111111000001100
10100011
11101011
10110111
1111111000001001
101010110
11111111
101101011
1111111101110000
1000110011
1111111001111001
1111110101111100
1111101101010011
1110011
1000001001
1111111110001001
100110100
1111111000101110
1111111010011001
1111101100010110
1111101111111100
1111101110101111
1111100110101110
1111101010101101
1111110100100101
1111101110011111
1111110001100101
1111111011011001
1111111111000011
1111111011101110
1000001110
10111101
1111111001110111
110110001
1010111001
10110111
100100001
1010100100
100001
1111110000011001
1111011001101001
1111110000010000
1111111101011000
1111111010001100
1111111110000011
1111111110000101
1111110011001101
1111110100100111
1101001000
1111110101110000
1111110101011100
1111111100101001
1111111110101111
1111110100101011
1111111010110100
1111111001001011
101101010
100010101
101001101
11001100
1111111110111111
1100000
1000110
1111111011001111
1111111111100101
110010010
1000011110
1111110111100111
1111011100101000
1111011110010100
1111100111111100
1111101011010011
1111111010001100
1111111110100010
1111110111101011
110111100
10110000001
1111100111
100110001
1111111001000001
1010110110
10100001000
100001000
1000001
110000001
10011100
110110010
10101010
1111111110111010
11101011
101101001
100110110
1111111111111100
1111111010100100
10001
1111101011100000
1111100100101000
1111100100011101
1111101010001110
1111100101101100
10110001
11000001
100110010
111100110
1111111001110100
10101010111
11101010
1111110101011011
10011011111
1101110111
111010001
10011111000
1001010000
1111111111010111
1111111111001001
100000101
1101101
110001100
1111111100000110
101011001
1111111111011100
1111111001000011
10101110
1111111101000011
1111110110111101
1111111101111110
1111111000111001
1111110110010001
1010110001
10110010101
10100010001
100001
1111111111101001
11111
10011100010
111111001
11111100000
10111000010
1111111110
100011001110
1111101001
1100111100
1111111101010100
111011111
11110110
101101100
1111111101110010
1001111111
10000100
1111111111101111
111001000
100001000
1111111101001101
1111111101010111
1111111101011101
110101111
101101
1101100
1111111101010100
1111101011100011
1111101000101000
1111101111110010
1000110101
10011100110
11000101010
11010001000
11000101110
11000111011
10100111100
11001010
1111111111011011
100001010
111010010
1100000
1111111011011011
1001011100
1111111111110001
1111111110110111
1011010
100100001
1101110
101101001
1101011100
11101000011
1110000010
1111110111111011
1111101101100100
1111101000100000
1111011111001000
1111110001010111
10001001001
100101001001
1001111111
10001001011
1100111100
10010111101
110001100
1000001
1111111111101011
1000
10000000
1100111
1000001
10100011
101010
1111111111001010
1010010101
1111100
1011011
10110110010
11001010010
10101010111
10000100010
1111111000111001
1111110100101011
1111101000110000
1111101000001001
100000100
101001011010
100101001000
10001111011
1100111011
1001100111
11000110011
1111110101011101
1111111000011000
1111110000110010
111101
100110010
110
1111111100101001
1000011
1010010
110000011
11010010
1111111111011111
1111111011010110
1100011101
11001100110
1101100111
1001000001
1111111001001000
1111100101100111
1111011010010001
1111100100101101
1001000100
1110011111
1010001001
1101100001
1111111001101010
1101101100
1111111010010010
1111110010001100
1111110111100110
1111101000111100
1111110110110110
1111111111110110
1111111100111011
1111111100110001
1111111111001001
1111111101101010
1111111001010011
1111111101101101
1111111110101100
1111111010000010
1111111111000101
11110010
1111110110001011
1111101011010101
1111100110001010
1111011101001110
1111011001100011
1111101101011111
1111111001000101
1110
1001010100
110110001
111110111
1111110010111000
1111101001001011
1111110000111110
1111110010101111
1111111010101101
1111110011010111
1111110110100000
1111101111100111
1111110101010011
1111110000111101
1111110111111101
1111101100111101
1111101111100011
1111111111011010
1111111111001001
1111111100001000
1111110111011000
1111110001010111
1111100111010100
1111101110111100
1111101010111000
1111111010101001
1111111110110000
110010000
1010010
1011111100
111001000
1111111010100100
1111101110001011
1111101110111001
1111110101110000
11110
1111111011111110
1111111001000101
1111111100010000
1111110101101110
1111111011001011
1111101110000101
1111110111011010
1111110001111100
1111100110100100
1111101110110100
1111110010001101
1111110110100100
1111100010101010
1111100111110100
1111101110100011
1111101101100110
1111101110000001
1111110101011110
1111101110000100
1111111011011011
111001100
10001110
1111010
11100111
1111111001101100
1111110010010111
1111110100111001
1111111100010011
1111101111000001
1111111111110001
1111111110111101
1111111010001110
1111111000110000
1111111010111000
1111111010011010
1111110011001100
1111101111111001
1111110111100110
1111110110111110
1111110000101010
1111010111110010
1111010101110110
1111100011010000
1111101001100111
1111101110001101
1111101011110100
1111101110001110
11001011
1111111001001010
1101111
11111
100001000
1111111101011011
1111111001111000
1111111111001111
1111101010111110
1111101101100011
1111110101001100
1111010
1001110
1111111101100011
1111110100100011
1111110011100011
1111110010100101
1111110100101111
1111110110000101
1111110100111111
1111101111110010
1111011001000110
1111100010011110
1111101000110001
1111011111010111
1111100001100111
1111111000100000
10001100
1111110010001000
1111101101111001
11000001
1111110110110110
1111111101010110
1111111010011100
1111110101010101
1111110010011110
1111100101101000
1111100101101001
1111110000011000
1111110111001010
1111111011000011
1111111011101001
1111101111111110
1111111000000100
1111110101001010
1111110001110000
1111111011110110
1111111000110100
1111101011011100
1111011111011100
1111101111101110
1111110100101010
1111110101111000
1111110010000001
1111110111110000
100101
1111101010011001
1111110101100000
1111111001000111
1111110111011011
1111110011111011
1111111011000110
1111101001001110
1111101000100001
1111101110010111
1111101000110001
1111110001010010
1111111101001101
1111111001000100
1111111010110011
1111111100011010
1111110101001100
1111111000111000
1111110001100011
1111111000011111
1111110010101101
1111100110010101
1111100111111110
1111110011101010
1111111010011110
1111111101110000
100100101
1111110111010100
10010010
1111110011001110
1111100010001101
1111100100000100
1111101101001101
1111110110011000
1111110101001000
1111101011111001
1111110010011111
1111101100110111
1111101001101010
11101010
1111111010001011
1111111000100110
1110101
100001101
1111111101111010
110101010
1111111000101111
1111111101111100
1111111010100100
1111011111000101
1111100110100111
1111101110100110
1111111010100111
1111111101000001
1111111011100100
1111110010000010
1111101101101110
1111110000000011
1111101000000111
1111101101110010
1111110011100001
1111110100110010
1111110111011100
1111101110001000
1111101110110000
1111110010110011
1111101100010011
11011101
1111110101100110
10101
101011011
11101010
110
1111111111011011
1100101010
1110110
1111110110110110
1111101101001001
1111101000011101
1111110111010101
1111110011101100
1111110010100000
1111110000001011
1111110101111111
1111110001100101
1111111010110010
1111111110100011
1111111010010101
1111111000110101
1111111110111110
1111110000010100
1111110101100111
1111111001111010
1111110001110001
1111110000001101
1111111100011011
1111111000101100
1111111011111111
1111111111100100
1111111111110100
1111111111011011
1111111001100001
1000100100
1101111
1111111100000101
1101011
1001001110
10011011001
1111111111001000
1111101111011011
110
1111111101010000
1111111001101100
1000100011
1111110100110010
1111111100001100
1111101110100101
1111100000011000
1111110010001001
1111110101010100
1111101001100011
1111101100100111
1111111100011010
