1111111111101110
0
11101011
110010101
1001001111
1011111001
10011100
1111111101011111
101001
1111111011000110
1111111110101110
1111111000110000
100000
1111111000001101
1111111101110110
10001100110
10101000110
1100011100
1100101101
1111111000001010
1111110010101110
1111101111110101
1111110011100100
1111110101011100
100111110
10110000101
11100100000
100111100000
10111110
1111111110100100
1111111010010100
110111011
1001001000
1010101101
111111011
1111111101111110
100111
101011
1111111001001100
1111111000111000
10110011
1111111111100100
1111111001110010
1010111010
1110011101
10000101
1011000
1111111110010101
1111101110111100
1111110010001010
1111110100000010
1111111001110110
1011010
10011111110
11010001010
11110000011
1111111011110101
1111111100101011
111100
1000001011
110101
100110001
110110100
1111111011000110
1111110111010010
10101010
1111111111000101
1111111001111110
1111111101010111
1111111001100000
1111110111011101
111011101
1001010110
1111111011001011
1111111001011000
1111110110100010
1111110010001011
1111110011001101
1111101100010110
1111110001100000
11001011
1100001111
1111000010
11011011110
1111111011011111
1111111110011110
11110111
100101111
10001101
101100110
101110001
11110
10010110
10001010001
110010110
1111110110111100
1111111011011110
1111110000110101
1111110110111111
111110000
1111111001001111
1111111001001010
111100001
1111111110101110
1111110100010101
1111110110011100
1111110010011100
1111110010001100
10001010
1011000000
100100100
10011001101
1111111110011100
1111111011011111
1111111110110110
10101110
101100010
101000011
1010110010
111101110
1111111111010001
10000100010
1010100011
1111111010110101
1111110101001010
1111111101001100
1111110011001011
1111111010011111
1111111000000001
101111001
11010001100
1111001100
1111111010001011
1111110010101000
1111111000101000
1111111010100101
1111110111011110
110011111
1011011100
1010001011
1011111
1111111010000111
10011010
10111110
1111111101011111
1111111011010011
10000110111
1111111110100100
1010011
1001011011
111100101
1111101101010100
1111111011100101
1111110111000011
1111111011110111
1111111110010111
111010100
1101100000
10001011100
1010010111
1010100000
1111110101111101
1111111000000101
101100
1111101110011010
1111111111001010
11010111
1111111111101001
1111111010000110
1111111101011110
1111111100101111
11101
1111111110001010
11011
111111010
1011101110
10011101
100000101
1111111100100100
1111110001101111
1111111111111011
1111111010001001
1010111000
11010011
10001110101
10000101100
111100111
1110001001
1011010011
1111110000011110
10001101
10000010
1111101111110100
1111111110101110
1111111011010110
1111111110010011
11011
1111110101101101
1001011
1101110
1111111000111101
1111111111010001
1111110111101001
1110101001
100000111
111010011
1111110101100111
10011010110
11111010001
10011000100
10100001101
11101111
1001
1111110111000010
1111111011101011
10100100011
10000000100
1111110010010011
1000101110
100010110
1111110001111110
1111111010011100
1111111011011001
10101010
1000000
1111110110110010
101000111
1100000000
1111111100010000
1111111101110000
1111111001111000
1000000011
101000010
111011000
1111111111001011
10101100010
11101111101
101010101011
100110101011
11101
111010011
110111100
1111110010100111
1111111011110101
1111111111011010
1111111110010000
11100000
111100
1111101101101110
1111111100100110
110000101
11010011
101101001
1111111110100111
1111111111110111
1010010011
1111111111101001
10111011
1111110111011001
1111111000111100
1111110100100011
1111111011111010
101111100
1101010111
1000100100
100001001110
11110011000
1101110010
1111101110100110
1111101101000001
1111101010101100
1111110011101100
1111110111001010
11010011
1111111101100100
101111100
1111111001001100
1111111001010010
1111111001010110
10001110
101110010
1111111011100001
1000111111
1111
1111111111011011
11011001
1111101
1111111100010001
1111110111111001
1111100111000000
1111110111111010
111100100
1111111010101011
1111111101100100
100100100
1111111101010101
1111011010001111
1111101110001010
1111110100111011
10111100
1111111101000010
10001110001
1101011001
1011010111
1111111110110110
1111111000100011
1111111111010011
11011110
1010100101
100000
1111111111101010
10101010
1111111011001100
111100
1111111011010111
100010000
1111111000011110
1111101000011010
1111100101000011
1111101111010001
1111110110110101
1111100101101000
1111110111101001
1111100101000110
1111100110101001
1111110010111011
1111110111011100
100100001
1111111000110100
11100111000
11101001100
10001010000
1010001010
1111111101000111
1111111101011010
1111111110000100
101110001
10011111
1110001
1111111100100000
1111111100101000
10100011
1111111100001001
1111111000101111
1111101110101001
1111101101111010
1111111010011111
1111101010010001
1111101110011011
1111110011101110
1111101111011011
1111101000111110
1111110110010101
1111101001100101
11100
1111111100000111
1111110000110110
11011100001
11010100011
1111111100
1110001101
1111111101010110
1111111111101111
1111111011100101
1111111110100111
1111111111001011
1111111000110110
1111110100111110
1111110111110110
1111111101011100
1111110101001000
1111111100110110
11100
1111111011011101
100000100
1111110101100100
1111100111111101
1111111000101111
10101001
1111101001110000
1111101110101010
1111111010100111
1111111011110001
1111111101001101
1111110110010010
101000011
10010101111
1100101000
10011100101
1000111101
10000111000
10100000
1111110110010011
1111110111010001
1111111111010111
1111110011001101
111001
1111110101001101
1111111011110100
1111111001101111
100111111
1001011110
1001101
10111
1111110100111001
1111101001001011
1111110110000101
1111101010110010
1111101111001100
1111110010001010
1111111111011000
1001000010
1010100001
10011100
100101010
10001010010
10111001101
1011000111
1000001101
11001010
1111110101011001
1111111011000100
10101
1111110100010010
10111100
1111111111111100
1111111111111001
11010000
1101000101
11101101
1110111010
100000000
1111111100010011
1111111101110000
1111101101111101
1111101000010110
1111101101001010
1111110111110000
110101010
11011101110
11011000010
1111110111100100
111101110
10100100110
11100110010
10000001111
1111100
1111111100111100
1111110100010010
1111111110010001
1111111011100011
1111110100011001
1111111011111100
1011010
1101111
1000111
10010111
110110100
10101010100
10001010111
1111111111110010
10000010000
1111110000000100
1111100101000110
1111110111011101
11011111
11101011
100010010101
10011000101
100101100
1010101000
10101101100
10111011010
110001001
1111111011111000
1111111000010001
1111110010011100
1111111100111100
1111110101001011
1111110111101100
11110000
100010000
10010011
110001001
1111111111000100
100010001
1111101100
1110100001
1111111101000110
1111111000101011
1111110100101001
1111100010010110
1111101010010000
1111111000010101
1111110111111110
1100010110
1010001
10000010111
110
10100001110
1001010110
10111101
11001110
1111110101011010
1111110010010101
1111110010011000
1111110010110010
1111111000100110
1111111100010001
10011110
10011010
1111111111010000
101101100
100100100
1111001100
111011000
1111111101001001
1111101010000100
1111110100011011
1111101101101001
1111101101001010
1111101101100000
1111100100000000
1111110001001110
1111111011010101
10001101110
1000001010
1111111110010101
101110
1001010101
11000
11110100
1111101010010011
1111110010001001
1111111010100101
1111110110100101
1111111111001011
1110100
1111111110111101
1111111101000000
10111010
101001110
1100101000
1111111001010100
1111110101101011
1111111101000001
1111111010010000
1111110111111100
1111111111011101
1111110110010101
1111110000111000
1111110101101000
1111111110001110
101011000
100011100
101100111
10010000100
110110001
1111111110011000
110010011
1111110001110010
1111111110101101
1111110110010010
1111110101000000
1111111011110101
1111111100011111
1111111100100110
1111111011111000
1000101
110001000
1111111110011000
1111111101100010
1111110011100110
1111111011001101
1111111010110000
1111111011001000
101111110
1111110111110110
1111111001100111
1111110110001000
1111111010101000
1101100
1010000101
1111000001
1011011110
110110010
110010101
1000000010
1111111000110101
1111111000101101
1111111001111101
1111111011000000
1111111101010101
1111110111100111
1111111110010001
1111111000111011
0
1111111111000011
101001
1111101010001100
1111101010110111
1111110100100000
1111111100011010
1111111110110110
111000100
1111111111100100
1001000100
1111111110100110
101110110
10011110100
11011101
1100100011
1010101011
1000011100
1111110010111011
1111111010111010
1111110110101001
110011101
10011111
1111111001110100
1111111011001101
1111111000010110
11000
1111111110110000
101111101
100001101
1000000
1111111000001100
1111111010110001
101110
1111110101011000
1111110010101010
1111101101
10001100110
1111111001100000
1111111010011110
10011011011
110010100
1000111
11101110
1111111110010000
1111111111100000
1111110011011011
1111111111111010
1111110010110101
1111111111010011
1000110111
1100101
1111111100111001
1111110110001001
1111111101110000
1111111000010101
100011010
1011011011
101
1111110100001110
100001101
111110
1111111111111011
1001
110011010
111011011
1111110000111001
1110001
1111111110100110
11000
11110011
1111111101111100
1111110100110000
1111111010111001
1111111110111110
110101
1111110100010011
1111111110011110
1111111000111100
1111111110111001
1111111011111110
1111101010101101
1111110001100011
1111110011110000
1111110111111111
1111111111010000
1111110101101101
1111110111110111
1000011011
1111111011011100
1111111010111000
1001011001
111100000
1111110100000011
1111110100001010
1111110001001010
1111101000110101
11111000
1111111001110000
1111101011001010
1111101010101111
1111101100101111
1111111111001101
1111111111111101
100101000
1101101
1111111000001101
10001101
1111111110101101
1111111000100111
1111111010110100
1111111001001001
11101110
1111111100101011
1111111001000110
100001111
1001001100
1111111001011101
1111101100100110
110101111
1111110100010101
1111100111001010
1111110100010110
1111101011001110
1111110100000001
1111111000100110
1111101110110101
1111101110111001
1111100100100110
1111110001011101
1111111110010101
1111111100100100
10110101
1111111010010101
10000101
10011101
111001000
101111
1111111000101011
1111111011110011
1110101
1111111110001111
1111111110110110
1010011000
10000101
1111110111100101
1111101100110110
1111111011110111
1111110011110111
1111111010100100
1111110100011000
1111111001000111
1000000100
1111111101010000
10001101
1111110011001100
1111110110010111
1111111011000010
1111110110110010
1111110101101011
1111111110110110
100011
1111111111001011
1010100000
101100101
1111110101101101
1111111110010110
110101111
1001001100
1111111110100100
10011100010
11010010010
11001101000
11100110
11010001
1011011010
1111111110010010
1111110101011100
1111110110110010
1111101111111010
1111111000110000
1111111100110001
1111110010110000
1111110010011001
1111110101001111
1111101010010101
1111101011101001
1111110001100100
