1111010011100110
1111010100100010
101110000101
1111111110010010
1111010100110001
1000101010
1111110101110110
101000001
1111110001100001
110011011110
11011010110
1111110111000100
1111111000100000
1111100010111110
10100111110
10001011
10011110
1001001110
11000000110
1111111000111010
1000111000
110010011
11100101001
1111110100010101
10010111001
1111101111101100
1111111011100001
1100001100
1001101100
1110101100111111
110001
1010000100
11010000100
10101110
1111110100011101
1111111101101011
1100110011
1111101010101001
101000010
1111100100100111
110001110
101010101
1111101011110011
10100010010
1111010000111001
1111110000111111
1011110
1111110100010111
1111110110100001
1111111101011111
10
10110011010
1000011110
10000010001
11000110101
1111110001011110
11010100
1111111101101011
100010011000
110101001
11111
1111101100000110
1111111011011011
1111010000
1111111101111001
1111111100101110
1111101100011001
10001101
1111101110111001
1111111101001010
1111110110101101
10101110011
1111100100100011
1111101101110011
1101101
1111111100011011
1110101100
1110111001
10000101101
11110111110
100100100001
1111110011001100
10000011011
100001111011
1111111000110010
10010101001
10011011
1111110010011101
10011111111
1111110101110001
1111110000101100
100101011001
1111111000
1111111111010110
1111111110001111
11011011
1111111000000111
10111100010
1111111010010011
10101
1111111100110100
10101100110
1100100011
1111110000011000
1111111010000011
10011110
1001111111
1111111111001111
10010001011
1111101100110000
1111111100011000
11001101011
1111111110001111
1111110001011101
1111111111
11101111000
1111011100111110
101100010111
1111111111000110
1111111001110100
1111100000101000
1111110000111000
1111111100100100
1111110110111001
1111110111011010
1111101110011010
1111001010101110
1100111011
