1111011001101110
11000000111
1111111000001100
1111110101010000
1111110100010010
10110011010
1111111111110010
1111110111110110
1111111100110101
1010110011
1111101000010010
1111110010110000
10001101
1111101111000110
101110100
10001100001
1111100111001010
1111111110111110
1111111001110010
10111111111
100011010101
1101001011
1111111001011011
1111110101101011
1111111111110001
1111011100
1111111101011010
10111000110
10001001101
111010100011
100100001101
1111111010101011
1111110000000100
11100101001
1111110100100001
1111110110100000
101010011111
1111100010111101
100001001001
100011110
110101111
11111111011
110111000
10100010001
1111111001011011
10101001101
1111110111110111
1111111111100011
1111001011100000
1111110000010110
1111111010001110
11101
1111101100010110
1111100010100111
1111110111001101
1111111101011111
1111101100001110
1111101000001011
1111111010111011
1111111111100010
1111110111010111
1110111010
1110010000
1111100110001110
1111101011011010
1011100000
1000011010
1111100001100011
1111111010100100
1111110001011000
10100110
1111100110010011
1111111100001100
11000010
1111001110000010
1111100010111101
10011110011
1110110001
1010101
1111111001111001
101001010
1111111001001000
1111100100101000
1111111010000110
1111101010110011
10111010010
1111110110100110
1111111001001001
1111011110000111
1011111100
1111101011111111
1111111101111011
1111111011011001
1111010111100101
10110110011
1111110100111000
1111100010110000
100101001
1111101111101110
1111110000111011
10101010101
1011000110
10010010
1111111001100011
100101001
1111110011000100
10101100000
1111110111000101
1111101001001001
10000111101
10100000100
1101101001
1100010110
1100110
100001110111
1111111100010101
1111110010001101
1001101
10000011
1111011100011110
1010010010
1111111010110010
1010011000010
1001110000
11001001
1111111100001011
11001011110
11011000000
