10010100011
1111101111001000
1100110101
11100111110
11001001010
1111101101110101
1111110011111011
11100000
11000010111
100000010110
11100110110
11101000100
1111101111010110
110010000
10000111100
1111101100011000
1001010001
1111100111
1001011111
1111100011110111
1111001001100100
1111110001100100
1111111101111010
10011010
11101010100
1111110010001011
1111101011101000
1101101
1111101011111000
1111011010100110
1111011111101110
1111101011010011
1111111100000110
1111110110011011
11011
1111010001
1111101011001110
11010000001
1111011011110101
10001101010
1111101110000000
1111101011011011
1111111100000011
1111100111001001
1111011011011101
1111011110010000
1011110110
1111101110101010
101010010110
11110110
1111110111011101
1110000100
1001111101
100000001101
100000100101
1111111010010101
110000110
10110000011
10011001110
1111101101111101
1111110111111001
110001111
1111110101010100
111110
1100101000
1111101011111000
1111100111000000
1010110100
1011011011
110101010
1111110001010111
100111111110
1111101001101010
100010
100011100010
11110110101
1111100001011101
1111111101101000
1011111001
1100101111
10010100111
1111110101011101
10101001011
111110010
1111101111
1111100011101100
1111
11000110111
101100000000
1011001100
10011010
101000110110
100010101001
11100100100
1111110110101101
1110000
100011011
1111111011110000
1111111011110011
11000101101
1111011001101111
1111111111011010
1111110101001011
1110011
1111101000010010
10101001111
11101100
10001010
101010101000
100010011
1111101111100111
1111101010011101
1111110001011110
1111101101100110
1111100001101110
10000101010
1111111011100000
11000110101
1111110110011000
1100001110
1111101111001000
10100001001
1110011110110111
1111111010111011
1010100101
1011001001
1111010100011011
1111110011011001
