1111010010111111
1111111110010111
10100110001
1111110101010101
1000101111
10100011
1111111101101011
1111101001101011
10000111111
11000111000
1000111010
1011111100
1010010000
10110001
11110110
111111011
1111111001110101
1111110101011110
1011111110
1000010110
10011110100
1111111000
10001000111
1111101000011001
1111110001001011
1001101110
1111111111101100
1111110110000001
1111010010
111001000
1101100100
1111101010111110
1111111011110100
10000100011
1111100111010111
11101111
101100100101
1111100011
10010110011
10011001
11111110
10101011100
1111111001110100
1101010011
1111101100011111
1111110110111110
1111111010011101
1100001001
1111110001001011
1110100111
10010110101
1111111111100011
1001110010
1110111010
111010010
110010010
110101000
1111101011010111
1111110111100110
100001110
1111110101101010
1100111010
10100000110
1111111011001101
111011000
1001101000
1000011111
1111111100001111
1111110100100010
1111101111111011
1111111111001010
10111101
1111101100000100
1111101101100000
1111111000111101
1111101101010110
10100100011
1111111001000110
1000010000
11100010100
1111100011101010
1001101010
1111111100011010
1110101101
10011011100
1011010001
1111101100100000
10000011000
10000010010
1111111000011001
100011
1111010001110101
101100010
1111100110010001
1010110
1111101111010011
1111111100011000
1111110011110110
1010000000
1111111111000100
111001011
1100010100
10010110111
1010000
1011101101
11100011
1111110101111101
1111001111
1111110100101000
11010010001
1010100110
100000001001
1111111110101100
10010110
11010000010
11011110001
1111010110010010
11001110001
1111111011010111
1111111000010001
111000101
10010000
110001011111
1111111000011011
1111101111101010
10010111
110111110
1000100010
