1111111111010110
111001011
1111100011100101
1111101101110101
1111100011110001
1000011000
1101010110
1111110001000001
1111110001010111
100010
1111111010111011
1111011001100001
1111111001100011
110011011
1111101101111011
1110011111
1111101101011010
1111010111011111
1111101000011110
10011001010
10111010111
10100110001
1111101101001011
1000101101
1111010010110000
1111111110000011
1011110101
1111100111111011
10101010
100111000110
100001000011
10001111101
1111110000001000
1111101100
10011101000
1111101111001101
1111111100100000
1111100111011111
1111011011
1111101110111000
10010001011
1000000001
1001001110
1111110001011101
100010111100
100011010101
1100101
1000100011
1111110011110000
1111101010110011
1001111101
1111111100001011
1111100111000011
1111011000000110
1111011011010111
1100000101
1111110010000001
1111110110110000
1111110101100001
101000000
11101111
1111110010101011
1111111101101010
1111111111010000
1111101010111100
1101011110
110011000
10100010010
1111101100101100
1011111
11010100010
1111110011000111
100110101011
1111111100111100
1111010000101000
1111101011010010
110010
111001011
1111110010001101
1111110010010110
1111001111000000
10010101001
1111101111101001
1111101001100101
1111100110001001
1111111101110100
1111110000101011
1111101011110000
1111011010100100
1111111100101110
1110100100
1111010111111011
1111101010001010
1111011010001010
11000000
1110010100
1111101111010010
1111101111110001
1100010011
1111110001110000
101000101101
1111110111100111
1111111111100101
10111001
1110011001
1111111000101011
1111110110101011
11101100
1111010001011101
1111110010100000
10110100100
1101000
1111111011011100
10110010
1001110010
1111101111100100
11110111100
1111110010111001
1011100110
10101011111
10111111
1111111100000110
100011110011
11001110001
1111101011110110
1111110010001101
110000110000
110001000
