101000000101
101001010010
1111110000000010
1111111010010101
1001010000
1111011111001111
100001101
100100000
10001001010
11100111001
1011111001
1011001100
1111101011001110
1000101100
1111111010010010
1111110101001100
1100111001
1111110101100000
1111111111001111
1100101011
1111010011001111
10010010110
1111110100001101
1111111111011010
1111101100011100
1111100011110011
10010001101
1111111011101110
1111111000011111
110101110110
1011100000
1111111010100011
1111111100110101
1011010
1111110010101101
1111110001011110
1111110101000011
1100111011
1111100101110011
10100010
1000010111
10011000
101001000
1111001100111111
110000000
1111111011001100
10101101101
110010010
1111101110110100
1111111101011100
1000111011
1111100110001100
1111110101111111
1111101000011011
1111101110011101
10000110111
1100101111
11010001010
1111101101000100
1111101110010011
1111111010011001
1111111100010010
1111111000011011
1101110011
1111110110001110
11010110111
1111111010100110
1111001011110101
1111111101001001
1111110010100101
1111001111
10011110111
11110111101
1111111111101001
1111111101111001
1111110110110110
111000101
11001101100
1111110000010100
110010010
1000001
11101000010
1101001100
1111101000111100
1111111101100010
1111110010111111
1111101111011101
1111111110001000
10111010000
1111110000000110
10111110101
1111011101010000
1111110110000110
100111111
1111110001010100
100010111
1111011001100010
1111101101010001
1111100101001101
1111110001110001
1101010011
1111111010100001
100001
10101111111
101000011
1011100110
11000
1111101101110001
1111111000001101
1011101000
1111100110100011
1110101001
1111101110111110
10110110000
1100011000
1000110101
10111011001
1000000001
10111001000
1111100011100110
10000101000
1111110011110111
1111101001101101
1000010001
1111110010000111
1111110001100100
1100010
1111111100000111
