11001011010
100011000101
1111001001111100
1111111010001011
1111110110100101
1111110011101100
1111111001100010
10111011010
1111111110111001
1111010101101010
1111110001100011
1111101011110100
1111111000011111
10100010010
1111111111001010
1111111111101010
1111111010101110
1111110110100110
1111110001001100
1111111100111101
11101010
111001100
1110111110011110
100011110010
1001000100
1111111010101100
110011101
101110111
1111110101011011
101100101111
1111110101101100
100001010111
1111111000100101
1111001010
110011011001
1000110
1111110100001111
100011111
1111110010000011
100000110
1111111000111101
1111100000010101
100011100111
1111100100100101
110110011111
100101001010
100000101
1111111011110011
100100010100
1111101010010101
1111110101000000
1111111100100100
1111001111110110
1111010100110100
1111111010110100
11000101001
100010101001
10001111100
1111110001000111
101111010
100000000
1111110010000100
1111101110011010
101101011
1111010101111010
1111101010100101
10101011111
100101111111
1101101111
11000111100
111101011
1111101010010010
11101111101
10000111000
1111111101000000
1110111111
1111110110001000
1111111000110100
1
1111100010111010
10100000000
11001100001
110000000
1111010100100001
1111100
1111101110111011
1111110111001100
1111100000011101
1111101001110111
100110111
10010110001
100000101011
1111100111010101
1101010110
1111110100110011
11110011100
10101100
1010010
10100111
1111110011010010
11111000
1111111110011110
1111110101111101
10101101111
1000110110
1111101111110011
10010010101
111101001
100000101
10110100011
1111111101100110
1111010010001111
1111110001000101
1111110001001111
101010100
1111111000010101
101000110101
1111101110010110
100011010
101100100001
111111001
1111111101110011
1111111011010001
100111010000
100000101
1000001111
101100110110
10000101
