1111111000011010
100001001001
1111111011111101
1111100011011001
101101011
1111110100
11010000100
1111101010000011
1111110100000001
1111011101
10110101
101110100
1111111111111001
111110001
1111101111100011
1101010101
1111111010101010
1111110100100111
10101010
11001001001
100010110011
10010101101
1001110110
1111110011010011
1111010110001011
1000100110
10101011000
1111110011011111
1100001110
101101010000
100100011010
111000011
1111110011110111
1100100001
1111111100001100
1111101100101110
11111101101
1111110011010111
11000101110
1111111001110001
1111110101
10110110010
100000100
101100101
1101001001
11111000000
1011110110
10011100101
1111100110100111
1100001110
1000101000
1111110001101101
1100001111
1111111110010111
1111101011110010
1001000001
1001011010
1111110000100011
1111101100111101
111000101
1111111111101000
110101
1001110101
1111111000001010
1001011101
10001111000
1111111101101010
1111101101000011
1111111111001100
1111111010011101
10010010100
1111111010001010
1110010001
1111101011111010
1111100110011101
1111110001101101
101110101
1110100
110000100
1111111011110111
1111011001000010
1001111
111000101
110001110
1111111001111000
10011010
1111101010011001
110001110
1111111101000110
1111111100010001
11000100000
1111000010100101
1111110111011010
1111100000010101
10000110110
1111111010110110
1111101011000100
10001111
1111110111010100
1111110101010101
1111001000
1111111100001001
111011110
1000100000
11100101111
1111111011111001
1001010000
1111111001011110
1111100010010101
1000111000
10000010
11010100
1100001111
11101110100
10011000101
111001100
1111110111001110
1111110101000010
10101000010
1111110001101100
1100110100
1111111010011111
111101100011
110011001
1111101110010011
111101111
11010101010
10100111000
