1111001011100001
1111100111001101
1001100
10101000
1111100100101000
101001110101
1000000101
1111111011000001
1111100010010110
1111111011100000
1111100011011010
1111110011100001
100000100110
1000100101
1111110111000011
1110100010
1111100001111111
1111101111010010
1111111000111010
10110011
1010011101010
1111101110000101
1111110000
1111101101110010
1111111010100000
100010110001
1111101000101110
1010111001
1010100001
1111100010110001
1001011101
1111111000110001
1111110000001011
111110
101111100
1111111000110100
100110001111
1111100010101010
110000011110
1111100010000111
1111111010111001
1010111010
1111110100111001
1000011111110
1111110100010000
10101011
1111100001110101
1111110010011110
1111110111001000
100111
1111110000001000
10100011010
1111111111000100
11101111101
1111110101100010
1111110001001000
1111110011011011
1111001011001011
10101011111
100010010101
10000110001
1111111001010011
1101111110
1111011001010010
100001110
1111110000101101
1111110011011010
111100110100
110000100
1111111101011111
10101100
1111010100110110
1111100111001110
1011000
1111100010010010
1111110110001110
111011110
1111100001010011
100101110
1111111001100111
1111110000000000
1111101000101010
1111100000001000
11011011000
1111101111100100
10010101011
1111101111001110
1111110010111011
1111011010000001
10010011
1111100101011101
1111101100101100
1111111011001100
1111011111010010
1101000101
1111100110001110
111001000101
11011101
100010011011
1111110100011110
1111101110110011
10001100000
10110001
1111101001111111
1111110100100000
1111010000100001
11000111100
1001111100
1111101111010101
1111101101100101
100101010010
1111101011000001
11010010000
1111111010110100
1011111111
1111111000100100
1111100111110110
1111011001011001
100110
100010110111
1111110001100110
1100111010
1000111010010
1111100111111000
1111111101000001
1010001010
110001011
10011000111
