10101011001
11010000
1111101001011111
10100110
1111111011110111
1111111111100110
1111111001101010
11010110101
1111110011111101
1111001011010011
1111111101110010
1111111001000110
1101000010
100010111011
10110101
1111101100101110
1000010
101010001
1111100111001111
1111101101100000
111011101
1111110110011100
1111001100100100
10111100101
1101001011
10001010001
1111110110110000
1000101100
111010100
11010001011
1111110010110000
11000010011
1111111101111000
1111110100001011
11011110110
110010100
1111100101001101
1111111010011001
1111111011111010
1111110111011101
1111110001110110
1111100101010110
1111111101001110
1111111100010000
100100110001
1000101111
111000
1111110000011001
100011000100
1111110011010010
1111110000111110
1111111001100000
1111011100010001
1111101001011010
1111111100010001
1111110110111110
1101011
1000000100
101011101
1111111111010111
1101011111
1111111111101101
1111110100101110
110111
1111011100101110
1111110101101110
1010010
100000010110
10001100010
101110110
1111101110001101
1111100100111101
1011000100
10001101010
1001100000
1101100001
1111101001000000
1111110100001011
1111111000111101
1111100000010000
1011011000
101101110
1111101111101010
1111010111101001
1010001
1111110101111100
1111111110111011
1111111011001010
1111101111111001
10001000111
110100100
100101110010
1111111100011011
1111000100
1111111000111000
1111110001
11010010001
10010001000
1111101111
10100000
1111110101010010
1111111101010011
1111100000101100
1111111111101010
1111110100101001
1111101100010010
10001000101
10000100011
1010001111
11101101
10010111
1111011110000101
10110
1111111101110100
1111101011101100
1111101010111101
11100011001
1111011011101001
1111111110111100
101110001011
110000000
1101110001
1111101101101110
1101101
1010011000
10100010000
11110010001
101100011
