1101000101
1111111010111011
1111111011101010
100000111
1111101101111111
1010110
1111101111001101
1011000110
1111110010110001
1111010111000000
1111110100101010
1111011111001100
10101110
11001011011
100011000
1111111000010011
1111110101000001
101010111
1111101100010111
1111111000110101
1010101101
1111111101110100
1111011001000001
1101110000
1001010111
1111110111010000
100010100
10001010100
1111001110
1111111110100011
100100010
10001001010
10000100101
1111110111010110
110111100
110100101
1111100101010111
1111110110010001
10001011111
1111111011010011
1111110000101100
1111100111101001
10010010100
1111101110110000
1111111001
11010110010
100101001
1111111101000001
10010100000
1111110010110111
1111111110100001
101000000
1111100000010001
1111101101001000
1111111010000001
10100001
1011010
111000101
1111110111010000
1100000010
11001001001
1111100011110011
1111101000111000
1010010010
1111100001011001
1111110001111100
1111110111101100
11101101110
101110
10110111001
11010001
1111101110110101
11000100010
110110011
1111111001000110
110010011
1111110001000101
110000000
100010001
1111011100101110
1101011000
1010010
111101
1111011001100010
1111111010010100
1111110000100100
1011000001
1111011111111110
1111100101000110
1111111100011001
1111111010000011
111001111100
1111111101000100
10011100100
1110011011
11011011010
1001111010
10010011001
1110000111
1111111011100110
1111111010011000
1010100110
1111101100000011
11111111
1011011110
1011100
10100101100
1001000100
10001100011
1111101101100010
11111111
1111110011100000
10000011
1111101101101101
1111110110001010
1111101111100111
100011000011
1111100110111101
11010000
10100110010
1111110000101011
1111111100110101
1111101100001011
10110001000
111010011
1111110110001101
10101101111
10100001
