1111110100011110
1111011111110001
100000011
10010011100
1111100110011001
10011111111
1111110000011010
10100101110
1111110101000100
1111100010010011
1111101101011101
1111101011110000
10100010010
11001001
101110001
1111110010011010
1111101000010101
1111101011
1111110111010000
1111101101010001
11111101101
1111101000000100
1111110101101011
1111100101
110111001
1101010010
1111101111111010
1011010111
1101111011
1111010101111101
1111110111110110
11000110100
10110000010
1111101110010101
101100111
10000001010
1111101100000111
1111101110110111
100000011101
1111110010110110
1111110100011011
1111111110000010
1111110110111000
100000001011
1111110000101111
10000100000
1111101010100111
1111111011101000
1011110110
1111110010101111
1111101100001001
10001011101
1111110101110001
10000010001
10001110001
1111100110111001
1111110111111111
1111110010000101
1101011100
1010010011
11011010010
1111111100100001
1111101000010110
1111101010110111
1111111110011101
1111111111100010
1111110001111010
101010111001
10011011
1101011111
1111110010001000
1111101101111011
1111110010010101
11100000001
10110101
110100001
100100000
100010000
1100000000
1111100001010010
1100101100
1111110001000110
1111101100011000
1010011101
1111101101110000
111101010
101110010
1111101000110010
1111100100110010
1100010000
1111100100110111
100101010001
11010001
1101100
10100101101
111011001
100100000110
10110111110
10101101001
1000010101
1111111000011111
100010110
1111101011010001
1111101011101000
10100
1111101111110110
1110010100
10100110101
1111001111
1111011101110101
1011011000
1111100110110111
10010111011
1111110011110101
1111111010011010
1111110100010111
1001110010
1111010111001011
1111111101110001
101001000111
1111100000011010
1010100001
10000010
100000001
1000011101
1100101001
1111111010100011
10000011111
