11010101100
1111011101010100
10000001100
1110101101
1111111100010011
1111101011110010
1111101110111000
10011000100
101101
10110011100
101001000011
1111111010010100
1111111001110111
100111
1010000100
1111110001001101
10010111111
11111010100
1111111110100111
1111100010011101
1111000001111111
10100
1111101010100000
1100010001
100111101111
1111011001100011
101001110
1110110101
1111110011010111
1111011000111001
1111101111010110
1111111011001110
10011011000
1111110011111110
10100101
1101000101
1111011111010111
10011011111
1111100010000101
1111111000011110
1111110111100010
1111110100011110
1111101010100110
1111011110010100
1111101101000000
1110100
111111001
1111110100100100
111101000
1111111011111010
1111111001010101
1001101011
1111110011100100
11111
10111010111
1111111100001010
10100111010
10001101
100110101
1110
1001000
1111100011110111
1111100000100100
10110110101
1111110100100101
1111101000010011
1111101010101001
1111110001111011
101010000
1100010000
1111101001000010
100101000011
1111111010000101
10011000010
11110011000
10101100101
1111101011110011
1111111111001101
1010011010
1001101001
101101010100
1111110111100000
1000000010
1111111101111110
1000110
1111100100001110
1000100010
1111110011100111
11001100100
100111010
1111111101000110
1001010001001
1110001111
11111111010
1111111110011111
1100001011
1111110000001101
1001000111
1111100100110011
110100010
1111101111001011
1111111101101010
1111111111110101
1111111111100001
1111111110111001
1111000110
1111111000110000
1111110010011110
100111101101
1111110101111100
1111111000001011
1111111111000100
1111111011000111
1111100011001101
1111101101111000
10110100001
10000110010
10101100101
1111110111101000
1111101010100110
1111100111100010
1111111100001110
1110111101110010
1111111111011110
10000010101
1111111100100111
1111100000000111
1111110011101000
