1000001111110
101001000000
1111110111011010
11001010
111010110
1111011111111010
11000001
1010001010
1010111001
1111011111010000
111
1111110110000111
1111101111000101
1010110010
1110001
1111111010011101
10001011110
111011001
1111110100110101
10011000011
1111001111000010
101000000
1111101101111111
111000101
0
1111010011111001
10101111110
1101011
1111111100101110
101010110001
100101000
1100110110
10100100001
1111111110110011
1111111011100001
1001010
1111011011111011
1111111110111000
1111101010011000
1011111000
110100011
1111101111111100
10101111000
1111000011101101
10101001000
1001110000
10110111111
10011110111
1111111001001001
1111101101101111
1011011101
1111101000100000
1111111100110011
1111010010100101
1111111110001101
1101110001
110010001
11111100001
1111011100000001
1111100100110110
1001100011
101010111
1111111010011000
100001011110
1111111000010001
100001111
1111010
1111001111101101
1111110010011000
10001100101
1111111100001100
10011111010
110010001000
1111111111111101
10000001000
11110001
1111110101111111
100011000011
1111111010010010
1111101111011011
11001111101
100000011110
1111111101110011
1111001100110011
1000111001
1111110010111111
10000110010
1111111000100000
1111111110010000
1111101110011101
10010101101
10011100101
1111111010100101
11010001010
1111110111011101
10000001101
1111011010110101
101101110
1111101100011100
1010011101
10000001010
1111101000001111
1111101110000101
11010001110
11011110
10010110000
1111111001010100
1111110010000111
11010101100
1111110110101100
1111101001100000
1111111111001111
1111101011111111
100000000
1111110010011001
1111110010111111
11111100100
1111110110010100
10000001000
1111100001100011
1111111111101111
10011000
1111010000000101
11101000100
1111111011101000
100011
101010
1111100110011110
