1111111010100011
1111110101000000
1111101111010000
100000100
1111101110110000
10011010010
1111111110000100
1100111000
1111100110100111
1111011010010000
1111101010000101
1111101101111000
101000000
100011000
1111011011
1111111100110110
1111110001101000
111101001
1111100111100100
1111110111110010
101101100110
100100010
1111101101110011
1010001111
1111111101011100
11010000101
1111111001010110
1100010001
1011011010
1111101011010111
11110000
10100111010
1110011010
1111110101110110
11110001001
1010001110
1111100001000101
1111011101100110
10010000111
1111111000011111
1111111011111010
1111111010010001
1111111111100011
1010101101
100111101
10011100110
1111101101011011
1111110001111000
11011001001
1111110001011010
1111111111010000
111001011
1111100101010011
1111111010010100
1111111110110000
1111111010110110
1111111001000111
1111111100100001
1100110001
11101001
11010111101
1111101010101000
1111110111111011
1111110111001001
1111101111001011
1111110010111010
1111111101001011
110011001011
1111111110001001
1000110001
1111111100000111
1111101110010111
1111110111101001
11001001000
1000110101
1111111011101101
1111111111100000
1111111010110111
1111111100001100
1111101110101101
1111111111000100
1111110011011101
1111111100100001
1111111010011000
1111100111001000
1111111001001111
1010110000
1111011101000111
1111011001111101
1010110010
1111111111100010
11011010010
1111111001111111
1111110111100010
11101111
1111110011
101001110110
110111
10110001010
10011011
1111111010100100
101100010
1111110100110010
1111111011101111
1111111010011000
1111101101101000
1101001001
10011101111
1111111000011001
1111110100011011
11000010101
1111110011010111
1110011110
1111110111101000
1010011
1111110011010101
10001110001
1111100000100000
1111110000111001
111010000000
1111110111110110
111010
1111111110110110
1010001011
1101000101
1111111110010100
10000001000
10000011111
