10010100
1111101110001011
1111101101100100
11001000101
1111101110000011
10000010011
1111101110100010
10010010010
1111101000010011
1111010101011111
1111101011010000
1111101011011100
1111111111111100
10101100100
10010100001
1111111100001101
1111110100011101
10110100011
1111101011101101
1111101010000011
10010110110
1111111110100001
1111100000001100
110110110
10110100111
1111100001
100
10000100001
111110110
1111101111100000
1111110111010000
1001101101
111010110
1111111111101011
101000001
1111111011011111
1111110010001011
1111100101111001
1001011011
1111110010011001
1111110110100010
1111110000101100
1111111011101110
1001001010
1111111010010110
1110110110
1111101110010110
1111101101001110
11111101000
1111101000011011
1111111111011110
1101101
1111100011110011
1111111000001001
1111000
1111101011000010
1111110001111101
1111111111001111
10110111000
1110100010
11011100000
1111110001110011
1111100111011110
1111110111110100
1111110010111100
1111110011010100
1111110100001101
101001001000
10111100
1011100100
1111111101001011
1111111001001110
1111111111111100
11011110011
1101000111
10000111000
1111101111001001
1111111111011011
1011000100
1111100100001101
10100100010
1111111000101110
1001
11
1111110001001100
1111111001011111
1110000010
1111101110100010
1111101101100100
1110000001
1111111010001001
101011010011
1011010100
111011010
10000011000
10000110101
10111001111
11000101101
1111010000
111101010
1111100000110011
1100000111
1111101010000001
1111101011010101
1111101100000110
1111111100110111
10110101100
10100101010
11100100001
1111110110011100
1100010111
1111100010000010
1100110010
1111101110100000
1111111100110111
1111100010011101
10111011111
1111100100010100
1111101100001011
101101001101
1111111000110000
100110000
1111101001100000
1111110101100101
1011000100
1100010001
1111111100000001
1001010101
