1111001101101110
1000011000
1101110001
1111101010110110
1111101111000011
11010101000
1000110100
1111110010011001
1111111111101010
10101111110
1010000110
1111111101011111
10100010011
1111110000010001
1111110001011001
10000000010
110000
1111101000101010
1101011001
11000101011
101100001111
10001000101
1100110001
1111101110110100
1111100101100111
11001001110
10010001111
11101101
100000000
100001011000
101001111111
1111111101011010
1111111010010010
10010001010
1111111001110010
1111110100011111
100010001001
1111111101111111
11000011011
1010010
1111000101
100100010100
111100010
1101010101
1111111110100100
11100
1111111111111111
1111010110
1111010000010001
10011101001
1111100101
101001001
1011110000
1111111110001101
1111101011110101
1010110001
1111111011111011
1111100100100100
110101011
1000110111
1111110010110011
1000010
1101100111
1111111000010111
10000011100
111100100
10100110100
1111101110100100
1111101010110110
1111101101000100
10111011111
1111111111000000
110000101
1111101011111000
1111011111010011
1111101100110001
100101010110
11111100
111111001
1001101111
1111110000101010
1111111101010001
1111111111111001
10010010100
1000101001
100000001111
1111101000100001
100010000
10011011
1111111100111100
1111111110011110
1111011100111011
1111101101100100
1111010101011110
1010011101
1111100010101010
1111100101011001
1111111101100010
1111110100001000
1111101100110110
100010000000
1000111
100001100101
1111111011111001
1000100101
1111110000010000
1111111011111111
1111111010001111
1111011111000110
1110100001
1010001111
11000000011
100000000
111
100110011100
10100000100
1111100101111111
1010101001
100000101
1111101011010110
1000000110
1111110101000010
1001110100111
101000001
1111101110011100
1111110110000100
11000100010
11000001100
