1111111000001011
100100110010
1111110100110111
1111111011010110
10111011111
10010101001
1010010111
1111110110100010
1111100110001111
1111001101110101
1111001100110110
1111111011101110
1111001001
1111110010
1111101111000111
100010011010
1111101010100010
1111101011100001
1111101010111100
10001011001
1010010000000
110001000
101111001110
1111110111100010
1111011101010111
110110011101
1010001011
11011101
11011100110
110110111010
10001011000
1010101110
1111110100001011
11101101011
1000101001
10100101
101111011011
1111011001001001
100111110000
10010010010
1100001010
1001001111
11000001001
11110010000
101001011000
1111111000000100
1111101010001101
11100110001
1111111111111101
1111101101000110
10001110001
1111111100001110
10110000100
100010101010
1111100010100100
1000101010
1111110010001111
1111110000110011
1111100101110101
1111111111011011
10000100011
100010010011
100010010010
1111110010000001
1111111100000000
11110011101
10100110101
110010001110
1101001111
11100
100000011000
1111011100010100
1011110011
1111110011100011
1111011101010001
1111110110111101
10110111010
1111111110000101
1111111010001110
1111001110110010
1111000001010101
1111110011
1111011100011101
1111101011101010
1111101010011011
10001101100
1111100010000100
1111110100000110
1111001010000010
101100001
111100
1110110101111100
1111101001100000
1111010010011011
1010001000
1111100000110100
110010101100
1111101000011111
100101101100
1011010000
1101101011
1000010
1111111100000100
1111111000100010
110110101
1111011111110011
10101010011
11100010100
1111010010001011
1111111101100001
10010011001
1111110101001000
100101011111
1011001110
10100111100
1111010010001110
1001110001
1111011111110110
10110101001
100111110110
11100100111
1111111100110100
1011101010010
11010100
1101111101
1111011110
100110111111
100110001000
