1111110001100111
1111010010011001
110011
10000100010
1111111000001010
10101010100
101100000
10100010100
1111111000110110
1111110010101001
1010101001
1111111001000111
1000111011
1010101001
1011010110
1111110110100000
1011011
10111010000
100010010
1111100110101110
11101010010
1111110001111000
1100000000
1011110100
11010011000
1010000011
1111111101001100
1111011101
1110010101
1111001010100001
1111100111111011
1111111001010000
10110101110
1111110101100100
11000110
110110010
1111110010110101
1111110010111010
11111011
1111111110000101
1111100100101001
1111111100111110
1111110000101011
101011111111
1111101111100101
110101011
1111110000001001
1111101100111000
10110110100
1111111000111000
1111110100110110
10100100001
10110110
101101101001
11001010111
1111101110111010
1111101110000110
1111111010000011
100101010111
11000000000
10000001001
1111111101111101
1000110011
1111110001010001
1111000110
1111101111100000
1111101110010000
10111101010
10011101111
10110011011
1111101010010000
1111111100011111
1111101111101101
10101010011
1000011100
1100001011
1111111001110000
1111101101100011
10101011110
10010011
100011010111
1111100011010010
1111111101101001
101110100110
1111110110110010
1000110
11100100100
1111111101000101
11011111
1111111111
1111100001000001
101010010110
10111110011
1110110001
1101111011
1111111001000010
11010100101
11101010100
1100001000
10000011110
1111100101011100
11011010010
1010001010
1111101100110111
1111110100001010
1111101111100101
10011011000
1010100
100001110111
1111100101111100
11100000111
1111110111010010
1101001000
1111101110011010
1111110101110111
1111111001011101
1000010111
1111111111100111
1111110100111111
1111110111
1111110010010000
10010000111
1010111001
1111111000000001
1100100001
1011111011
1111110110100001
1111011000
