1111110010000110
1100010101
1111111011011001
1111100100111110
11101000000
1111111100001101
10001000110
1111110001100101
11100011010
100010101000
100010100
10000111110
1111111101010001
1111101100110100
1111110010111001
1111111101001111
1101010
1111100101100001
111010110
1000101100
1111100110001101
1111111111010000
1111010010
1111111000101110
1111100100001010
10110001
110110000
1111100111100111
1111110000110010
101000100011
100
1111100011111010
1111111001100000
10010010110
1111100110011011
1111110011000010
11101001111
10111101110
1111101010100000
11001001111
10011011110
111000010
111110001
1111101000101111
1111101111111010
1111110010010110
10000011000
1010101011
1111110010000011
11010110111
10011101010
1111101010001011
11000011001
110001101
1111101001101000
1010111100
10001010
111110000
1111110010100100
1111111100100100
1111110001011000
11001000001
11011100011
1100101010
10100011000
10000101011
1110010110
1111100111101100
1111101011110111
1111100110111100
10000
1101111110
1000101011
1111101100101000
1111111011011110
1111110110011110
1111111100111011
1001011111
10101
10111001001
1111100101100110
10010111100
10000110011
101010101
11001010100
1110000011
1111101101111011
10100011010
100011100110
1111110010111101
10011011110
1111000011101001
1111111010111101
1111110100101100
1111100101011001
1111100010010011
1111100111011010
1111101001111100
1111110010110111
1111111011011101
1100100
1111101010101101
100100011
10101101
11101000
10101000001
1111101011110000
1111111100001111
1111101010100001
11000001100
1111110011110000
1100100101
1111110101011100
10110110
1111010010
10001011110
1111101011010110
10110010011
10000010001
1111011010110111
11100010111
1111111011110010
1110100100
1111111001001100
1111110100010111
1010100
1111111100100100
1111100011011000
