11010001000
1011010111011
1110111101110000
101011001000
1110110100111010
1111000010110001
10011101
1111110110000111
1111100111001111
1111010110011101
1010101
110000
1111111111000110
10111
1111101111010100
1111100010000110
1001111
1111011000010110
1111100110000111
1111100111110110
1111011111011000
1111010110011001
100100000
1110111111101000
101001100101
111100011
10000
1111001000
1111110011111100
11110100100
101000011111
1111111110010010
10010011
1111101000
100010010011
1111110011000010
1000100010
1010100110
1110000101
10010110001
1111111010110000
1111100011111101
1110110010
1000100110101
1001010010101
1111011111010000
1111101011110001
1111111010000101
1111101111101101
1111010010000100
1111010001000001
1111001001
1111010111110000
11010001000
1111011111111100
1111110101001111
10111110000
100000111010
1111011110110110
111011111001
100000101
1111100100100111
11000010100
1111100100101111
