1111101111001101
1110110101000111
10111111101
1111001000001111
1010010010010
1111110011100001
1111100011001000
1111010110001101
101100100110
11101111
1111110100110000
1111000100
11111000011
1111111100111100
100100110001
1111111101000111
1111100001100100
100100100100
110001000100
1111111101110111
111101111100
101001111001
111101101
110110110
1111100100010011
1111101101001100
1111100010011000
1111101000001101
1111101000111110
1111000000110100
1111011011010010
11101001
1111111100011100
1100111001
1111001100000111
1111110011110000
1111111010110111
1011100010
1111101111101111
1111100111111100
1111110011110011
10010011001
1111111111100011
1111001110110010
1111100011111011
10000001010
11110001101
100110101011
101011001110
1111110100011000
11011011
11110100101
1111111011001000
1111011110
100
1111101000001010
1001000111
1111110011100111
1010010000
1111001010011101
1110010100101001
10010001111
1111100
1111110001000100
