1111010000111101
1110100000111010
11010100111
1110111011111010
1010011011010
1111110010001101
1111010110001000
1111100011001001
11011101111
1101000111
1111011110010000
1111011100110001
101100100
11011111011
11100100011
1111111010100010
1111001001101011
110010000000
1000000100111
10011010
110010010100
110110110100
10010001011
11010101010
1111000001000101
1111101001110010
1111011001101111
1111101010110011
1111111100111011
1110001100010010
1111010101111010
1110001110
1111101101111001
1111111001001011
1110111110010000
1111110010010011
1111101100100010
101011001
1111101100001110
1111011101111011
1111101001011110
1101100110
1111111101110110
1110101101110001
1111100100110100
10001101101
100100110000
100001100111
1110011110
1111101010011110
11000001010
100100011101
1111011
1110101000
10001001
10000111
1111111110010010
1000110010
10100
1111001111110011
1110011010010001
100001101111
11101111011
11010011
