1101111110
1111011100010000
100100
1111011010110101
1111111011001001
1111110000011101
1110010
1111100001110001
1100011001
1111010000110000
10000100110
1111110110100111
11011
1111101111011111
10110101101
1111101101101000
1111011010000000
100110001110
1011011011
1111111110100010
10010100000
1000001110
1111111101010111
1111101010110111
1111110111011011
1111000001101000
1111110011001100
11010000101
1111001100101001
1111111010000101
1111011011010010
10000111001
101000100010
110101111
1111101101111010
10010111000
100001000111
10001000001
1000000001010
1111011100101110
10001001100
1111101100110001
1101111100
1111101010011001
1111100100010010
11011100101
11000010111
10001011110
1001100110
100000111001
1111011110111100
10000110110
1111010010100110
1011011010
1111100100000100
1111110100111010
10100100
1110010000
1111010111000111
1111010100101000
1111011100101101
1111101010010000
1111010110001110
1111011101110011
