1000101100
1111000011000111
100001101111
1110110000101100
1011100100111
10011100101
1111101101101010
1111001111101100
1111110101
1111101010000001
1111110001001111
10110111000
10001010100
10100101
11001111001
1110010000
1111010011111110
1000000100010
111110101010
1011110111
1000100010010
1001000011100
1111111001000100
100111110
1111001111110110
1111001000100000
1111010101000100
1111111011100101
1111100110110100
1111001001010101
1111011011110010
1111110011111100
1111110000100000
111110111
1111011011100010
11100001010
101010000101
11100111010
1111110010000100
1111101000110101
1010010001
10100000111
1111111010001100
1111011011010011
1111010111111010
100011001111
11000011110
101011100111
101000010110
11001100010
10111111101
1111111000100100
1111110110111101
1111011101011001
1110001001
1111011101000001
1111111011111011
1111101001101010
1001111100
1111000010000001
1111000010110000
10111110100
1111101110100101
1111011011101101
