11010011010
1010110000100
1111101100000110
11111110011
1
1111010110100110
1111100011000100
1111100001101101
10101111001
1111101100011001
100001011001
1001011110
111101000001
10101000100
100000000011
1111110110001101
101010000
1111011100
1111001110
1111110110110011
11111110010
1111111000101001
11111000001
1111100010010011
111001111101
1111110010001101
1110010
100001110010
11011011
1111100001000000
110001001001
11000100011
11001000
110000010001
100001011101
1111111001000100
100110010001
111110111011
10110010101
1111111101000100
1111100110000111
1111111111100110
100101000101
110011000011
100111110011
1111101111100100
10011110010
1001001111101
1111111001101010
1111011111110010
1111111011111101
111000101101
1111011100111111
110011010110
1111101111100100
10000011011
100111101010
101100100110
1111101110001010
111100011101
1110111100111100
110001000
1010001110111
101101011
