1111101111011011
1110111110100001
101010000111
1111001101100000
1001011011010
10000001100
1111110010001010
1111110100110010
11010001001
1111110010001011
1111011111111111
11110010001
10010101010
1111111000110000
11010110100
111110011
1111101010101000
1000101011101
101011010100
11011100111
110110011101
101000001111
1111111101011111
1000100001
1111001010010001
1111010110100011
1111100010011111
10010
1111100110010100
1110110110110110
1111001001011011
1111111100010100
1111101110010100
1111011
1111010111010111
11010101
111111011
1111010110
1111110101111101
1111100101010110
1111110011101010
10000100001
1111111000100000
1111010111101110
1111001011100010
10111100000
1001000000
110001011101
10110100011
1111110111010110
10111110110
1111001111
1011010001
1111111010101101
10011110001
1111100101011101
100110011
110011101
110011100
1111001111001100
1110100101011100
11010100101
1000100101
1111101111110110
