1000101100
1111001010111111
10011111011
1111001001110111
100100010000
100011110101
10011011100
11011111100
1111101001011000
1111100101110100
1111111011111100
1000001010011
1111100111111011
1111101111011010
1111110010011011
100101111
1111111101110110
101010001110
1111110000101101
1010101001
1111110001101011
101010011001
1110011000100001
10011000000
1111110011110110
1111010111100000
1111111010001110
1111100100011110
1111110110000111
10110011111
1110110101001000
1110110001000010
1111100101101001
1111001100010110
1111111110111001
10111101110
110111011011
1111100101001101
1110111111111110
1111111100001111
10111111111
1000000110
1111101010100001
1100000100
1111011110101011
1000111010
1111101010110000
1111101010101011
100110010010
1000000011101
100011011110
1110111111110100
100110111
1110110101000111
1101010010
1111100111111001
1111011111110111
1111100001010101
10100010100
1111000101011100
1001011111000
1111110100010011
1110110100000000
1111100100100110
