1111100111110000
1111010010111000
10110001100
1111010001000000
1100011011111
1111110110110000
1111101111111010
1111011001011111
101111000
1111111011011101
1111101011011000
101110111001
100110111011
1111111101010100
11100101001
1111111101011000
1111001000011110
111011000011
11100011110
1101110101
1000100001100
111010010000
11100000
10101111011
1111000011100010
1111011101010011
1111011110010100
1111111001111110
1111101111001001
1110110101001110
1111001010010010
1111101011001001
1111101101011010
11111110
1111011010010011
10100010
11110011111
10000111011
1111011011011111
1111101000111011
1001001111
1111111011101111
10101010
1111011011001101
1111101110101000
110000000110
100101110100
101000000001
110011111110
1111111101010101
1001010011
1101010000
1111111010001100
1111110100110101
10011100111
1111101001001011
1111111110110111
1111111100111000
1010110100
1111010100001111
1110100011100110
1111111100000100
1010000011
1111100100000000
