1111110010010111
1110011010010001
1001100010
1111001101001111
10100100110
11000001101010
1111010000111110
110111111100
1111101101000101
1111111000010011
1111100111001
1110100001011000
1000110110000
1101000011111
1010001011010
1001101100100
1100010010101
100100111011
1111011111100010
1110110111100110
11111011111
1110110110101111
11000001001
100001101000
1111101011011110
1111111010001110
1111101101010001
1001101011010
1110110000000100
110110110000
1111110101110111
1111110110101111
