1111000011111101
1111111110001111
1111000011111010
110101111111
1000110010111
1110110100001000
1101100100110
1111011101100111
10100011101
1001101101
1111101010001111
111100101110
1111101011011111
1111000110001000
1111001111101001
1111110101
100000001110
1111010001101001
1110001011010100
1001100011001
11100111110
1110001000101
1111011010110111
1111111000010000
110100001011
1110110010010010
10000011000101
101000110001
110000100011
100000100110
1100111001100
101000010011
