1111110001000011
1111100000110110
11001110011
1111100101011001
1111001001010111
1110110011011111
111111111010
1111100010110100
1111110010110000
1110101010101001
1111111101011100
111101001001
1111011110110101
101111000100
1000010
1010010010000
111110000100
1110011110
10101101000
1100110001011
10000110110011
100110000110
1111001001111110
1111110101001001
110010001
1111001001010000
111110100001
1001010010001
101100011110
1100111000110
1001101111101
10101000000111
