1000001100
111010011
1001110
101000
1101110
10011011
101
1010010
1111111111101100
1111111101001101
1111111010011011
1111110110010010
1111110110001111
1111111000001111
1111111000000010
11110
110101111
101111000
110110001
1011010
1111111110010101
1111111110111001
1111111100010101
10000111
1000111001
1101100010
1110011111
10000001110
110101000
110000000
1111110
11010011
11011001
11101
10011111
11011
1111111110110011
1111111110011010
1111111010110011
1111110101011010
1111111010110111
1111110101110111
1111110111011001
1111111111001010
11010111
1000100
10101011
11101110
10001101
11001011
1111111111001110
1011011
1001000010
10000001001
1010111000
1100000101
100010011
10011000
11000111
101001001
100101
11011
101111001
1111111101011110
11100111
100000111
1111111101110100
1111111000011111
1111111100011111
1111111011011010
1111111001111111
10110000
101001110
1111111110111000
100000111
100011
11110111
1101011
1111111011001110
1010110
1001101100
1101011001
1000011111
111111101
10101011
10110001
11111100
10111100
1111111111111111
1100010
111001000
1111111110101101
100011001
1001101110
100010001
1111110111000010
1111111111011101
1111111001010110
1111110111111111
1001111
11001100
1000000011
1010011011
11111101
1010110
110011
1011010
1111111110010010
1000001011
110101011
110101001
1000010000
10001100
11000010
1111111110010110
101100111
1111111101011010
110010
1010111111
1111111111111111
10011100
111111001
100010001
1111111110000110
1001
1111111001111100
1111110111101000
10110000
11011100
1010101001
1101010100
1000000000
101010010
10000
1111111011011001
1101101
1111111110011100
10111000
1000011000
10011101
1111111101010011
110000
1111111110100101
11110011
1000001
1111111100100010
1100001110
1111111101011110
10111000
1010110001
101010100
1111111101011110
1111111100011011
1111111001010001
1111111100101001
110
110110010
110011111
1111111101000110
10111011
101000
1111111010000111
1111110101110010
1111111111111111
1111111100111010
10000000
110100100
100011
11100
1111111111110101
1111111101000011
1111111111001110
1111111110010011
1111111111010000
1010010011
100111101
100101010
1010110000
1111111101101111
10001001
1100110
1111111110100101
1111111111000111
100000
10100011
11010100
1111110111001010
1111111010111110
1010011
1111111010110111
1111111101111000
1111111001100100
1111110111011000
1111111101001101
1010100
1111111110101101
1111111110010111
1111111111101001
1111111101001001
11011110
1101001
1111111110100010
11010000
1010001001
10110100
111000011
1001001
1001100110
1100000100
1001000010
101111101
111110111
1111
1111111000111010
1111111101101001
100001111
10001110
1111111001110111
10010
1111110110101110
1111101111100011
10
1111111110111001
11001
1111111111100011
1111111101101000
1111111100010010
10101011
1011111
1111111110100001
11101000
1000111011
10110100
1011001
1111111111110001
1011001011
10000000100
10010001101
1001000101
110011111
1000100
1111111011010101
1111110111101000
1111111101111011
1111111011101111
1111110111010010
101101
1111111001011000
1111101110011010
1111111001100010
110101
11101000
1100
1111111101001000
1001011
11010101
1111111110111100
1111111110110011
100100110
10111000
11110010
1000011
1111111110011011
111010101
110010100
101100000
110010
111010
1111110011011111
1111110101011001
1111111000100000
1111110110011010
1111110111001001
1111111000111000
1111111110111000
0
1111110101111000
1111110100110010
1111111010110011
100110100
1111111111000110
10110
11000101
11100110
1100000
10111101
11100100
100001100
101111011
1111111101101011
101111
100001010
1111111111111010
1111111010101110
1011010
1111110111100000
1111110101010011
1111111000101110
1111111011001101
1010100
1111111110001111
1111111010011011
100101111
1111111101111110
1111111001011111
1111110100100001
1111111000011100
10000001
1111111111100010
1111111110111101
1111111101111111
101001
1111111110011101
100011110
1111111110101011
10101100
10000101
1111111000001111
1111111011101011
1111111101101011
1011001
1111111010110111
1111111110000101
1111110010001000
1111110001111010
1111111100010000
100001101
1010010110
1111111111101001
1111111110011111
1110000101
111011
1111111001011011
1111110111000111
1111111010111111
10000
1110010
1000
1000
1011100
110100
101010000
10000
1111111110001000
1111111011011110
1111111101000100
1111111110111001
1111111000100101
1111111111100011
1110100
1111111010010111
1111111101010100
1111110011011011
1111111011001010
100110100
1011
1111110011000010
11110100
10010010101
1010101
1111111100011111
1111111000111001
101010
1101010
1101100
1111111111000001
10000
1111111010110101
11000110
10100101
101100
1010101
110001
1111111110101110
111101000
11001010
1111111100010111
1111111101100010
1111111001111000
1111111101000001
1111110111100111
1111111101100101
101100010
1111111000011011
1111110010100100
100011100
1000001100
1111111111010111
0
1111111010110111
100101011
1111111110110000
1111111110101011
0
10000100
1111111101111101
1111111111101001
1111111111100000
100011101
10111
10100110
100011111
111010001
1010000010
10010111
1111110100101001
1111111010011110
1111111110111000
1111110110111101
1111111010101011
11001010
100011101
1111111100011100
1111111110001010
100110100
101111010
10000000
1111111110001100
11101110
1100001
1111111111100000
1111111110001001
110101
1111111110101110
10010111
10010100
1101101
111110
1011110
101010001
1010001000
10000110100
1100011100
110111000
1111111100101010
1111110010011001
1111111100110001
1111111111110000
11001111
1010101101
110111111
1111111010001110
1111111110110100
110011011
1011
101111
1100000
1
1111111101110000
1111111111001001
1111111111100100
1111111011001101
1111111111001101
1111111110000110
1111111110111101
10000001
1011101
11010000
10000010010
10101110000
10011000001
1010111100
1010010
1111111100111101
1111111000011001
1111110111101101
1111111111101101
110101011
1111111110101010
1111111010110111
1111111100010111
11111001
1011000010
1111111111001101
10010111
1111111011010101
1111111100101100
1111111111101011
100011
1111111110011101
1010001
1111111111011111
1111111100110010
1111111111110010
1111111100110100
1111111100011011
1100011110
10001001011
110111001
1000111100
110010001
1111111011100110
1111110010011100
1111110101011100
1111111000100111
1111111100101101
1111111000110100
1101111
1111110111010101
101
11010110
1111111111110001
100110010
1111111100010011
1111110110100011
1111111011010100
1111111011101000
1111111100100000
1111111111011010
1111111101101101
1111111110011111
1111111110011111
1111111111111010
100110101
1010111100
101110010
1100100
110001110
11010110
1111111100101001
1111111001011010
1111110011011000
1111101110100010
1111110110011101
1111110101110010
1001
1111111001110100
1111111010111101
1001101
110111101
1111111100100110
1111111111011011
1111110101000001
1111111001001101
1111111011001111
1111110111101100
1111110110100111
1111111010011001
1111111000011100
1111111011100000
10000111
100010100
110010011
1111111111111101
1111111111110010
1010101010
1001000100
1111111101001101
111011
1111111100001011
1111111001111000
1111110100000011
1111111100010011
1111111111001000
1111110111101011
1111111101001001
1010100110
1000101
1111111110100110
10101010
1111111000111001
1111111001110110
1111111010101000
1111110111101101
1111111010100111
1111111000110011
1111111000010011
1111111001101101
10001011
10110011
1111111110111010
1111111010001001
1111111110111000
1011000011
111011110
1111111101000110
10100011
1111111101010001
1111111101001110
1111111010001101
1111111100001100
1111111111001111
1111111011110111
1010001011
110011110
1111111101001010
1111111100110110
1111111100000001
1111111011101010
1111111110011000
1111111011100110
1111111111000001
1111111100000001
1111111101001111
1111111001001001
1111111100101001
1111111100100010
1111111111111000
1111111101000011
1111110111010100
1111110010000110
1111111101101100
1111111101100111
1111111011111101
10011100
1000010
10110111
11110
100100010
1000000
11110001
111111001
11110111
10001011
1111111100100000
1111111001101001
1111111011010101
1111111101001001
11
1111111101110110
1111111011011111
1111111110111001
1111111100010110
1111111101111110
1111111110101100
1000001
1111111100011111
1111111000101111
1111111001100100
1111111110101001
1111111110100010
1111111110000000
110001011
111111111
1111111111101111
10001
1001100001
100011001
101010001
110010000
10110000
1111111110001001
1111111001011100
1111111001101111
1111110110010110
1111111111001010
10000
1111111110111000
101110
1111111111010110
1111111001000110
1111111011010110
100
1111111011101100
1111110110110111
1111110110011111
1111111010110101
100110100
110010001
1
101011110
1000100010
1111111101011111
100110110
1000010010
1011100101
10010010
1111111111000001
1111111001101010
1111111010001001
1111111110000001
1111111101111011
1111110111110110
1111111111011111
1111111101001110
1111111101110010
100100101
1111111100000101
1111111100000101
1111111010011111
1111111010011101
1111110101111011
1111110100011110
1111110110000000
1111111100110011
10011
1111111110110110
10000101
100101100
1010100101
1100001
101010011
1110000
11100010
1111110110101101
1111110110101100
1111111110001110
1111111111000010
1111111110000101
1111111100011011
1111111110011110
1111111111000101
1111110111111000
100110001
100110011
10000
1111111011101001
1111111010010111
1111111101011111
1111110101111000
1111110010101000
1111111010100000
1111111011101000
1111111000000100
1111111100000010
1111111110101001
10000010
1111111110101111
100001011
1111111100001000
1111111100101001
1111111110111111
1111111011110000
1111111101111010
1111111010100000
1111111110101111
1111111111111111
1111111010111000
1111111101101010
1111111000010000
1111111111100001
100111101
101111110
1111111111111001
1111111001011101
101111
1111111010111100
1111111010000010
1111111101010100
1111111100010101
1111111010000000
1111111110100000
1111111011101111
10110111
11000110
1111111111101011
1110001
1111110110000111
100010
1111111111111101
1110010
1001010
1111111110011110
11000110
1111111111000110
1111111000001111
1111111111100000
1111111010111000
10011111
101101011
11010111
1111111111110111
1111111100101101
1001010
110001
1111111010101011
110000
101010000
1010111110
111110
1111111110001110
1111000111
1000000
1111111100010110
1111111100110100
1111110111000110
1111111101101011
1111111011111011
1111111001101110
1101111
1111111111101110
1111111010111101
1111111100101010
1111111101001010
