0
1110110
101101101
1110011
11
1111111110000101
1111111010111010
11000111
101100010
1010101100
110010110
10111101
10100
1111111011000011
1111111010011010
1111110110010000
1111110110111011
1111111001010110
1111110101110010
11101
10110
101010111
10000010101
1111001111
101110011
1111111000100001
1111110111100011
1111110010000111
10111011
100101001
110110
10110000
11010111
1111111101111010
1111111111111010
1101011
11000011
1001100011
111001011
100111010
100010000
1000001
1111111100111001
1111111010000110
1111111111101011
1111111111001111
1111111010001000
11010
101111001
1001011111
1100011000
1100110010
100101011
1111111001111111
1111111001100101
1111111000100011
1111111110100111
10000010
111011
1111111110101101
11010110
1111111100010011
1111111100110100
110000101
111011111
1111111111110011
101110000
110010011
111010101
1110101
100010001
1111111110111101
110001000
1010001111
111010011
10001110
1000001001
1010010001
1101011100
1001010110
10101000
1111111111100100
1111111101110001
1111111001101001
10110110
10101111
1100011
1111111111001000
100000111
101100
1111111010000000
101101
1010111
1111111101111000
1111111101011000
101100101
10110001
1001000001
1010000110
1111111110101110
1111001100
1010101001
111010101
1001011011
1000001111
1101010010
10000111111
1010101000
10001110
1111111100110001
1111111111000000
1111111101010000
1111111111011011
11100101
10101101
1001000
110011
11100
1111111100001111
1111111110110001
1111111111100100
1111111110111101
1111111010001111
101011001
11100100
110000111
1111000000
111010111
1100111101
101010101
1111011
1111111110111100
1000101000
1011111010
1101000000
1100010010
110000000
1111111111100101
1111000
100110
10110001
11010111
10011011
1111111110101100
1110011
10011001
1111111001101000
1111111111110100
110
1111111111000100
100111
1011111000
1111111101011111
10110011
100001011
111010000
110110010
1111111101101000
1111111111101111
1111111110101110
101101010
1101001010
110111100
111101100
110101110
110101011
10101101
11110000
10100100
110011111
1111111111110000
1100001
10001011
1111110
1111111001111100
1111111010101011
1111111110100100
1111111110110100
101011110
101110010
1111111100001110
11111010
1111111101101101
10001000
1111111111101001
111101
1110000
1111111111000100
1001001
1011011011
1111111100110001
100001001
1010001110
110101101
1000011000
101110111
1110001
101010000
1011110
1101110
10101000
1111111110001001
100100
1111111001100001
1111111011100011
1111111100000001
110111110
1111111010111110
1111110011101100
1111111000111100
1111111011111000
111011110
1010111001
10010100000
101001110
1111110100011010
100110
111111001
1111111011100101
11101110
1111111101
1100011010
100111101
101000111
11001100
110000001
1111111111101111
11010
1111111111100000
1111111111000000
10010111
1111110111111000
1111111000001001
1111111001011000
1101111
1111111010110011
1111110011001100
1111101111110100
1111111001100111
1101110001
110101111
1000100110
1000111000
1111111010010010
1111111011011011
11010010
1111111100000010
110100100
10000000100
1100001101
110010011
11010011
1011101
11011110
1111111101100010
1111111110101001
100100
1111111111010101
1111111111011011
1111111001000001
1111111100101000
1111111001001101
1000000
1111111011100100
1111111001111101
1111110010011110
1111110110001001
1111111010111000
1101100000
1011001111
1110010
1111111100100010
1111111110000011
1111111110100111
1111111110000101
1111111100011000
1011110101
1010111110
10110001
110001
110111
10001110
1111111110101110
1111111111100000
1110011
1111111001111100
1111111111100100
1111111100010101
1111111110100110
10001111
1111111110111110
1111111001010111
100001001
111000010
1111111110001100
1111111010001111
10001010111
1000111110
1111111001011100
1111110111001111
1111111100111011
1111110000011100
1111110001101111
1111110110110011
11000111
111110011
10100110
110100101
1111111110011100
1111111101011010
1011011
1111011
10100010
1001000
100010110
1111111011101110
1111111110010101
101101
10100110
111010001
110100100
10001110001
1111110011
10000011010
10010100100
1000000011
1011010
1111111010000011
1111111101100101
1111101011101000
1111101100110101
1111101111100101
100100000
1000011100
10000001
1011111
1111111111001000
1111111111111101
100100110
111101110
101011011
11111
100000010
101011101
1110011
10010111
1111111010110000
101011111
111001011
100000010
1101101111
10010000111
101010000
10110110
1111111100001100
1101001
1000010010
1111110100010010
1111101101110110
1111110100111111
1111111101111001
100001010
1101000
110100
110010000
100010010
100000011
100010111
100111100
110101100
110111001
111110011
100001010
1111111000111011
1111110101001100
1111111100111100
110111011
10100001
1111111100001001
1000000111
1111111101111111
1111110100101101
1111111011111010
11100100
1000101101
1111111110100001
1111111000000111
1111111001001101
1111111001001110
1111111111010000
1111111110100101
1111111110010010
111010100
101011100
110110100
111111101
1111111111110011
111000011
11111001
1001010100
1111111110010010
1111111011011001
1111111010110111
1111111110010110
101111011
1000010111
1111111110011000
100110
1001011
1111111000101101
1111111011011111
11001011
101010010
1010
1111111011101000
1111110110010101
1111101111100000
1111111110000111
1111111110100010
1111111101010111
1001000100
10001101
11001111
1001100
10111110
101100000
110000110
11000100
1111111101011100
1111110110110011
1111111000101110
1111111010101111
10010011
1111111111000101
1111111110010001
1111111110011101
1111111100111010
1111111000001011
1111111011000011
1111111101101111
1111111001101000
1001001011
100000
1111110010010000
1111110000101101
1111110111101110
1111111000000101
1111111111011100
110101001
1100101
100010010
10101011
11
110111011
100101011
101100100
1111111111110010
1111111011100010
1111110111110110
1111111000111111
1111111111100101
1111110111010111
1111111110100110
10000001
1111111101011110
1111111001110000
1010000
1111111110101000
1111111100101000
110000000
1111111011110001
1111110000100110
1111110010110011
1111111011001010
1111111011011010
1000001
110001110
11010111
101100100
1100110
11001011
10101101
101010000
10111100
1111111110101101
1111111100001111
1111111011111100
1111111000101100
10000001
10001
1111111101000101
1000011110
1000011100
110000000
1000001000
10000101
1001110011
1100111
1111111110001001
1111110010101010
1111110100111110
1111110110111110
1111111100000011
1000
110100111
10111000
100010110
11010010
1111111111000000
10101011
11110
1111111111111011
1111111100110010
1111111000011111
1111111101001011
1101011
11100
1111111100111010
1110101
111001011
100000010
101011111
10100000000
1101111011
1100010001
10101101
1111111010110111
1111110110110110
1111111001001110
1111110100011011
1111111010101110
1111111101011001
11001001
1100000
101101001
1100000
1101
1111111111000000
1101111
1111111111001101
1111111010001010
1111111001011100
10110
100001
101100101
1111111101100000
0
11011001
1111111111100101
1010011
1011000101
1111111011
100010011
111
1111110111101110
1111110110111111
1111110101001010
1111110111100111
1111111100011011
1111110111001101
1111111111110010
1111111101111100
1111111110100001
1111111011111111
1111111100100011
111101
1101000
1000010
1111111011011000
1111111110010110
1111111101111011
1111111111010011
111101
1111111100101010
1111111101010010
10001
1111111011001000
10110
100000010
110101101
111000
1111111110000010
1111110111010011
1111111011110100
1111110011100010
1111111001000001
1111111001101000
1111111011011100
110111
1111111100100011
1111111100010110
1111111010010000
1111111010001111
1111111011011110
1111111011110110
1111111010000100
1111111110101100
1111111111111001
1111111111000011
11100000
1111111110110011
1111111101010100
1111111011010101
1111111101101101
1111111010110010
1111111110000110
1111111111000010
1111111101100110
1111110110101101
1111110101011110
1111111001110000
1111111001101010
1111110101101110
1111110111101110
1111111101100000
1111111010101100
1110
1111111101001011
1111111001000000
1111111001000100
1111111010101101
1111111011001010
1111111010111011
1111110110110010
1111111011000111
1111111101110110
1111111011100000
1111111010000010
1111111000101010
1111110111011101
1111111010110001
1011011
1111110110010110
1111111000000001
1001
1111110010011001
1111110000011110
1111111001100011
1111111001101010
1111111000011001
1111111000100110
1111110110001000
1111111000110100
1111110111110001
110
1111111011101001
1111111001001010
1111111000111001
1111111100001001
1111111111010110
1111111111101011
1111111111001011
1111111010111110
1111111110011001
1111111100010110
1111111110110010
1111111000101111
1111111011010101
1111111111000001
1111111101001011
1111110001010001
1111111011010110
1111111100011000
1111101110100000
1111110100111011
1111110110000000
1111111001011100
1111111100000011
1111111100101100
1111111000101101
1111110111100101
1111110001111110
1111010
1111111110011110
1111111011101110
1111111100010110
1111111101000111
10101001
10111010
1010001011
101010110
100100010
101010111
1111111111011011
1111111101010100
100001101
101100100
1111110111101000
1111110100010011
1111111011010110
1111110011001000
1111111011000110
1111111110101011
1111110101111100
1111111110000001
10111011
110000
1111111010010011
1111110101111011
1111110100000010
1111110111100001
1111111001011110
1111111111001111
1111111010111011
1100100
110000011
110110101
1011011001
1001000100
110000001
11101110
1111111111001100
10000101
1001010110
110010001
1111111000101001
1111111100101001
1001101
1111110110011101
10001011
1111111110011000
1111110011011100
1111111110001110
1000000
11000011
1111111101110001
1111111010100101
1111111010000101
1111111001011100
1111111100010100
1111111100110011
1111111111001001
111001
11011100
100100000
11111010
111000011
101001000
1111111100001110
1111111110011111
11010
10011011
1001101
1111110011001011
1111111001001100
1111111101110001
1111111110011101
1111111100000111
1111101101111110
1111110001101010
1111111011011000
1111111111000001
1111111100110000
1111110101110010
1111111000111100
10101
1111111000010000
1111111101000101
1111111011011101
1111111010010011
1111111110110011
1111111
10101011
1111111111000100
1110001
100011100
1111110111011011
1111111000111011
1111111001000110
1111111000101010
1111110100110110
1111101011101001
1111111100010100
101101101
10000000
1111111101001011
1111110001001000
1111110101000101
1001
1111111100011001
1111111011100101
111
1111111111010101
101000110
