1111011
10011000
10011011
1010000
1111111101011001
1111111011111001
1111111111011101
1111111111001000
1110100
1111111111001110
1111111111110110
1100010
1111111111011110
101010
1111111011110100
1111110101001110
1111110110110000
1111111011111100
1111111110010011
1001100010
1100010110
1110100101
1011110101
111100001
1001111
1111110111100001
1111110001101101
1111110000000000
1101110
1111111110100011
11000001
1111111101101010
1111111101000001
1111111101101011
1111111100111101
11100001
100100
1111111111100010
1100000
110100
11010
1111111101111100
1110011
1111110111111000
1111111001010010
1100010
11100101
1010101001
10000000110
1100010011
111100111
100011100
10101
1111111001001101
1111110111001000
1111110001111001
10110001
110111
10010110
101000
1111111101111001
1111111111110100
1111111111011010
100100011
11111111
1111111101000100
1111111101011001
10110010
1111111110011011
1111111111011100
1111111110111100
1111111011111100
1111111011000111
1101000
1001110111
1000110111
1010111010
1000011011
1100100000
110101110
1111111110000110
1111111111101100
1111111101000111
1111110011010001
1010011
11110100
1011110
1111111100101100
10001011
1111111110111111
1111111110011010
10101010
1111111111001001
1111110111001010
1111111010010100
11101
101110110
111010101
10100000
1111111010000010
1111111110001110
10110100
111110
110111010
1000011011
11100101
110001110
111011110
1111111110110100
1111111110110001
1111111100101110
1111110101111011
10
10011100
10000110
1111111110000111
1010111
1000001
1111111000011011
1111111101111001
10010100
1111111011001111
1111111001000000
1001100
10111011
100010110
11101111
1100011
1111111111100001
1111111001000101
1111110101011101
1111111011101011
11001101
100011100
1000001110
11000010
100010110
1001101
1111111110011000
1111111011010001
1001000
1111111
1111111110010001
1111111100010001
1010010
110100
1111111100010100
101110
100101
1111111011001001
1111111101110011
1001101010
110000010
101011011
1010111
100011000
1111111100000111
1111110111110101
1111111001011011
1111111010000100
1111111001000111
11110010
1111111111011100
1111111111010011
110101010
110000
1111111110000110
101001
1000100
10110
100111
1001
11010010
1100010
1111111110011010
1111111110001111
11111
1111111110101011
101110000
101101000
100011111
100100011
1111111001001110
1111111101000101
1111110111000111
1111110101110110
1111111010011001
1111111010000000
1111111001010100
10000000
1111111101010000
1111111101111011
1000100001
1000110
1101110
10101110
1111111111000111
10111110
110011
1111111110101011
1111001
10010111
110001100
1111111101001000
1111111110101111
1111111101111110
100010010
1111111011011000
1111110010011101
1111111000011101
1111110100010100
1111111101100111
1111111110111110
1111111110100001
1111111101010100
1111111000110010
1111110011010100
11011110
1111111101110110
1111111100000110
100110000
10110100
10000100
1111111111010011
11011
11011000
1111111111111101
1111111010100001
1111111111010010
1111111111110101
1000000100
10001100
1011100
111
100110111
1111110111101000
1111110101000011
1111101011100101
1111110000101111
1111111101100010
1111111011110111
1111111010100001
1101101
1111111101110000
1111111001110100
1010101
1111111101111001
1111111111101001
110101111
100001101
1111111110110010
11000001
1111111110101010
10000010
1111111101011101
1111111110100000
1111111111100100
1111111111001101
1111111
101100001
1001011010
10110110
1010110
1111111011100010
1111111011100011
1111110011100100
1111110100001100
1111111000000101
11000111
110010001
10000011
11011100
1111111101111010
1111111110101001
1111111110100101
1111111101110111
10100011
1111111111110111
10010010
11110101
1111111111100101
1111111111111011
1111111111101001
1111111100000101
11001001
1111111111010001
1111111110001101
1011100
110101111
1100110010
100000110
1111111110100001
10001111
1111111100010100
1111110101100101
1111111100001010
101011101
1111111101101010
1111111111101011
1111111001111000
1111111001100000
1111110111000000
1111111111001000
1111111100101110
100100010
11110111
1011010
1111111110011010
1111111110101001
1111111101001100
1111111100101010
1111111111000010
11000000
1111111101111001
1111111100110010
1111111101110101
101110
1010011111
1011101111
1000111010
11010000
101000000
1111111110111000
100001111
1111111110001110
1111111101011001
1111111101111110
1111111001101000
10101101
1111110101001100
1111110110101010
1111111010010111
100110
101101001
1001010
1111111111001011
1111111101011111
1111111111001100
1111111100010001
11111101
10100001
111011
110011
1111111111100000
110010000
1000010010
11001111
1000111001
11110100
1111111110110111
11100
1001001000
11
101011100
1111111000010010
10000010
1000010011
1111111011010110
1111110111100011
1111111010111000
1111111101100001
1111111110111110
1001000
100011001
1111111111101101
111
1111111110100110
101001001
1111111111110011
1110111
1011010
1111111101001011
1111111101100111
1111111111000111
1111111010110100
1111111111000001
100010110
1111111010000000
1111111000101100
1001010000
10110100
1111111000000001
1111111111100110
111101
11010100
1111111010000110
1111111001000111
1111110111101010
1111110111110101
1111111010011001
1111111010011100
10101111
1111111110101110
0
1111111110111100
11001111
1011010
10011011
11010
1111111101100011
1111111010111100
1111111001110100
1010110
10011110
1111111111111110
101000
1111111111010001
10111011
101010011
1110000
1010
1111111010011000
1111111001101110
1111111010100110
1111110101100101
1111110101010100
1111110101001010
1111111000010100
1111111000011011
1111111101011010
1111111111011000
1111111101111101
1111111101010001
1111111110101101
1111111111100101
10100110
1111111111100011
1111111111010111
1111111000100101
1111111010100100
1111111111001001
1111111111010111
101010
1111111110010011
110100100
1000000011
1000111100
11110101
1111111111011110
1111110010111010
1111110000100000
1111111110010010
1111110111000011
1111110110010101
1111101111100001
1111111000100111
1111111010110100
1111111100110000
1111111111101001
1111111110001111
1010100
11101101
1111111110010110
10110
110001
1111111001110011
1111111011001110
1111111101000111
1111111100001000
1111111111011110
110001100
1111111001001101
1000101001
1010110100
1010011110
11011011
1111111110001011
1111101011000100
1111101111000111
1111111001100000
1111110100011011
1111110000111001
1111110101111111
1111111110000011
1111111111110010
100110111
1001
1001101
1100111
1111111111011000
1111111101000101
1111111111011100
1111111101111100
1111111011000111
1111111110111110
1111010
1111111100110101
1111111011011000
110100101
1001000010
1001111000
1100110010
10010000100
110100110
10110
1111110010000001
1111110101000011
1111110001011011
1111111001101010
1111110101001011
1111111111101101
1111111100001100
1111111110101111
110111100
101100001
1111111111111001
111111
1111111110011011
1111111101011111
1111111011011000
1110001
111011
1001000
1111111110011000
1111111010001111
1111111110101011
1000010110
1101011010
10000010110
1101000101
10010011010
1001100101
1001100101
1111111101010010
1111111010010100
1111110001101110
1111110101000110
1111111110110010
11100100
1111111100011001
101111
1010101
110010110
10101101
11111000
11011100
1111111110110100
1100001
11000011
1111111111010011
1111111111011011
1111111011011110
1111111111111100
10100
1000011111
111010100
1001011110
1100100100
111100010
1001000011
11001111
1111111100000100
1111111010001110
1111110111000001
1111110111111010
1111111111010010
11100
1111111010101001
1111111110110011
1111111101100011
10001011
11
100111101
1110001
101010000
1001001
10001011
100000000
1111111111001000
110111
1111111110001010
1111101
1011011
10010100
1010101100
111111100
101101000
111010011
1010100
1111111111010000
1111111010010010
1111111001000100
1111111010011010
1111111111010001
1111111011110000
1111111100011001
1111111100010111
1111111110001000
100100100
1111111111101111
110010100
11100010
11100111
1111111101100111
1111111110100100
100001110
101111
1111111101100101
1111111101001110
110000101
111010000
110110010
110100101
110101011
110001111
11101110
1111111110011110
1001
1111111100101110
1111111001110111
1111111100110001
1111111110001001
1111111011110110
1111111010010010
11000011
101000
10111100
1000110
101100
1111111111011001
100001101
1111111110001110
10
111111
101110
1111111111110010
1111111101100011
10111011
1110010
101100010
110010010
10111000
1111111110001100
1111111011111000
10001101
1011111
1111111000111110
1111111111000111
1111111111101110
1111111101110101
1111111011000110
1111111110001100
10101
1111111111111000
101011100
1111111100111011
1111111100001010
110000
1101000
1001001
1111111110101000
100111
10001001
1111111001111100
1111111101010001
1100100
1111111010110101
1001111
10011000
1111111101110000
1111111010000010
1111111110110000
1010000
1111111010110101
1111111111101110
10100001
1111111101111101
1111111111010010
10111010
1111111111101101
1111111110010101
10
11010100
1111111101001100
1111011
1101000
111000
11111100
11010001
111001010
10001110
1111111011111100
1111111110011100
10110100
1111111100101010
1111111110101000
111111
1111111010011011
1111111101011101
1111111110110101
1110001
1010001000
110011001
11011100
100111011
11001010
101010010
101000010
100011000
1111111110110000
1111111010111001
1111111010101100
1111111110001000
1111111010100110
1111110111101001
111000
1101100
11101100
1111111101111010
1111111100110001
10101011
1111111011100100
1111111100101101
1010111
1111111110110101
1111111100010100
11010101
10011010
1111111111011110
110101101
100011101
10101110
100100
1111110
110100111
10010100
10101111
1111111110100100
1111111110100100
1111111101011001
1111111111110111
1111111100001100
1111111000100110
1111111101101011
1111011
110110
1111111101110101
1111111011000000
1111111110111011
1111111100110101
1111111011110110
1111111011110110
1010001
1111111001110110
1111111100010010
1111111101101000
1111111110110110
1111111111111010
1111111011101111
1111111110111000
1111111010010110
111101
10111011
1111111011111001
100001
10010000
1111111111101101
1111111100010011
1111111100010000
1111111101001001
1111111110101001
11101100
100100111
1111111110101011
1111111100010000
1111111011100111
1111110110001000
1111110100100101
1111101110010100
1111111000000001
1111111001011101
1111110001101001
1111110111100001
1111111100011011
1111111010101111
10100001
1010100
10000110
11100011
11011
1101110
101111101
1101111
1111111101111110
