11101010
101110011
10100111
11101111
10011101
1111111111111101
1101000
1110011
1111
111000100
110000011
10101
1111111100110011
1111111101000011
1111111011010000
11100001
110110010
1111111111000001
1100010
1111111011011001
1111111000001000
1111111000010010
1111111011110111
1111111111011100
101000000
1001001100
1011110000
1111010000
1101111
100111010
111010
1010000
10101010
1111111111000001
1000011
11001
10001010
110010011
100011001
1111111101100010
100001
1111111011110101
1111111000110011
10100010
1000110110
10
1001010
1111111000101000
1111111001001000
1111111010010100
1111111010100101
1101011
10110111
1001111100
111011001
110001111
1111010
10101010
100001110
1111111111101101
10110100
1111111110000111
1001110
1111111101011110
10111111
1010000000
10101111
1111111100110101
10100110
1111111011110101
1111111111101010
11001100
1010101000
1010110
1111111110110010
1111111001100101
1111111010100001
1111111100100110
1111111010011100
1111111010010101
101001011
11101010
100001011
110110001
111101
1111111110100111
11000001
10011110
1111111101111100
1111111110110000
1001101100
1110
101110101
1101001011
111100100
1111111101111101
11011000
1111111100000011
1111111101000110
1110010
110100000
111001011
11001011
1011001
1111111011100001
1111111101001000
1111111111011000
1111111110110001
100001100
111101
1111111111110111
111001001
110010
1111111110101001
1111111110001110
11111011
1111111111011101
1111111110100110
1000011010
100011000
1110000
1100100110
110111010
10010011
10000000
1111111011010111
1111111100101111
100000011
101100010
101010001
111110111
101101001
1111111110110110
1111111011100110
1111111101000110
1111111111001110
1111111100011111
1111111110001100
10001101
11100011
1110011
1111111110111010
1111111110000001
100010111
1101001
1111111101100101
110100011
1111010
101011010
1110101010
110000110
1111010
1111111011000101
1111111011110010
1111111101010000
10110011
10110000
100100110
1111111011111001
1111111111001101
1000111
1111111011100101
1111111001110111
1011100
1111111011110110
1111111101111101
101001101
11100010
1111111101101100
1111111110101001
1111111101111010
1010110
1010000
1111111100010010
101001001
100101010
101010110
1101111111
10110111
1111111111000110
11111111
1111111011111100
100010
1010010
1111111101110001
1011110
1111111011000011
1111111010010111
1111111110000110
1111111011001001
1111111110010001
1111111100000100
1111110101110000
1111111111111000
1111111111111011
1111111111010000
1011000
1111111111011100
1111111111001100
1111111111011010
10010100
0
11001111
110101111
1111111111100111
111001000
1111111111011011
111100001
1011101100
111100110
1000001011
1000011010
10001111
1111111101010110
1111111110010101
11101000
101000000
1111111101111110
1111111100100111
1111111110110011
1111110100001110
1110011
1111111111110010
1111111111101011
1111111110010100
1111111010011110
1111111101000000
101110
1111111111111011
1111111100101101
10110011
11110111
1111111010110111
1111111101011111
1111111100011011
110011001
111011101
1011001011
1010011001
100100001
10101001
10110001
1111111110011010
1111111101011001
1111111011111100
1111111001100010
1111111011000001
1111111100001011
1111110100111110
1111111110001010
1010001
11011111
1011111
1111111100010111
1111001
10011111
110100
101101
10001111
1111111111011010
1111111010011000
1111110110111110
1111111011001101
100111011
111101
1110110
1111111011111110
1111111100010110
1111111000011010
1111111001100111
1111111000001010
1111110111011111
1111110101100000
1111110110000001
1111111000110110
1111111010111100
1111111000000000
1111111000001111
1111111100001000
11011011
1111111101001100
1111111110101111
1110
100110011
1111111100110000
1111111110100010
10010000
10100110
1111111010110101
1111110011110000
1111111001011111
1111111100111111
1111111011100111
10000001
1101001
1111111001101010
1111111011010010
11100010
1111111011010000
100100101
1111100
1111111011100100
1111111101011100
1111111011100110
1111111110010101
1111111000101010
1111111010001110
1111101
1001011
1111111101111000
1111111110010100
10101100
1111111111011010
11111010
1111111111110010
100100001
11110
1111110010001001
1111110110110100
1111111001001110
1111111010011100
1111111101110100
101111000
1111111010011100
1111111001110010
1000001000
1101001101
1010011000
1111111101110101
1111111111110100
111101111
1111111010000111
1111111111010001
101100
1111111010111000
1111111101101010
11001000
1111111100010111
11111
1111111111100001
1111111110111011
10001100
1010010
100101110
1111111011100110
1111110110001001
1111110111101001
1111110100000000
1111111000000100
1111111111010001
1000101
1101000
1111111101001011
1111111101101111
1100000000
1111111111111010
1111111011010010
10101011
1110111001
1111111111000111
111001
100000
1111111110111101
1111111110110100
110111
10110100
100111011
1100
1010101
1110111
11011011
1000000110
10100101
1111111101110001
111111
1111111010100000
1111111100011100
1111111111001011
100001110
10011101
101
1101010
11000011
1111111101000100
1111111001000011
1011010011
1011110011
10010000
1000010101
1111111110100010
11010010
1000000
101011111
100010
10000111
1111111101000011
100011011
10001
1010101
100011000
101100010
11111100
11110100
11100101
1000010011
1111111001010000
1111111101101111
1111111011100100
1111111001100111
1111110111110011
1111111011101010
11101000
11000110
1000011110
1100111111
1000001010
111001110
100111010
11100000
10111011
100000010
1000001
11111110
1111111101101000
100000101
11101001
100000000
11011001
110100110
101000011
100110111
1101010111
1100100111
1010001110
1111111100100010
1111110100000000
1111110101011101
1111110111110110
1111111011001101
1011011100
111001111
1111111111110011
1000010000
111000111
100100011
11111101
10001100
10001000
1111111101010101
1111111110011101
1111111110100001
1111111101100100
1111111110001101
1010100
100101110
110100100
10111000
1111111110011011
1100000110
10010011011
1110100011
1010100010
1111111101101011
1111110101111011
1111110010101011
1111110111000101
1111111111100001
10010001100
1100000111
100011000
11101010
111000100
1100000100
1111111101001100
100001
1111111101110111
1001101
1111111110001000
1110110
1111111011100000
10111100
110
1100100
10101011
1111111100110100
1111111101000011
1011111010
1110111110
101111011
100100011
1111111110100010
1111111010100110
1111101111011110
1111110101001111
1111111100010111
10011100
1111111110100000
111010010
1111111100000100
101111000
111111
1111111111001101
1011100
1111111011011010
1111111100001011
1111111101101000
1111111111001100
1111111100001001
1111111110110001
100110
1111111101011001
1111111100111111
1111111110101000
0
111110001
101101100
1111111111100111
1111111100011100
1111110101000100
1111110110011011
1111110100111110
1111110011001101
1111111000100010
1111111110110000
1110010
101011010
101101
1111111110010111
1111111110100100
100000010
1111111110010110
11011
1111110100101111
1111111011100000
1111111010100111
1111110111110000
1111110111001100
1111111001010101
1111110111010111
1111110101101100
10000001
1111111110101101
101011111
101100
100000
1111111110101011
1111111100110010
1111111000110010
1111111110111001
1111111001001111
110011
1010100
1111111111010000
11001100
1111111101101111
1111111110011000
10011111
1001111
1111111110000111
11000000
1111111001111111
1111111101100100
1111111010101111
1111111000001011
1111111001011010
1111111011101111
1111110101110101
1111110010100111
1111111010101001
1111111111001100
1111111101110000
1111111010011110
1111111110110101
10101010
1111111011111010
1111111010101001
1111111100111111
1111110110011100
1111111111010111
1111111111000101
1111111110111000
1111100
10010001
101010001
11000100
1111111110010000
1111111110011011
1111111101110000
1111111100000010
1111111110000100
1111111001110101
1111111001101011
1111111010110000
1111111111100010
1111111000001101
1111110110011010
1111111100101010
1111111011100000
1111111000110111
1111110001100101
1111101110010001
1111111010011110
1111110110111000
1111110111000011
1111111000000001
1111111011101101
100010101
1
110101011
1000001100
111010
111010111
1100010
10111101
1111111110110010
1111111001010011
1111111000001001
1111111011111000
10
1111111101010100
1111111010111000
1111111011101010
1111111000111001
1111111010111100
1111111011101101
1111111101100100
1111111001010011
1111110001010100
1111110100111100
1111111001000101
1111111000101011
1111110101110111
0
110000101
1111111010101100
1111111001111111
1010001000
10010100
11010011
101010100
11100010
1111111100110011
1111111001101111
1111111010001101
1111111000101000
1111111110011001
1111111111100010
1111111110110100
1111111101001001
101
1111111100011100
1111111000111101
1111111101011101
1111111101101010
1111110111001000
1111110001111010
1111111010011111
1111111110111000
101011
1111111001100101
11001010
1000100001
1111111110010011
100100
100001110
1111100
111100
10001010
1111111011111100
1111111011000101
1111111100101001
1111111000111100
1111111001100001
1111111011001100
1111111011000101
1111111110111001
10011011
1111111101111010
1111111100001110
1111111110011111
1111111010011101
1111110111011100
1111110010110100
1111110110110111
1111111100010010
11000001
110010
1111111111011000
1111100
1100001010
11110001
0
1111111110001010
1111111100111101
1111111100110000
1111111011100111
1111111011100101
1111111010010000
1111111100101011
1111110101111011
1111111111101110
1111111101001000
1111111011111111
101110111
110001000
10011110
1111111101001010
1111111010010010
1111111010110101
1111111000000001
1111110100101011
1111110111001010
1111111100001000
0
10010011
1111111111011110
11110100
100011111
10100010
1100
1111111110011011
1111111100010010
1111111101000110
1111111100110100
1111111011010110
1111111001110011
1111111101101111
1111110111101101
1001
1111111101011001
10111000
11101011
101000010
101100100
1111111110111011
11010001
1111111111110010
1111111000010100
1111111010110101
1111111001111111
1111111011110010
10001011
101000
101001100
111100010
1101
11111101
1111111111001101
1111111101100011
1111111010000001
10011111
1111111101001110
1111111110001101
1111111100011101
1111111110001100
1111111101111001
1111111110001101
1111111101011010
1111111111111001
110011110
100101000
1111111110111010
1111111001101101
1111111101010010
1111111111001001
1111110111001011
1111111111010010
111101111
1101111110
1001001100
100011111
1111010011
111111100
10110011
11011000
1111111001011110
1111111001111111
1111111011011100
1111111000001111
1111111101010011
1111111010101111
1111111010010001
1111111101010000
10010000
