101100110
111001111
101000101
100011000
100010100
101001111
101001111
100101110
101111000
100001110
11110110
100000001
1111111111101100
1111111011100100
1111111100100001
11110001
1010000100
1101111
101000110
1111111100111000
1111111000101111
1111111001111110
1111111010011011
1111111100111110
110100000
1111000001
10000110110
10001001010
11111111
110010100
101111011
100000100
101101010
110010010
110001010
10011000
110110100
100001111
11011001
1001010
11010011
1111111101110111
1111111101000011
10100111
101110110
11001011
10001101
1111111111101101
1111111010011110
1111111001111100
1111111100010011
11011
11111010
1100000101
1000011000
1100011101
11000111
11100011
10001110
101011000
11111001
110011100
110000101
1011000
100101001
1000010111
101111001
10010100
10001000
1111111101011101
1111111011111101
10100111
1001011110
11100
1111111100011111
1111111011000100
1111111101001100
1111111101110100
1111111101001111
1111111110001110
100101011
110111111
1000100010
1011011001
11010
100000110
1010010
11110101
100000111
100111111
1001000111
1110101
101111000
1110100100
1001000101
10000111
1111111110111011
1111111010011111
1111111011011100
110010110
10110000
1001100
11110111
1111111101011011
1111111001111011
1111111011010101
1111111110100001
1111111101110010
100001010
11001011
101010001
1001011101
10001101
1111111111110011
10101000
10010100
1100000
1111111111111011
110111011
11000000
11011010
1100100010
1010101011
110001
1110011
1111111011001011
1111111000100011
1111111110000000
10011111
1001010010
1010011011
111010110
1111111111000000
1111111100000110
1111111001101110
111000
1111111101110100
10100
1000111000
111000001
10001110
1111111111100011
1111111111011111
11111011
10110000
10000101
1011011011
100101
100110100
1110111010
1001001000
1111111011101111
1111111011100011
1111111000111001
1111111011000111
1111111111010111
1111011
110100001
100100
1111111110111101
1111111110100001
1111110101110010
1111111010011000
10101111
1111111001000100
1111111101011100
10001001
101110101
1111111111010011
10000111
10101100
1111101
1100111
1110111
1001011000
101110011
111111011
1101110000
1010011
10000
1010101
1111111010000001
1111111110010000
11011010
10000111
111110010
1111111101001111
1111111101111001
1111111101001111
1111111001100000
111111
1011011
1111110101011011
1111111010011010
1111111110001110
1111111111010100
101110
1100111
1110101
11000111
10001111
1111111110010000
1111111111100100
1000011001
101111010
111001100
1111111101100000
1001010111
1100100001
111100011
111010101
110001000
1111111111010000
1111111111111011
1111111010110100
10101000
1111111111101101
1111110111110000
111000
1000001
1111110100110100
1100010
110100
1000000
1111111110000011
1111111110111111
11110
100011001
1111111110111001
1111111101001000
1011101
11110001
1111111110100100
1111111110000111
1111111110101001
101111001
1001001000
1011011101
1100101100
1111111111101000
1111111111011111
1001011
1111111010011001
1111111001011010
1111111010001101
1111110110101000
1111111101110010
1111111011001110
1111110010111010
1111111011100101
111101
110100
101
1111111110111001
11100001
101001010
1111111110010001
1111111111111001
10100110
110111
1111111100110101
1111111011110011
1111111011011011
1110110
1111111101010001
111111
1111111101000101
1111111010100010
1111110000101111
1111110110000110
1111110010001001
1111110011110100
1111110110110011
1111110101110101
1111111011000111
1111111011011000
1111111001001101
1111111001100000
1111111100110110
11111101
11110001
1111111110100010
110111
11100001
1111111101001100
101000
100011
1011100
1111111010101000
1111110000110101
1111110101101100
1111111100101101
1111111001111001
1111111010101010
1111110110111100
1111110100110010
1111110001111000
10000011
1111111001010011
1111111100111101
1111111111100010
1111111100001111
1101110
11011
1111111100001111
1111111100011000
1111111110110101
11010010
10111011
11101011
10001100
1110001
1111111101101110
100001010
1111111101010001
110001
1111111111110001
1111110101000111
1111110000100111
1111110011100011
1111110110011111
1111110011111111
1111111110000011
1111110011100110
1111110110001011
1000000001
1010001011
1000001011
111011
110110110
10001000100
10010010
111001
1100001
1111111110101001
1111111110101010
1000011
10101101
1110001
1111111110101111
1111111110010011
10001101
1111111100001111
1111111110100100
1111111011100001
1111110111010101
1111110101011100
1111110100001100
1111110100011000
1111111100110100
1111111110100110
1111111111110000
11001
1001001
1110000001
101101111
1111111100110101
1110111001
1111100000
100101110
101011101
1011101
10000101
1111111111011101
10010011
1010001
1111111110100100
1111111110011110
1111111110111011
1111111111110100
1111111110111011
10100
1111111100010111
1111111100001110
1111111110110110
1111111111110100
1111111100110100
10100101
111111101
100011110
1111111110100100
1111111101111111
1111010
11100100
1111111111000111
1111001000
1100100000
1001010111
1100000011
1110010
10101010
1101111
1111111110100111
1100000
1010011
1111111010010010
10110101
1111111111111101
1000110
1101011
11010
1110011
11000010
110101001
110100010
1111111011010001
1111111100011111
1111111100011101
1111110100011110
1111110101100110
1111111010111101
100001000
1001000011
111111011
1011011111
1101001011
110100011
11010
101101111
11001011
1111111011101011
1111111111001100
1001101
1111111011100100
1111010
1111111110100000
1111111101101011
1001011
1111001
10110110
1010101110
1100111110
1011010011
100001000
1111111001110001
1111110010100001
1111110101101001
1111110110001000
1111111010010100
1011011110
1111111110
10111110
101001010
1000010001
1001000001
10100100
101000000
11010010
1111111110010110
1111111100110011
1111111101010001
1111111101010011
110011
1111111101110000
1111111101100101
101
1111111111111001
11000011
10001101001
10010010001
1100100011
1101111000
11101
1111110110101000
1111110011100011
1111111000001000
1111111101100001
10000111101
1101010001
101111100
110100001
110011011
1100101001
1111111100111001
1110110
1111111001011110
1111111011100010
1111111100000010
1111111011001100
1111111000101011
110
1110000
1101011
1111111110011001
1111111011011101
1111111011111010
1100111110
1111110001
1000110001
110010011
1111111111110100
1111111000010001
1111101110011100
1111110010110010
1111111100101010
101101101
1111111101100000
101111100
1111111011011101
100110001
10101010
1111111100100010
1111111111111001
1111110111010010
1111110101000010
1111111001100101
1111111001110111
1111111100101001
1111111100101010
1111111101000111
1111111100110000
1111111010111010
1111111111101111
1111111111111000
101110101
1000011001
10110111
1111111011010000
1111111101110010
1111111000001011
1111110111000110
1111110010110011
1111110101110001
1111111100111000
1111111111000101
11101000
1111111110111111
1111111110101010
101011
11110
1111111100100001
1010100
1111110010001111
1111110111110101
1111110111110101
1111110101110010
1111111011000001
1111111101000010
1111111000100111
1111111000011011
110
1100101
11111000
10010101
1111111110000001
101111
1111111111101000
1111111100011000
11001
1111111100001000
1111111110011001
1111111010011100
1111111111110101
101001
1111111101110100
1111111101000110
100000001
1011010
1111111011001000
11010100
1111111001101011
1111111100101101
1111110111110000
1111110111110100
1111111001000111
1111110111011110
1111110110110111
1111110100010000
1111111010101111
1111111110001010
1111111011110100
1111111001001001
1111111011000000
100110000
10010100
1111111001111110
101101
1111111010111100
110010
11101
101110
1111111111011101
1111111110111111
100101110
1011101
1111111101011100
1111111110000001
1111111011010001
1111111001101011
1111111110010011
1111111011100110
1111111001100011
1111111010010011
1111111010010110
1111111001000100
1111111000100111
1111111010011100
1111111001110000
1111111010100111
1111110000111101
1111110001010100
1111111010010110
1111111101001101
1111111011001001
1111111001011101
1111111111011001
110111000
100101100
1100100
1100001
11110100
10110000
0
10010111
1111110111000011
1111111001101001
1111111000011000
1111111110001101
1111111100100011
1111111001100010
1111110111110111
1111111001111101
1111111001000010
1111111011000100
1111111101110110
1111111100011001
1111111101101111
1111110001011101
1111110110010100
1111111101110010
1111111010000101
1111110110100000
10001110
1010010101
1111111011000110
1111111101000110
111111100
11011111
1100111
10001011
10100011
1111111100010110
1111110111110010
1111111001011110
1111110011111000
1111111011100111
111010
1111111111111001
1111111111111101
1111111100101011
1111111000100100
1111111101000000
1111111111111101
1111111110100110
1111111001000010
1111110110100110
1111111101100000
111110
1101010
1111111100101000
10000100
111001001
1111111100011110
100100101
100111001
10101011
1111011
10101
1111111001010001
1111111000101111
1111111001010000
1111111001110101
1111110101111100
1111111100010011
1111111101000000
1111111100011111
1111111101000111
1111111000011001
1111111010110111
1111111101111000
1111111101010001
1111110110100011
1111101111100100
1111110100001100
1111111101011001
101000100
100101000
111001010
11101001
110111001
1111111110110001
1111111011011010
1111110111101101
1001000
1111111001000110
1111111011110101
1111111000101110
1111111010110001
1111111110111001
1111111100100011
1111111100010010
1111111110011001
1111110110100011
1100011
10011001
1111111100100111
1111111111101001
1111111110010111
1111111101010000
1111110111011001
1111110010101100
1111111000011011
1111111011110110
1111111011110011
1111111110110100
1011000
1111111110110001
1111111010010000
1111111110001000
1111111010110110
1111111100001101
1111111100101101
1111111011101100
1111111010001011
1111110101110101
1111111010011001
101111
1111111011100001
1111111110010000
1111111001110110
1111111100110100
110001101
11011010
1100110
1111111100100000
100110101
1111111111100100
1111111001010000
1111111001100011
1111111011111110
100000
1111111111010111
1111111101101101
1111111111100000
10100110
1111111111001000
10010001
1111111010110011
1111111100110100
1111111101101001
1111111111100110
1111111100101111
1111111010101101
1111111111001010
1111111100110010
1111111010100000
1111111110111001
1111111010011111
1111111100010110
110001101
11010000
10110000
1111111111011101
11010
1111111111110111
1111111010101011
100000011
1001111001
1010110111
11000111
1111111111110111
1111111111
110001110
1111111110001110
11011
1111110011110010
1111111011010010
1111110110000011
1111110110000101
1111111100010101
1111111101010001
1111110111100110
1111111001001011
11101
