1111111011000011
1111111100010111
1111111101011001
1111111110101011
1
1111111110110011
111010
1111111111000010
1111111101110100
1111111000111000
1111110110111011
1111111100110110
1111111011000111
10111100
1000100
1111111010001110
1111111001011111
1111111110101101
1110101
1001111001
1011000011
1010101110
110101001
1111111101101001
1111111100100000
1111111000101111
1111111000100010
1111110010100000
101011
1111111101011100
1111111110010011
1111111101100010
1110
1111111111110001
1000101
10111001
1111111110100000
1111110111110100
1111110111000100
1111111011101001
1111111010011100
111101
100110110
1111111010001100
1111111000001010
111
11100011
111011001
1001110100
11011011
100011111
1111111101111010
1111111100111101
1111111100001000
1111111110001010
1111111001000001
1111111110110011
1111111100010001
1111111100111101
1111111101010001
1111111111010001
1111111110100010
1111111111011111
1111111110010011
1111111011110001
1111110101011100
1111111000001100
1111111011100100
1111111011011010
1111111110000011
1111111111011000
1111111110100011
1111110100110111
1111111111111111
111111101
111100101
1011101010
1111111111111110
11111110
10011111
1111111110000111
1111111111100101
1111111111011011
1111110111101110
1111111110011011
1111111100100010
1011000
1111111110100000
1001
10000101
1111111000000000
1111111101010111
1111111001011000
1111110000111101
1111110011111101
1111111111010100
1111111011111000
10100011
1111111110001110
1111111010000011
1111110101110100
1111111100000010
1111111110011101
10101001
111001001
1111111111111001
111
1101011
1111111110111011
1111111101100110
1111111110101000
1111111101111000
1010010
1111111111011001
1111111111100101
1111111100010011
1011
101100
1111110101100001
1111111100001100
1111111100011000
1111110000001101
1111110011011000
1111111101111110
1111111110101101
1000100
11100
1111111100111100
1111111010010000
1111111001100110
1111111000100101
1111111010011111
1111111101101100
1100100
1111111111101111
10111
1111111111110111
10010110
1111111111110011
1111111111011000
1011001
10000001
10011110
1111111101010001
11000010
100110001
1111111000001100
1111111110101100
1111111011100011
1111101110111100
1111110110000010
1111111100001101
10011010
1111111110001010
1010111
111110
1111111011010010
1111111101010101
100100011
100011000
1111111011000101
11110000
101000000
1111111110100000
111011011
101010
1110010
10000111
0
1110
1111111111111010
1111111101000001
11101010
10000101
1111111000001100
1111110110110111
1111111001000111
1111110011010010
1111111011011111
1111111111000001
111110
10101001
1111111111101101
1111111110101011
1011
1111111110000101
110110100
110000011
1111111001101011
111011
10000010
10011011
1001000010
10011110
11000000
10101100
1111111111000011
1101111
10010001
1111111101001000
1011010
10111011
1111111001110111
1111111001001101
1111111011001111
1111110101111101
10101100
1111111010000000
1111110111010111
1111110111100011
1111111001011001
1111111010001000
1111000
101010110
10110101
1111111100010100
1111110111010011
1111111111110111
1000100
1111100
1100011110
11011
101011011
1111111111000111
1100110
101110
10110011
1111111011101111
1000101
10011101
1111111100111010
1111111010111100
1000011
1011010
10111010
1111111000111011
1111111001110111
1111110010011011
1111111010100101
1111111111100111
1111111110110001
100011
10011010
1111111100010101
1111111100011101
101010000
1111111101000011
10011101
1111000101
101011110
110110
11000101
1111111111100001
1111111111110111
100
1111111100101111
1100011
1011111
1111111000100100
10001011
11010011
111101111
11010101
1111111100101011
100110110
1111111011100111
10100101
101010000
100010100
101100100
101001111
1011010
1111000
1000111110
10011100
11000
111110000
110101100
1010001100
10111111
110000
100010001
1111111110001011
1111111101100011
111010
1111111100100000
1111111100010010
1111111101100100
100000
1010000111
1000001001
100001101
1000000100
1111111110010111
1111111100101001
10111111
1111110
1111111101111101
1111111101001110
1111111000000001
1111110111001100
1001100
11110111
100001111
100011100
1001001111
1010111110
1000010
1111111101100101
1111111110111001
1111111101111100
100100
1011101
1111111100000001
1111111101001010
1111111000111010
1001100
1101000010
1010001100
1011101010
111001110
10101101
1111110100101010
110111110
1111111111011001
1111110010100100
1111101101100111
1111110010001010
110100
11001
1111111001101101
101111111
110100000
111100000
1000001011
1111111111110100
1111111101100101
1111111
1111111101111001
1111111101000011
1111111101011110
1111111110100110
1111111100110101
1111110111001110
11100111
1100100101
1100101000
1100010111
1000011000
11000011
1111111010001101
1111111011011010
1111111011111110
1111110110010001
1111101101011101
1111111100110010
101101100
10101010
1111111000101011
110011001
1111111110011101
110111100
11010110
11100111
1111111011101101
1111111111010101
1111111100011010
11111
1111111100000110
1111111101010101
1011101
1111111001100110
1111111101001000
11101010
110000000
110101010
1010010010
1000001
1111111101111011
1111111101101100
1111111110100001
1111110101100000
1111110100100011
1111111011100010
101111011
1111111000101101
1111111001100111
1000101
110110
110000011
1111111100000001
11111001
1111111100011110
1111111011010000
1111111011010011
1111111110111110
1111111010111110
1111111110000011
1111111111011111
1111111100001001
1111111010110000
1100101
101010000
10010111
110
1100010000
111010100
111101
100100111
1101100
1111111000100101
1111110110110000
1111111110010001
1111111100010110
1111110111110100
1111111010010100
10100
1111111110010001
1111111100100010
1111111110100000
1111111110111100
1111111101010011
1111111011001111
1111111110010100
1111111111000101
1111111101110000
1111111100011001
1111111001011011
1111111100011110
10101101
1011100
1111111100100100
1111111001111011
1111111001111111
11010101
1001110001
110011001
1011101
1111111010100111
1111110000111000
1111110100000110
1111111111111000
1111111101000001
1111111111110111
1111111111101010
1111111100001111
1111111100101110
1111111101111000
1111111110110100
1111111101110101
1111111100101011
1111111111011111
1111111110101111
1111111110000001
1111111110111101
1111111000100100
111011
10111111
1111111010011000
1111110111111000
1111111101001000
1111111001001010
110100111
100000011
101011100
10011011
1111111100101001
1111101101001001
1111110001010010
1111111100000010
1111111011010011
1111111111100001
1111111010011001
101001
1111111110111101
1111111111110000
1111111101110110
1111111111111101
1111111110010011
1111111110010100
1111111011001101
1111111100100100
1111111110010101
1111111111011100
110101010
1000100100
1111111100001010
1111111001111011
1111111011110101
1011110
100101110
1111111110001011
1010110001
100001101
1111111111011111
1111110100110111
1111111000110001
1111110101010101
1010101
100111
1111110
10000001
1111111010010100
100110
1100100
1111111101111010
1111111110011111
1111111111010111
1111111101000010
1111111101000001
100110010
100110010
11110
101001111
1111111100001100
1111111110100011
1000011
100100011
111001100
11011011
1000100111
1010110100
100100110
10001101
1111111110011101
1111111010000100
1111111110000001
100010111
11111001
1111111101100101
1111111101000011
1111111111000010
11011100
11100100
1111100
101100110
110001101
1101
1000110010
101110100
10010111
110001
1111111011100001
1111111111111110
1111111110111001
1111111111001000
1111111111101000
11011111
11101101
1001000101
101001100
101111
1111111111111010
1111111110011001
11011101
111100111
1111111101011000
1111111100010101
1111111100110010
1111111111011000
101111001
1011101
10110101
10011111
100100011
11001011
111001101
1011000110
100000100
111110
1111111111111001
101000001
1111111100110100
1111111011000110
11110100
110011010
1001101001
1110010101
101011010
11000000
10100111
1111111110111010
11011001
1111111111010001
1111111010101011
1111111010001110
1111111010000111
100100
10011110
101010
100111100
101001100
100011010
11010
101011101
1000011110
10110001
1100010
101010000
1010111110
1010000010
101110101
1001000001
110101011
1100010010
1100011110
101101110
11111110
10000
1111111101001000
1111111100111000
1111110111111101
1111111000100011
1111111000000010
1111111100011110
1000010
110000101
110
11100001
10110000
1011111
10011010
100101010
1010111011
110101000
1001100
101001100
1010100101
111010100
100110010
1000011001
1101101100
111100101
1001101000
111100100
111010011
1111111010001011
1111111011010001
1111111011111100
1111111001100101
1111111011011000
1111111101000001
10011011
1011110
11000110
1111111110011111
1111111101111000
1111111111000100
1011101
1111111110110110
101000110
101111101
1000001000
101000000
111100100
1011010011
10000011
110001001
110101110
1010111110
111100110
100001001
10010111
1001111
1111111100110010
1111110111101001
1111111100110011
1111110110010010
1111111100000110
11001
1111111101101100
1111111110011111
100001111
1111111101110111
1111111111111001
1110101
1111111101111100
10100110
100000000
110011001
110111110
100000001
111110111
111010001
1000011001
1111101
11110111
11111001
10011010
1111111000110011
1111111100111001
10000111
1111111111000010
1111111111100100
1111111101100011
1111111101011101
1111111110111010
1111111101011000
100100
11001111
10110
1111111101111110
1011
1111111001011100
1111110101111110
1111111101101010
10111110
100001111
110011
101100110
1101010010
110100100
111100110
10011100
101110
11111001
1111111110001010
1111111101000011
1111111101111001
100010
1001011
10101000
1111111101110110
1111111001001111
11001
1111111100111100
1001110
1100101
1111111101010100
10011
1111111101100000
1111111001101101
1111111000001000
1111111100011001
100110110
1010001
101101
111011101
111010110
101101110
100
1111111101000010
1111111101010101
1111111011101110
1111110111011101
1111111101001000
1111111011000101
1111111101111110
11101001
1111111110110110
1111110100101100
1111111010101111
1111111011000010
1111111010100100
1111111100011001
1111111011110010
10100000
1110100
1111111011101100
1111110110100111
1111111001000001
10000101
101000111
11101010
10111101
110111000
1001001
1111111011101101
1111110011000110
1111110100110011
1111110110110101
1111101010101100
1111110110010010
1111111010101101
1111110101010111
11000000
1111111111101010
1111111100010010
10110101
1111111110001101
1111111001001001
1111111110100100
1111111111010110
1111111001000100
