1111111110010000
1111111101011010
1111111101010101
1111111101100011
1111111011101111
1111111111001000
1111111111101110
1111111100110001
1111111100001010
1111110111001100
1111111000111010
1111111110010100
1011
101000010
100101010
1111111111000000
1111111010110110
1111111110011111
1111111111010110
1000100111
1000100011
101111010
1110101
1111111101111001
1111111011000010
1111110111010001
1111110101110010
1111101101001011
1111111111100000
1111111111111110
1111111111111010
1100100
1111111101110110
1111111110001110
10011110
1111111101010111
1111111010101001
1111110111100111
1111111001110001
1111111010100010
1111111101000001
1001000
111000100
1111111011101111
1111110101011110
1111111111101101
101
100101101
101000100
101000011
11010001
1111111111111011
1111111110110100
1111110111010001
1111110110101001
1111110011110000
11010001
1100110
1111111111101010
1010010
1111111110101100
1111101
1111111101100111
110111
1111111100011011
1111110101010000
1111111100011010
1111111011110100
1111111100101000
11101001
1000111
1111111100011101
1111110001100001
1111111101001111
11001101
110101111
101101101
11011000
101100011
100100011
1111111100000101
1111111000100110
1111110101101100
1111110101101100
100001100
1111111110011110
1010111
111000
1111111110111101
1001011
1111111011000101
1111111100110011
1111111001011110
1111110001111011
1111110100101110
101010
1111111111110011
1011010
1111111111000011
1111111001000011
1111110101010001
1111111001010011
1111111011000000
1101111
111001001
10111
100010001
101010001
1111111100110100
1111111101011101
1111111001100011
1111110001111100
101001100
11101001
11000100
1111111101110000
10
1111111111111110
1111111101011001
1111111101111111
1111111011000011
1111110001111100
1111110110110101
11
11101111
101011000
1111111111001011
1111111000100001
1111110111111111
1111110101111011
1111101110100110
1111110110000110
1111111110101101
10011
11100001
11011011
1110001
1111111111011010
1111111010000111
1111111010011011
11100000
11101101
1000011
1111111111000010
10011011
1010010
1111111010101101
1100
1111111010010011
1111101111110010
1111111010000111
11010000
100100011
110011001
1111111111100000
1111111011001110
1111111011001011
1111110101101010
1111111001111011
1111111000100011
1111111000001111
1111111110010010
1111111110011110
1111111110011011
111110110
1011000
1111110110011100
1111111001111101
10010010
11100111
1111111111111111
1111111110011010
11000
1111111111110000
1111111110010110
1111111100011010
1111110110110110
1111110000000111
100110
1111111110010111
11010110
100010110
1111111111001110
1111111101101110
1111111110010111
1111110110101010
1111111011000100
1111111101010110
1111111010111011
1111111110001110
1111111110010010
100100
100101111
10000010
1111111001010001
1111111010101011
1011001
10010010
1111111111100001
1111111111100010
1100100
10001111
10010010
1111111100011100
1111111110001111
1111111100110011
1111111111011011
1111110111111111
1111110100101001
1111110110010001
1111110101100011
1111110111011101
1111111011110001
1111111111000000
1111111101010100
1111111000100101
1111110100010110
1010
1111111111110011
1111111011010010
10100101
1111111110111111
1111111011010100
1111110111110011
100011101
100100101
1001100
100100
1011011
10001001
10110
1111111111100011
100010
10000001
1111111110000110
1111110110100010
1111110110001010
1111110000011001
1111110011001101
1111111000111000
1111111001101101
1111111010011111
10111001
1111111111101011
11001000
110101001
1010010
1110111
1000101111
1110110
1111111110000001
1111111010110010
11110011
1100110
1000100
1111111101010010
1000001
1111111110111101
1111111100110110
100100010
110001000
100111001
1111111111000110
1111111000000111
1111111100110110
1111110110101001
1111111011011011
1111111100111110
100110110
100110000
110101111
1000001111
110111100
111001001
101001111
10110111
101001011
1010101
11100011
1111111111001001
11010101
11010011
1111111100110110
1111111100101111
1001010
10011011
1111111011001011
1111111101101010
1110000
1100110101
100001001
1111111100100000
1111111110101001
1111111101001110
1111111101111011
10110100
100101010
1111111110011110
110101011
1111100
1111111111111010
10011110
110111101
101101011
11101000
100001100
10101000
1111111100100011
1111111110101110
1111111111111110
1111111110110100
1111111111110111
1111111111001001
1111111101111110
1111111100010110
1111111010111000
1000011
1100010011
1101010100
101111001
1111111111011011
1111111100011011
1111111101000011
11100001
1101
1111111011110000
1111111100111000
1111111111010010
101000111
1111111010111110
1111111000101011
1111111111111010
1111111101111011
1111111011100000
1111111101100010
1111111101110000
1111111111000001
1111111111100011
1110
1111111110000111
1111111011110001
1111111101011011
1110
110000
1000101010
1010110000
1000101100
1000110100
1001000110
1111111110011110
1111111101110010
1111111100110001
1111111111111011
1000110000
1111111110010110
10001010
111101011
1111111011110011
1111111001001001
1111111100010111
1111110111001110
1111111101110111
1111111111011110
1110111
1111111110110101
1111111011111100
1111111011100110
1111111110111011
1111111101001110
1111111110101010
10001010
1111111111000000
1000001
1000010
1111111110011000
1111111111011111
10011
1111111010110101
1111111100010110
1111111101011001
11101001
100101011
111010001
110110
1011110
1111110100110000
1111110101010101
1111110110111111
1111110110010001
1111111010010000
1111111000011001
10111011
1111111000111001
1111111110011101
1111111101101001
1111111100111110
1111111011000110
1111111101100101
1111111100001110
1111111101000011
1111111111011100
1111111101101011
110100
1111111011111110
1111110110111111
1111111110110100
10100100
11011110
1010000001
1100000111
111111100
1111111101100010
1111111000001011
1111111000001010
1111110110110011
1111110110001000
1111110011100101
1111110110111101
1111111010011000
101001
1111111101001010
1111111100111111
1111111101011001
1111111101011101
1111111110100000
1111111100010100
1111111111000100
1111111001001011
1111111110010100
1011011
1111111011100101
1111111000011011
1111110001100000
1111111001100001
100000011
1110110010
1011111100
1110010010
1000101001
1111110101010111
1111110010011010
1111111111110011
1111111010000110
1111111010011010
1111110111111011
1111111010001101
1111111111010110
111010
1111111111001011
1111111011001101
1111111101010101
1111111110111100
1111111111000011
1111111111000001
1111111111000110
1111111010110110
1111111101011100
1111111111110011
1111111010100111
1111110110001100
1111111000110000
1111110111101000
11101000
1011110011
1101011011
110110111
10100
1111101100110010
1111101101100101
1111111011101000
1111111001011011
1111110101011001
1111110011001100
1011101
110110
1010000011
1111111110000101
1111111011111001
1111111100111011
1111111101110010
1111111101010011
1111111101100111
1111111001110100
1111111011110001
1010010
11011000
1111111010110011
1111111100000100
1111111010001011
1111111101010000
110100101
1011010101
1111111101
110110010
1111111110001111
1111110111110011
1111110111101101
1111111010011001
1000
1111111000000100
1111111111001111
100000000
110001010
1110101100
111110
1111111110101010
10001110
1111111101100101
1111111011111001
1111111111111100
100100
1010101
1111111111110000
10111001
1111111111001010
1111111100110101
110100001
1100011000
1110101000
1110100111
1100110011
101111111
100111111
101101
1111111101110111
1111111001101101
1111111100011101
11010111
110101011
101110110
111001010
110011111
101100110
100000000
100011010
11000111
100010100
10101110
11111010
111010000
10010101
1000001
1111111111100001
101000111
110001001
1001110001
1001100001
1001000100
1111111101010010
0
1111111101110000
1111111111110000
1111111101110010
1111111101101100
1111111110000101
101100101
1000100011
110101100
100111110
110001010
110010010
1111110
101001101
10111110
101011011
10100100
11011000
1001010110
111000111
110100101
100000110
1010110010
101111000
11001001
11001010
111100
10001101
110101110
101110
1111111101010101
1111111110010011
1111111010011011
1111111100000000
11001
111001110
111110100
10110010
100001111
100100110
11000011
10110010
11001010
10001000
11110011
11100111
110110101
10110101
100101011
1001101011
10010010010
10000000100
1010101011
101000100
11111110
101011001
110000011
1111111111101100
10001000
1111111110101110
1111111111000000
1111111110000110
1111111111100100
101000010
10100001
1001000001
1010110000
10011100
1111111110001001
111001
101000111
1000001111
110000000
110010110
1001101011
11011111
11101100
1001110111
1110011011
111110010
100111001
1000101101
111010110
10101010
1101001
110001100
1000011000
1111111111101000
1011101
11101
1111111
101101010
1010001001
1001101000
1100010110
111001001
10110000
11001000
101011011
110001110
11001100
101011010
101001101
11100000
100000110
111101110
1010011011
110000001
11000110
1111111111011010
10101110
101011
1111111110000111
10110101
1000010001
111001011
11100110
10000100
100110011
1100111011
1101001000
1010100110
1010111011
11010011
101001101
101001111
110000001
101010000
100011100
1111111111100000
1100011
111001
11001001
101010110
101100000
111011
1111111110101010
1111111110101101
11100
101000
101000
10110010
1011010101
1011010000
1101101111
1000111010
1000011100
1000011010
1010010010
1110001101
1100110011
10000011
10101101
11000011
1111111101011001
1111111101101000
1110
1111111110010110
1111111111110110
1111111101100110
1111111111000100
1001001101
1100110
100001001
1111111101100101
1111111101101100
1111111111100100
1001000001
11100011
110011100
1100101101
1011100111
1000111111
100101100
110001010
1101100101
1010110001
1010010010
1100110000
100010010
10110101
1110011
1111111011101001
1111111010100110
1111111101111111
1111111111100111
1111111100100110
1111111110101110
110000
111010100
101011110
10100110
10001000
10111010
111111010
11110010
110011000
101100
101101111
110001011
110110100
101111000
1000111111
1001011001
101110111
101010111
111111101
11101010
1100000
1111111110001100
1111111001101000
1111111101111101
11110
1011110
1111111111111111
1111111101111100
100100101
1111111110101000
1111111000011111
1111110111011111
1111111101101101
101101000
1111111111000001
10101011
10100000
1111111101101110
1001111010
100101101
1001010011
1011001001
110101011
101011010
1000011011
111000000
1111111110110101
