1111111111110101
1111111101110101
1111111101111001
1111111100010001
1111111110000100
1111111101111100
1111111101111110
1110010
10110101
1100001
111011
100001001
10110010
100001100
1111111110111110
1111110101111010
1111110100011100
1111111011100000
1111111000010000
101100000
1001001001
1000100001
1001111001
110001110
1111111100010010
1111110011100100
1111110010000100
1111101010010111
1010111
1111111111100010
1111111110110111
1111111110111001
1111111101001110
1111111010011101
1111111100100000
1000010
10101010
11000100
11000011
100001101
11011000
1111001
11011111
1111111010011010
1111111010000001
1111111110101001
1111111111100111
100001100
101111011
101011010
1001001110
110001000
1111111110000000
1111110100100100
1111110110110010
1111110000001110
1111111101111110
110010
1111111101001111
1111111101100000
110010
1111111110001000
1111111100111000
1111111111100110
11001011
1111111110011111
11000100
1100111
101110
101000010
11011010
1111111101111000
1111111100100010
1011
11111001
11111010
111100110
111000010
1011100100
111000111
1111111110110101
1111110111111111
1111110111010100
1111110001001000
1111111111110011
1100000
1111111111000100
0
1111111110111011
1111111011101101
1111111010011010
1010100
1111111111100110
1111111001000111
1111111011110010
10101101
1110101
1000110000
101010100
1111111101110000
1101100
1111111111110101
11111
1111011
101110110
101000111
111001011
101000010
1111111110011110
1111111101001101
1111111011101101
1111110110101110
110111
1111111110111100
1111010
1111111100010100
1111111111111101
1111111101000011
1111111011001100
1111111011110110
1111111111010010
1111111010011000
1111111010000111
1110111
100011101
110100100
110011001
11010
11011011
1111111100101100
1111110101110100
1111110111111101
110110
10101111
1001011000
101001111
11010111
1111111100100011
1111111010111100
1111111100011001
1110010
100010101
10
1111111111101110
11010
111110
1111111010100000
1111111111000000
1111111110001010
1111111001111001
1111111111100110
110111100
100011001
111010110
11011111
10101001
1111111001110000
1111110111100000
1111111011001010
1111111011000000
1111111101110000
11000011
10100100
10010111
1000011111
1011011
1111111100010001
1111111110011110
1111111110110110
100110011
1111111101011010
111001
10111100
11011000
1111111101101010
1111111100100101
1111111100001100
1111111100010101
110110001
110001011
1111111111101100
10101001
1111111111011011
1111111101101001
1111110110110111
1111111011110110
1111111110000110
1111111001111011
1111111110000101
111010110
1111111111111110
1100000
1000000011
101110
1111111111111011
11111010
10000001
101001001
1111111110001011
1111111110101110
1010000
10111110
10101110
1111111010011111
1111111100101100
1111111010111010
100000110
1111111001001111
1111110001111000
1111110111011111
1111110111101000
1111111101101100
10110011
111001101
11010001
1111110110011001
1111111100001110
11110010
1111111110001111
1111111101001100
1000101100
11001110
10011101
10100100
1001110
100101100
111101
1111111110111011
1001111
10111010
100000000
1111111101000011
1111111111000011
1111111110011111
1110
1111111000010111
1111110010001111
1111101110011111
1111110101000010
1111111110111000
1111111111111010
100110
11101000
1111111101110001
110110
11001011
1111111110011100
10011010
1001001000
1000000111
101101
1111111111110100
1111111101110110
11001
110100
1111111110101111
10101101
1111111101001100
1111111111001111
110
11110000
1111111110010110
1111111011110000
1111111011010000
1111111011010010
1111110001110001
1111110100100100
1111111010101010
111010100
1010001010
100111100
11101100
111000
11101001
1011011
1111111101111010
111010100
1000011100
1110111
1111111110110110
1111111101001101
11111
1111111011101111
1111111110110000
101101
1111111111011100
1111111111001110
1111111111001010
11101110
111001111
1111111110111101
1111111101111010
1111111101000001
10010011
1111111001000011
1111111100011011
1011110011
110000001
1111111110101000
1111111001111101
1111111110001101
1111110111010100
1111111100010110
1111111011001001
10110010
110011110
11000000
1111111111000001
1111111011001110
1010011
1111111101001101
1111111110001001
101001010
1111111101001010
1111111101100100
1111111011100000
1010101
110101101
1000001110
101100110
1100101
110001000
10100100
1001100100
1010011101
11011111
1111111111000011
1111111000101110
101110101
1111110101010001
1111101110110111
1111110110000100
100100111
1000000101
11100101
1111111110111010
1111111111100010
1111100
1100111
1100001
11111100
10000100
10000011
111101
110001010
111111001
101
100110000
1111011
1011111
111011100
111011101
11000101
111110001
1111111100101010
10100101
1010010100
1111110110000000
1111110010010111
1111111100110011
1111111100000111
11001010
10101
1111111111100111
11110
110010
1001100
11110111
1110011
11100110
100101010
10010100
11000111
1111111111001111
1111111000001110
1111111100011100
111010001
11110
1111111100001101
101010101
101010010
1111111001010001
1111111100000100
1111111110111011
1001100101
1111111001000001
1111110111101011
1111111011010011
1111111001101001
1001010
1111111100001000
1000101
11011110
101011
1111111111111000
10100001
1111111110001011
111010
100001001
1011
1111111110001000
1111111010110101
1111111101111101
1111111110010111
101110
1000101001
1111111110000100
1101001
101111110
11110001
1111111100110011
1111111111001010
1111111110101100
1111111011110110
1111111001101101
1111110101100011
1111110011011111
1111111010111101
1111111001011011
1111111110111100
1111111111111000
10001110
1111111110101001
11011101
1111111101100101
11111
1111111110101011
1111111110100100
1111111010110001
1111111100111100
1111111100111011
1111111100011101
1111111101001001
1111111111010110
11111101
101110100
101000000
1111111101101100
1111111111001010
1111110101110110
1111110010110001
10100101
1111111001001001
1111111000000011
1111110100001111
1111111010100010
1111111110101100
1111111111111011
101101110
100
10010011
10000111
1110
10110010
10000000
110
1111111101110010
1111111100000000
1111110110110111
1111111000010010
1111111101101100
1111110101111011
11011100
110010010
10010000
1111111111100011
100111
1111101111110110
1111110011010001
1111111111001110
1111111011101001
1111110101100011
1111110010000100
1111111111101011
11011
111001101
110100111
100010
100000
10001
1111111111101111
1000
1111111100110000
1111111011011001
11011000
1110000
1111110111110101
1111110111010000
1
1111111110111110
1111111110100001
1001100001
1011110001
111010000
11011101
1111111001010010
1111111111000000
1111111001110110
1111111111001111
1111110110111001
1111111011001101
1111111101110001
1111111111110001
111010100
101111000
100101101
11011010
1111111110011100
1111111100011011
1111111100111101
10101010
110011
1111111100011101
1111111010111101
1111111100101100
1111111011110110
1001110
110000101
11111001
1000010100
111111001
1011000000
1101011000
101000100
11111100
1111111000110100
1111111010110101
1111111101110110
10101110
1111111100001011
10101001
10011101
1001001111
101101001
11001101
11010011
101011
10011110
11101101
1010100
1111111011100111
1111111110010010
1111111101000111
10010010
10010
110011
1010011
110000100
1111111100110100
11110001
111110100
101100011
1000010
1111111111000111
1111111100101101
1111111111001010
1111111000010110
1111111000111100
1111111101001001
1111111100100001
101110001
10110100
100110011
11011
1101
1111111111111011
11010000
10011001
1111111111001010
1111111110101011
1111111101100011
1010111
1000111
1111111011010011
11101100
100100100
1111111110110011
100111001
10101010
10110101
1111111110000100
1111111101011101
1111111011100100
1111111011011011
1111110111110100
1111111001100000
1111111100011000
1111111110110110
10100110
10001
100010110
10010011
10001000
1111111100101011
1111111111010000
1111111101100001
1111111110101011
100110
11011
101101010
10101111
1010101
1111111110110000
1111111110101101
1111111110110011
1010000
1111111111100101
1111111111000111
1111111001000100
1111111001000110
1111111101000010
1111111010100111
1111111001010010
1111111101100000
111001
11000011
10000011
1111111101101100
1111111101110101
1111111110110001
10101110
1111111100000010
1111111100011111
1111111101010111
1111111010101010
1111111110100101
1111111011111001
110
1111111010110101
1111111011001000
1010011
11001111
1111111001010001
1111111010101100
11100100
1010
1111110010111000
1111111010001001
1111111100100001
1111111000001011
1111111011111011
1111111001101110
1111111
1111111110110000
11100110
1100
1111111100010101
1111111110000101
1111111110010111
10101
1111111111010010
100101
1111111011101010
1111111100011010
1111111110101000
10100101
1111111010000011
1111111100101111
1111111111010010
1111111110000011
1111111000001000
1111111101011101
101100
1111111001001111
1111111101011010
1111111110010000
1111111011100000
1111111101011000
110000
101111
1111111110001100
1111111011011001
1101010
1111111110111001
1111111110111001
111
1100101
100011111
101011110
111001010
1111111111111100
1111111110111011
10001101
1100010
1111111101111110
10001111
1111111111011001
1111111101101100
1111111100101100
1111111111000001
100110
11011101
10100011
1111111100001011
11000100
101101010
110100110
10110001
1111111101111001
1111111101010110
1111111001001010
1111111100011110
1111111111000001
1111111100101110
1111111011010101
1111110
100110100
101111010
10101000
1101010
101011000
1000010
1111111110101111
101110100
110000111
1111111010111111
11011110
110100110
1111111011110100
111101110
10000011
1111111110101100
11011100
11100111
101010111
1001010
1111111100100011
1111111101101001
1111111100011110
1111111101101100
1111111100010110
1111111011010110
1111111010001100
1001111
101011111
1111111110111101
1111111100111111
10100
1111111100111000
1111111011101101
1111111101001000
1111111
101100010
1111111110000000
11001010
1111111110010011
1111111111001001
1111111111101100
1111110111011100
1111110111110001
1111111100111011
1111111101111110
1111111100111001
1111111010110000
1111111111010000
1101
1111111100011110
1111111110111101
1111111110100110
1111111010011000
1111111110001011
1
1001100
1111111110111000
1111111111000101
1111111111111001
1111111000011100
1111110101010010
1111110100110111
1111111001101110
1111111110000000
1111110101111111
1111111101010011
1111111110010101
1111111010011001
1111111111001100
1111111000110111
1111111001001001
1111111111111100
1111111100110110
1111111111101110
100110000
10011110
100000100
