1111111101101000
1111111100010001
1111111110010011
1111111111000110
1111111110101001
1111111
1001111
1111111111000011
1111111101011100
1111111111110011
1111111111110000
101111001
1001101010
1001101000
1011100100
110001111
1111111110110111
11111000
11011011
1101101
1011001
1111111101110100
1111111111001100
1111111100011110
1111111010010111
1111111111110111
1111111011000101
1111111001000111
1111111100101011
1111111100111010
1111111101111110
1111111111000000
1111111110010111
10010101
10110101
1100100
1111111111000100
1111111011111001
1001
101111000
10110100
111110000
1000100010
110111000
1111111101111000
1111111111111000
11101010
1111111111000101
1111111111101111
10011000
1110
1111111010101110
1111111100001110
1111111111000010
1111111011000011
1111111000100111
10000
1111111110111011
1111
101110
1111111111111011
1111111111010000
1111111110011011
1111111110110101
1111111011111000
1111111001001001
1111111111111000
101101110
100101100
11000001
110010110
11000111
1111111100100110
1011110
1111111111000001
1111111101111111
1111111111001111
1111111100111101
1000110
1111111110000111
1111111111011101
1111111101110011
1111111011001001
1111111010001110
1100
111000
1111111101101110
1111111111111101
10001101
11000000
1111111001000100
1111111111110000
1111111100001000
1111111010010101
1111111111010110
10101111
100101
100000101
10000100
1111111110110000
1111110110001111
1111111010000110
1111111110011010
1111111100011000
1111111100011101
1111111101011110
1111111110001100
10011011
1100100
101011
1111111110110001
10010
1111111111100011
1110
1110101
1111111111100000
11011010
10010101
1111111100110011
1010000
1111111111000110
1111110101001110
1111111101101101
1010001
1111111101101110
110001100
111001000
1111111011010100
1111110101000001
1111111000011011
1111110111011001
1111111010011011
1111111011000000
1111111110110101
11001110
10100
1010000
10111011
1111111101011000
10001010
11011
1001
10000
111010
11011
1110100
1111111100101011
1001000
1111111110000110
1111110011000010
1111111011001100
1111111011011010
11010000
111110110
1101000
1111111110111000
1111111011010000
110101
111010101
1111111110101100
1111111100100010
100001
1000100110
1100010
11101111
1111111111011011
1111111001110101
1111111110110111
1111111111111011
10101000
11001001
1111111111100110
1111111101001111
100100001
1111111011000000
1111111001111100
1111111001101010
1111111000010101
10110
1111111110001110
1111111
111001101
110010000
1010111
101000111
100001101
1001100111
10111000
1111111011010100
1011111
1001101001
1011110011
111010010
10000
1111111101001101
1101110
1111111111001110
1111111111011101
10010
10001111
1111111100111101
10011000
1111111011001011
1111111010001011
1111111111011100
1111111100100100
10010000
1111111110001100
1111111101111011
1111111001100011
1
1111111000011100
10110100
10010001
1101110
1111111111010000
1111111000000000
100110010
101100101
1001010111
1100011110
1111111101100100
101010
1111111100001001
10100111
100010
10000110
10110101
10110001
11001000
1111111010110111
11101
100001100
1101001
1111111110101001
1010011
1111111001000010
1111110111100111
1111111110101110
1111111011111001
111
10100100
10101101
1111111110011100
100100010
11111000
1010001
101000100
10000000011
100001110
100010110
1111111110001000
100000110
10111111
11001001
10101001
101100
1011100
1111111111010010
1111111111011001
1111111101111001
10100010
111101
1111111101011100
1111111010000110
1011111
111110010
10000100
11011101
111011100
100010101
101010101
1001111011
100101111
10010011
10011011
111111111
10000100101
1000010100
1111111110111000
10000010
10000011
1111111111001101
1111111110001000
11100010
10110001
1111111101010000
1111111001010001
1111111101110010
1111111111110000
10100110
1111111110010111
1111111010110000
1111111100101000
1011010
110000101
10100001
11010011
110110111
1111111101101001
10000110
1001110010
101110001
11001101
111001111
1111011011
1011000011
1111111101001101
110011
101100000
1111111110111010
1111111111111000
1111111110101001
1111111001011111
111011
1111111101100011
1111111110100000
110110111
100011011
1101110
1111111111000110
1111111010101001
1111111100111010
10111001
10011000
101101111
1111111100010001
1111111110000100
11100101
1111111101
1111111101110101
100000010
11100010
1000111111
110010010
1111111100111100
10110101
1111111111110011
1111111101110001
1111111110000011
1111111010010110
1111111000000011
1111111101011011
1111111100111000
100000111
100011010
11111001
10010
10000
1010110
1111111111101010
1111111100001101
1100111111
1010001111
10100000
101010110
10000100100
111011100
1111111010001010
101110001
11101110
101011011
1000001
100011
1111111100010010
1
1111111101110011
1111111110010110
1111111011101110
1111110111101011
1111111010111110
1111111010101101
10111110
10001110
10011001
11010
1111111111111011
100111
100010110
1111111010111000
100111001
1110100
1111111110000101
1011001001
10000001111
1011110
1111111100001100
101011010
101010011
100010101
1111111110100000
1011111
1111111011011010
1111111110010011
1111111010010100
1111111111100010
1111111010011110
1111111011011101
1111111011110011
1111111101010100
1111111100101001
1111111100010111
101100
1111111001010110
1111111100111110
1011010110
10001110
100111
111000010
1101010
1111111010101011
1111111100111111
100111100
10000100
1111111101111011
1111111100010101
11101010
1111111110100101
1111111011010110
1111111111111100
1111111011111111
1111111010111001
1111111001000010
1111111111010111
1111111001001000
1111111000111110
1111111010010011
1111111001010000
1111111111111000
10111111
1111111110101010
1111111010110010
1111110101100111
1111111010100111
1100011
1000000101
11011110
1111111101110100
1111111010111001
1111111010010010
11010001
1000000101
11011000
111110
111001
1111111101011010
0
1111111101100100
1111111010101001
1111111010101100
1111111010101111
1111111111111000
1111111100010011
1111111101001000
1111111001011010
1111111000001101
101110
111001001
1111111010011100
1111111000001101
1111111000111111
1111111010101010
1111111110110001
100010
1111111101010100
1000101
1111111101100000
1111110110110111
1111111111001001
11000001
101010100
10110010
1111111001001101
1111111010010101
1111111001111011
1111111111010101
1111111011011110
1111111010110010
1111111011001110
1111111100110101
1111111011100011
1000
1111111011011111
1111111101011000
10100
1001000100
1111111000100110
1111111010000110
1111111110101101
1111111011110000
1111111011010011
1111111010110001
1000101
1110101
1111111110111100
11100101
11101010
1111111011000110
100101111
1111111101101111
1111111001010111
1111111101111110
1111111100110011
11100001
1111111101010110
1111111100010111
1111111101000010
1110110
10011010
10010000
1110100
1110000
111011
101101110
1111111011000111
1111111000010010
1111111111110110
1111111111111011
1111111110010010
10110011
1100111
11110110
101111
10000110
1111111110101111
1111111100100101
1111111101000100
100000
1111111010000011
1111111000100111
101011
10110100
1000111
1101
101
111110101
101000100
100001001
1111100
110001010
100111
10111110
1111111101000100
1111111001000100
1111111010011111
1111110111001111
1111111100010101
1111111101110000
1111111000000100
1111111011011101
1111111010000001
1111111100100011
1111111110011101
1111111001010101
10111010
1111111100100001
1111111010101100
1111111110110010
1001011
10110100
11000011
1111111111011000
1101010
10000100
1000000001
100001010
1100110
11010010
1111111111100000
1111111101000110
1111111101110001
11111010
1111111011000111
1111110010101010
1111110110101000
1111111010000000
1111111001111100
1111111101000111
1111111011000111
1111111010001111
1111111010011010
1111110110111010
10101001
1111110110100101
1111111001001101
1111111101100101
1111111110001001
1111111110101101
1011100
1111111111111110
1111111111101110
10000111
101111100
1111111111011101
10110000
1110111
1111111111010001
1111111011100000
1111111110010101
1100000
11101111
1111111011010100
1111111101010001
1111111100101101
1111111110010111
1111111110000010
1111111011000100
1111111011000111
1111110101111101
1111111001110101
1111111010000010
1111110010001101
1111111000010001
1111111101000111
1111111100100100
1111111110010010
1111111111110011
1111111110111100
1111111101111110
10111111
11100101
10000100
10011101
1111011
10101
11110
10010001
10101000
1101
1111111011110010
1111110110001000
1111111011111011
1111111010011011
1111111101110001
1111111011010111
1111111100111010
1111111011100010
1111111100101101
1111110101110001
1111110110101011
1111111101000010
11100110
10011000
11011110
10111011
1111111101111101
1111111111100111
11000011
1010
1111111011101111
1111111111001011
10000011
1111111111001001
101010011
1111111111011101
1111111110011111
1111111101111100
1111110101011111
1111110011101100
1111111110111001
1111111101110110
1111110100111110
1111110101110011
1111111010100100
1111111001101000
1111110110001001
1111111001000101
1111111010001110
10001001
10101111
10010011
11010110
1111111111110100
1111111101000111
11110101
1111111110101110
1111111010001100
1111111010110000
1111111101011011
1111111111100001
1111111110101011
1111111111011110
1111111111000101
1111111011111110
1111111101101011
1111111010000000
1111111010110111
100001
1111111001101010
1111110000001011
1111111011011011
1111110101110010
1111111010111101
1111111111111001
1110001
1111111101110010
1111111110011101
101001
110001101
110010110
11111
1111111110010011
1101
1111110111100010
1111110111110001
1111110101110010
1111111110101111
1111111100100100
1111111110010101
10
1111111111011110
1111111100010011
1111111111111101
1111111001011101
1111110111001011
1111111111101101
1111111000111110
1111111000011010
1111111000000000
1111111110110111
1111111111111011
11000011
1101011
1111111100111001
1111111110100011
1110100
11001011
100101
1100111
100101001
1111111011101010
1111111000011101
1111110101000001
1111111000001001
10011101
11000011
1111111110001000
10010001
1111111111010000
1111111100101010
1111111101110100
1111110100110001
1111111001111100
1111111111110100
1111111100000101
1111111011100101
1111111101010011
1101011
11111000
1
110111
1010101
1111111110111110
1111111100100111
1111111100100111
1011000
1101100
1110101
1111111100111111
1111110110000111
1111111011110100
1111111111000101
111001111
10011101
1101001
100111000
1111111010010001
1111110111110101
1111110011000110
1111110110010011
1111111011100100
1111110101111001
1011110
1111111110000001
1111111011011000
100000
110110
1101100
1111111110100111
1111111101000010
1111111001011010
1111111110111011
1111111110110001
1111111110010100
