1111111111001110
101100101
111010
1001001
10001100
1111111111010010
1111111011101100
1111111111100011
1100011
11100100
110010001
1111111101100011
1111111010111010
1111110011000101
1111110011111110
1111110110001101
1111111001101111
1111111101110011
1111110111000110
1111111100111001
1111111111011000
1001010
100000101
101010010
101011010
1111111000110011
1111111101110110
1111111110111100
1111111111110111
100111000
10101011
1111000
1111111111101000
1111111111111111
1111111100110110
1111111110110100
100111111
101101001
10110000
1111111110100100
1111111101111111
1111110101011100
1111110110011001
1111111010111001
1101
11101
1111111100011111
1111111100111111
1110001
1111101
10111111
110000011
1010010
1111111111100010
1111111111111100
10000
1111111110011100
101001
10101101
10001011
1111111110001111
1111111100111101
1111111110010101
100101
110011110
110000000
11011100
1111111101110101
1111111100111000
1111111001111110
1111111011100010
1111111101010110
111100011
1000001010
10010100
100000100
1110100
1000100
1111001
110011
1111111110111011
1111111101110000
10011010
10111101
101010
1001011
1111111101010000
1010100
1111111101111110
1111111101101001
100100011
101111000
11110011
101001100
10011101
1111111101111001
1111111111100101
1111111100101110
100011100
1000100
10001111000
1001000011
100101110
111110011
111010
101101111
101101001
1111111111011110
110001
1111111110111111
10111101
1110
1111111
1
1111111111101111
1111111111001100
1011010
1111111110110111
1011
1111111111101010
11110000
111010011
11011111
1110110
11110100
1111111010110000
110011001
1011000101
1110010000
1001010001
101100001
11011000
110101001
100001000
1000000
1001010
1111111101110100
1111111110111001
10100011
11100
1111111110011101
11110000
110111
1111111101111100
1111111101010111
1111111111001100
100111001
1110010
101000111
1100101011
110100011
100100100
1111111010100010
1111111111000110
100000011
110101001
110000010
1111111101100111
1111111011111111
100111
100000100
11111000
1111111110011100
1111111110000011
1111111011100001
1111111110101111
111000000
10011111
1111111111010010
1000010
1111111101001101
1111111110000101
1111111110110000
1111111101000111
11101001
110111
1000111110
1100011110
1010111
101011010
1111111110001100
1111111111111100
1111111110101001
10001110
1111111100100000
1111111110010001
1111111010111000
1111111010111011
1111111110011010
10001000
1111110111100110
1111110011110101
1111111110000110
11011011
110100011
100111101
1111111110110001
10001001
10111
1111111110000110
1010010
1111111101111111
110111111
10100111
11001
110011011
11001111
1111111111111101
10110111
11010110
100001110
1011111001
101000001
11001011
1111111101110011
1111111010110001
10110111
1111111010110011
1111110110010011
1111110110010100
1111111001000011
101101011
1111011
111100010
11100
1111111110000100
1111111110100001
1101010
1111111101101111
1010
1000010100
1111111011111001
1111111011101111
1111111000111001
1111111110000100
111101
10000010
11101101
101101000
1010111001
100011100
10011001
1111111101011111
1111110111010011
1111111000010110
1111110111010101
1111111100011000
1111111101011011
1111110111110110
1111111110011010
1111111011111101
1000011
1111111100001010
11010
1111111101001000
1111111110010101
10011000
1111111110001101
100001110
1111111100010000
1111111110011111
1111110101000111
1111111001111110
1111111110100001
11010101
1111111111000010
1111110110101100
1111111101101101
1100011
110
1111111000011011
1111111000011000
1111110010011010
1111110110001010
1111110101100110
1111111001011110
1111111000100111
1111110011011011
1111111000110010
100010111
1111111111011100
1111111110111001
1111111110101001
11110011
1111111111110011
1111111111010000
10011011
11011000
100
1111111010010100
1111111010001001
1111111110101111
100000010
10101101
1111111101011001
1111111011001011
11100000
1111111100101111
1111110001111001
1111110110111110
1111111000100101
1111101111100011
1111110001100110
1111110101010000
1111110111011000
1111111000011000
1111111100101001
11010101
1111111011101010
1111111100010101
1111111111001001
100100010
100111010
11011001
1111111101111001
100000
1111111101111111
1111110101101111
1111111001101101
1010010
1111111110111100
111101101
1001000110
101101100
110010
1111111110100000
1111111111001010
1111111100010010
1111111001100101
1111101010111111
1111111000001110
1111110010111110
1111111011101111
1111111111010011
1111111101011001
110010101
1111111110111001
1111111111110111
100010111
111111100
11101010
101010001
1100110
11101010
1111111011100110
1111110111001001
1111110010100111
1111111110000010
1111111111000110
1111111111101001
100001111
1000011001
1111110110010100
1111111000000010
1111111101000010
1111110110000101
1111110100100011
1111110011010100
1111111111100000
1111111010010001
1111111100100100
1111111111110010
10001000
1110110
10101100
11001011
11100000
101110010
110111111
1001011001
10101000
111101001
1111111101100100
1111110101111101
1111110101000001
1111111100111110
1111111011010000
1111111000010100
1111110110001000
110101111
1111111000000011
1111110010111010
10010111
1111111001101011
1111110111110111
10000110
1111111110100011
1111111011001001
1111111001101110
1111111110011111
1111111101110110
1111111011010000
111111110
110010001
10111000
100010001
1000110000
111010100
10011101
10110001
1111111110010101
1111111010010101
1111111110011110
10000
10100011
1111111010100001
1111111010111100
1111111101001110
1111110110000111
1111111010100001
1111111110101010
1110000
1111111101111111
1111111101010111
1111111111110111
1111111101010001
1111110111101100
10000001
10000001
1111111110100110
1001100111
110011100
100010010
1100010
110011000
1000000100
110000111
11111111
1111111100010010
1111111101100011
1111111111001011
1000000
1000111101
111010010
1111111110010001
1111110101011011
1111111010001001
1111111101110011
1000000
110110110
1111111100111100
1111111110100100
1111111101010010
1111111011111011
1111111010001100
1100010
1111111011110000
1101100
110111000
100000010
101110100
10110
10111100
1111110
1110110
100001100
1111111101010110
1111111100000110
10101110
100001000
1001001110
1111111110010110
1111111110010111
1101011
1111111110010001
1111111101100010
10110111
110001001
1111111011110100
1000010
1111111100101011
1111110111100100
1101
1101011
100
1001101
101001000
100000110
100001011
11001011
1111111111011101
110100
10101011
10111001
1111111111000000
1111111010010000
10110110
111001
110010011
11011000
111000
11010101
1111111111111100
110001
100111000
1111111110011000
10001101
1111111111111100
1111111111101101
1111111111000110
1000001
1111111111001011
1111111101010111
1111111100011010
100000100
11011110
11001010
1111111101001101
1111111100010100
1111111111100100
1111111101010101
1111111110011011
1111111011100011
1111111100010010
11001010
110101101
1111111110110101
10000111
1111111010011110
1111111010111110
1111111010110101
1111111110010011
111001011
11000111
100110110
111011011
110011
1000
1110011
1111111111101011
1111111011101111
1111111010101110
1100110
1111111110010110
1111101
1111110111101010
1111110111001111
1111110111110100
1111110111111110
1111111011110110
1111111110011100
1111111101111110
10001011
100011010
11000011
1100110
1001000
100001
10100000
1010000
1001010011
1010101111
101010101
111110111
1111111111100101
1111111111010101
10000
1111111011110101
1111111011100000
1111111000001000
1111111110000100
1111111100101001
1111111101000110
1111111001101010
1111110110100010
1111110111111010
1111111001000100
1111111001101100
1111111100111111
1111111111110001
1011100
1111111010111101
1111111101111010
11110010
1010011
11000101
1111111011100011
1010111
11101110
110010001
110110010
1011000010
1111111100010111
101010111
1111111101111100
1111111100111001
1111111110101100
1111111100010101
1111111011100010
1111111100001101
1111111000110011
1111111000110101
1111110111110011
1111110111111110
1111110111000001
1111111011000011
1111111101011000
10001000
1111111110001101
1111111010100100
1111111100010100
1111111101010110
1111111000100011
1111111111011000
1111111100001000
1001110
11110110
110000111
1000101001
10011011
100000
1001000010
1111111111010011
1111111111010111
1111111111101100
1111111110110110
1111111101010011
1111111110011010
1111111100001000
1111111010111000
1111110101000011
1111111000000001
1111110100110101
1111111010000001
1111111000011111
1111111010101010
1111110111101111
1111110111001000
1111111011001001
1111111001001001
111111
1110
10100001
111011
100101111
1111111011011011
1111111111110001
1111111110011001
1000000101
100000001
1111111111011011
1111110110111111
1111111010010000
1111110110111001
1111111111100101
1111111111110001
1111111000101001
1111110111001001
1111110111011000
1111111111001000
1111111111110010
1111111001110010
1111111100100111
1111111011011111
1111111010001011
1111111110011000
1111111101001000
11100110
111011100
10000100
1111111101000010
100101101
110000000
1111111011100111
10010011
100011101
110010
10011110
1111111010000001
1111111010101010
1111110111001001
1111110110010100
1111111101111100
1111111100111110
1111111001100011
1111111111011100
1111111111010011
100110101
111100
10011011
100010
1111111101110100
1111111111010001
100011000
10001010
111101100
111010111
1111111100100011
1111111101111011
1010001110
1111111110011010
110001
101011001
1111111100101000
100000
1111111101000100
1100101
1111111100011110
1111110111100111
1111110011101001
1111110111010101
1111111100000011
1111111111101000
11101000
101011100
110011000
10101110
111100000
11101111
110001011
100000001
101111
1111111111100100
1010101101
110000000
1111110111001111
100000011
110110001
10000100
10100000
1111111111000001
1111111100101111
1111111100101001
1111111110110011
1101001
1111111101000011
1111111010100100
1111111010011111
1111110110010100
1111111001100110
1001000
100100001
100110011
110000011
1001100
10001
101001010
100111100
1000100
111110
1010110
110000101
11000100
1111111010010111
1111111110110111
1111111100011001
1111111111000110
1111111011011110
1111110100001011
1111111011110100
1111111101101010
111101
11111
1111111011100101
1111111110001001
1111111110010111
1111110011111011
1111110111010100
1111111111001001
11111011
1000101
10011
1111111011010101
1111111101000101
100000011
11101101
100001
10110101
11111111
11011010
1111111001010101
1111111010100110
1111111011110001
100010
1111111111101000
1111111110011000
1111110110110101
1111110110111100
1111111010101101
1111111111011111
1011001
11101
100010
1110100
