1111111100011001
1111111010111100
1111111111011010
1111111110010010
1111111100110001
1111101
1111111111101010
1111111110101001
1111111011011010
1111111010000110
1111111100001010
11100
10001100
110011011
11000101
1111111111000100
1111111110110011
11010101
1001111111
1001100010
1001111111
1011000
1111111100110101
1111111000001101
1111111001000100
1001001
1110100
1111111110101111
1111111101011101
1111111010010100
1111111011000101
1111111110101011
1111111110011000
10100010
11111111
1111111110010101
1111111010000000
1111111001010000
1111111110010110
1111111101110010
1111111111110001
101010000
101101101
11
1111111001110000
10000
101101100
111010001
1000100000
101000011
1001
1111111000011111
1111111011001010
1111111100010101
1111111100110000
1111111101111100
1111111110100011
1111111101000110
1111111100011010
1111111111100100
1111111110110001
10001111
1100000
1111111100000000
1111111000001110
1111111010111101
1111111111111101
1111111100111000
1111111110101101
1111111101011000
1111111100000000
1111111011101111
1111110000010100
1111110110011100
1111111111000001
11010011
11011110
1111111100001111
1010100
1111111111111011
1111111111011100
1111111111011010
100010
1111111110100110
1111111101011010
1111111010000110
1111111111110110
1111111101100101
1111111101000000
1111111111011100
1111111100011010
1111111100111101
1111111010010100
1111111010100001
1111111101011001
1111111110111000
11000110
10000101
1111110101111011
1111110101101100
1111101001010010
1111110000010010
1111110101010000
1111110111110110
101010
1111110111010111
1111111011100101
1110
101010
1111111101010001
1111111111000100
1111111111100010
101110
1111111100100010
1111111110000100
1111111110010100
1111111110001000
11001000
1111111111001110
1111111011110000
1000011
1111111011101101
1111111101001011
1111111110011001
10101110
1111111111000010
1111110110011101
1111110100101011
1111101100111111
1111110010101110
1111101110011110
1111110001100100
1111111000001001
1111111001101000
1111111000000000
1111111111111011
1000010
1111111110010011
1111111111100000
1101001
1111111110101101
1111111101010010
1110001
111
101011
1111111111110111
1111111101011100
1111111110110010
1111111110101101
1111111001000100
1111111110101101
1111111011010100
110101101
1001001
1111111010011011
1111110110100110
1111101101011000
1111110110101011
1111111000011100
1111110101101111
1111110001110000
1111110110111101
1111111101001011
1111111111011011
10110101
1000001
1111111100010001
1111111100111010
1111111111111000
1111111110001110
1111111110011101
1111111101100101
1111111101000001
10000111
1111111101001001
1111111111100010
1111111000100110
1111111000110111
1111111111101100
1111111101100000
10101011
1111111110101011
1111111010001001
1111110011011101
1111110110011010
1111111000001010
1111111101101110
1111111010001000
1111110101101111
1111111100011010
11101010
1001100110
110000100
11111
1111111100100100
1111111110010110
1111111110101110
1111111100001001
1111111110110010
1111111111001010
1111111111000110
1111111101001100
1111111100111111
101001
1111111111100111
100001
110101110
1111111111110011
1111111000011010
1111110001010100
1111110100101100
1111101111011000
1111110000101100
1111110111010011
1111111011010011
1111111011111001
1111110111000000
11010000
110010110
111111001
101100111
1111111100101110
0
1111111101001101
1111111111010100
1111111110111110
1111111101110111
1111111011101010
1111111111000111
10111100
1011010
10010111
100111000
110100100
11010011
1111111111101010
1111111101101001
1111110000010011
1111110001000010
1111101111011101
1111110100001000
1111111000100000
11100000
111100000
111001001
1000010101
11111000
10011010
1011011100
11100001
11010110
1111111101001100
1111111101011001
1111111110101010
1111111101010100
1111111110010000
11111
1101001
1101010
111010101
110101010
1001011000
1100010
1110110
1111111100010001
1111110110101000
1111111101110011
1111111111101110
1111111101111101
10100101
1001100001
1100110110
1101100001
1010101011
110101101
1000101111
1001110011
1000010011
111111000
1111111101101011
1111111111110011
1111111111111001
100011
1111111110100101
1011110
11010010
1111111100000010
10111110
100000100
110000101
1001010110
110010011
1111111001110010
1111110110010001
1111111101010110
100010111
1111111011001001
1100000
1110101010
1000010110
100100111
1000100000
1011000001
111110000
1000110100
110111010
100110100
1111111111001010
1111111111111011
1111111111110010
1111111100000101
1111111110101011
1110010
110010
1111111011100100
1111111111100010
1010001000
1100001110
111110010
1001111
1111111010111010
1010
1111111001100011
1111111110011001
1111111101110110
100111
1000
110011010
1100000001
1010000111
11100011
1011001110
10011010
10011111
1111111
1111111010000110
1111111100100001
10000101
1111111101101111
1111111101000011
1111111111010111
1111111010100101
1111111101010010
1111111010101111
110110000
1010101001
1100101101
10011001
110100000
11111101
1110110
11010
110111101
1011011101
11000101
10100011
111111000
1001110000
111
1000101011
1111111110010011
111111
1000110
1111111101010000
1111111101001001
1111111101011001
1111111000110011
1111111100100000
1111111011011101
1111111010000010
1111111011100000
1111110110011101
1111111101111011
1000101000
101011111
110000111
111010100
11011101
1100000111
100011
1000010100
1011011011
11101010
1111111100110111
1111111100111010
100011
1011011
100010000
10100010
10010001
1111111011010001
1001110
1111111010011100
1111111101001010
1111111011001101
1111111111110000
1111111001011111
1111111100101101
1111111101001111
1111111010000001
1111111111111101
1101010
10111000
10001110
1111111101100011
10111110
1000010000
111010111
1011000110
1000101011
100000010
1111110110101111
1111111000110100
11000000
1010010
10110100
10110110
1111111111001100
1111111101011010
1010110
1111111100110011
1111111101011001
1111111101101111
1111111101111010
1111111010001110
1111111001101001
1111111011011100
1111111001101000
11111
1111111111100010
1111111111011011
1101101
1111111011010010
1111111010011101
100001101
1000111100
1011010110
1000000000
1100000
1111110010011011
1111111000010110
10101001
100010111
110110111
110100110
1111111101111011
1111111100100111
1111111101010111
1111111011110001
1111111011000011
1111111011100001
1111111101100001
1111111110111101
1111111101101110
1111111100101011
1111111000100001
1111111110110110
100001110
1111111011001101
1111111110000011
1111111111001101
1111111100110011
11101000
1000011011
1001111001
1000011101
1111111100011101
1111101100011101
1111111011100110
1111111101110010
110111001
1000010111
1111111100101101
1111111110010101
1111111111110100
1111
1111111111100101
1111111101110100
1111111111001001
1111111011111010
1111111100101010
1111111011001001
1111111101101000
1111111001101010
11000010
100100010
1111110111000001
1111111001100011
1111111101010010
1110001
100010011
11100001
1000000001
1111110
1111111010010110
1111111010110110
1111111011010000
1111111001101100
10110001
11010100
1111111110111110
10010010
1111111101001011
1110010
1111111101111011
1111111101010100
1111111011111110
1111111100100001
1111111111011111
1111111011000011
1111111100111010
101001
10010110
1110001
1111110111100011
1111110111000000
10111111
1010011110
1010101100
1000100000
1010111010
111110111
1111110111011111
1111111011000111
1111110110011101
1111110110001000
1101111
11100010
1100110
1111111110000011
1111111101111011
1111111110111011
100011100
11101111
1111111110001001
100001
10011011
111010
11001100
11000
10111
1111111101100011
1111110101000010
1111111010010000
1111111100001100
10110000
101001011
11101000
110101001
100011101
1111111001001111
1111110011101010
1111111000111011
1111111010010100
1111000
100100
1111111011110110
1111111110001101
1111111110101000
1
101000100
110110
100111000
110011110
100000101
11000100
11010001
110110001
101000
1111111011010001
1111111100101101
10100010
1111111100011010
1111111111100100
1111011
100111101
1010010010
110100100
1111111100101101
1111111010110010
1111110101111110
1111111010110101
1111111101100011
1111110110011110
1111111110111001
100110
1
1010101
110010000
100110110
11111101
101000101
110010001
10010110
10010110
11001001
1111111110001110
1111111010101100
1111111011011011
10101101
101000110
100011101
1010001101
110100111
1011100101
100100000
10010011
1111111011111010
1111111010111101
1111111100001011
1111111000011001
1111111011001011
1111111110000101
1111111100001001
11111
11111001
11000111
1010100
1011100
11100101
100111001
101110010
110000111
110000110
1111111100101110
1111111011010001
1111111111111110
111110001
1010011
1001001110
101010011
101000
1001
10110001
1111111100101101
11001010
111110
1111111010110100
1111111001101100
1111111101100001
1111111101011111
10001100
111000011
110000000
10010011
1111111111010010
1100001
100110101
110001
1111111100111001
1111111010111111
11100011
1111111110100110
1111111101000110
1111111111001100
1111111110110100
100001
10010110
1111111011011110
1100111
100110110
1111111011110101
1111111110010101
111001010
100011001
1
1111111011111111
1111111010001001
11110100
101011001
101001011
1000100000
10001011
1111111110011100
110100
11111101
10100100
11000
1111111100100001
1111111100100010
1111111001010100
1111111011000011
1111111010010001
1111111010001001
1111111110010100
1111111011001100
1111111001111100
100110110
110010000
1111111001011010
10010001
100011111
10101011
100001101
1111111101111100
1111111101101101
1110000
10100011
1000110010
1100100000
10000011
1111011
1111111111101010
1111111101111111
1111111100101101
1111111100110001
1111111101011000
1111111101010100
1111110111010011
1111110110000010
1111111100011001
1111111011101100
1111111100110000
1111111100000110
1111111111000001
111101000
110001011
1111111101010010
11111110
11100011
100101000
1010101
1111111111110111
1111111011010110
10110
10100000
101010010
10100001
101101010
101111110
10010000
1111111011100011
1111111001100100
1111111011011110
1000010
11111
1111111010110101
1111111000000111
10000111
1111111110010100
1111111101100000
1111111110111011
100101001
111000010
101100111
1001000
1111111111000010
101110000
1100010101
1111000
1111111110100000
1111111110000110
1111000
101100
1110001
100001010
101110010
110011000
1111111111110100
1111111110101011
1111111111001110
1111111110110010
11100000
100010001
1111111101001100
1111111111101001
1111111110110001
1111111111001101
1111110111000000
111
101110100
11101010
10101010
1111111011110000
1111110111110010
100011010
101100011
1011001
11011
1111111111000101
1111111100010101
10001100
101010000
1111111101010101
