1111111110000100
1111111101100100
1111111110101010
1111111011111000
1111111100010100
1111111111001101
100011010
1111111100100100
1111111100100001
1111111011011111
1111111010111101
1111111111111010
11010
110010100
101111010
110111001
100101
10011101
110101100
1011000
11101101
10000101
1111111101000110
1111111010101100
1111111011010001
101001011
11100110
1111111111001010
1111111010110100
1111111100100011
1111111011001110
1111111100000111
1111111011011010
101010
10011000
11100
1111111011010000
1111111000111100
1111111011100111
1111111111110000
1111111110100010
10001011
110010101
111010
1111111111010101
1111111101111000
10001101
1111111111111111
10001111
10011101
1000
1111111011011111
1111111110111100
1111111110111000
1111111101110000
1011100
1111111010111100
1111111011101011
1111111100101111
1111111101111010
1111111111011101
1111111110011101
1111111100110011
1111111110111010
1111110101001011
1111110110001100
1111111001001010
1001010
1111111101001111
10011010
110
10000101
1111110100110100
1111111000001101
1111111011110100
1111111111011000
1111111110001001
1111111110110010
11000
1111111110000101
1111111101100111
1111111101100001
1111111110101000
1111111111101000
1111111111011001
1111111110111000
111010
1111111101101011
1111111101010010
1000110
1111111010111001
1111111011011001
1111111011000111
1111110110010001
1111111010010111
1001
1111111010101111
1111111110010111
1111111010011000
1111111100011110
1111101110101110
1111110101010101
1111110111100100
1111111010001010
1111111110000000
1111111101101110
1111111001110110
1111111111100011
10010110
1111111111101001
1110010
1111111111011000
1111111110000001
1111111101101001
1111111111111110
1111111111011010
1100101
1001001
1111111000001011
1111111010001011
1111111001110001
1111110100111110
1111111010111010
1111111011000101
1111111010010010
1111111111101011
1111111101101010
1111110101101110
1111101111001111
1111110111100000
1111111100111101
1111111101000000
1111111010110010
1111111011101111
1111111101011001
1111111100101010
1100011
1111111111000001
1111111111111100
100000100
1111111100110011
1111111100101001
10010100
1111111100100100
10000011
1000011
1111111010010011
1111111100001010
1111111000100111
1111110010010111
1111111000100000
1111110101101011
1111111110110001
1111111101001100
1111111011001110
1111111010010000
1111111001101011
1011101
1100000111
100101100
1111111011100000
1111111110000010
10110110
1111111110111101
10110100
1101101
1111111101010100
1111111100101011
1111111100110100
1111111100100110
100101
110010
101001
1111111101001011
1111110110001111
1111111101011111
1111111001110110
1111110101000100
1111111100000110
1111111000011001
1111111011010110
1111111011000001
1111111101111111
1111111111101100
100110010
101010110
110011010
1001110011
1111111111100110
1111111110011011
1001000001
1011100000
101011001
1111111100110000
1111111110001100
1111111011111000
1111111111010011
110011
11101101
1111111110100011
1111111110111100
1111111110110111
1111110011000010
1111111011001100
1111111100100110
1111111000001000
1111111011101001
1111111100111010
1111111100111010
1111111000010100
1111111100010101
1111110101111010
1111111010010101
1111111101110100
1100111
11101110
1111111010101110
1111111110111011
100101011
111000100
111011001
1111111011010101
1110110
1111111110001110
1100001
1111111111010100
1111111111001000
1111111100010100
11
1111011
1111110110111000
1111111111001101
100000101
110111111
1111111101001000
1111111111001010
1111111111001101
1111111010011000
1111111101011101
1111110110001110
1111111101010001
1011111
11000
111101000
1000101111
11010110
100011010
1100
111011101
10000001
1101011
1111111011010011
1111111111101011
1001101
1111111110111001
1101
1111111110100110
1111111111100010
1111111010110010
10011010
11011010
1000100000
10100110
1111111111110010
1111111110110001
10111110
1001110011
111100000
100001
1111111101011110
10011110
101111000
1001000110
1001010011
110111110
10101111
10001110
111001110
111100011
1111111011100111
1111111110100011
1111111111111100
1111111111101011
1111111010010100
1111111101100011
101001
1111111010111101
1111111100111010
1111111111111010
1001011111
100110110
111000110
11101101
1111111111001010
100011000
111000011
1111111000111001
1111111110000111
111000000
1011001
1111111111011011
1001000011
1001011101
11100101
1000101
110000011
100101110
10110
10101010
1101001
1111111101010100
1111111111010011
1111111010101010
1111111001010000
1111111111011101
1111111100111010
1111111111100101
1000110010
110011111
101011000
111001110
1111111011101011
1111110110100110
1111111100101010
1111111100011101
1111110101100000
1111110001011010
1111111011000100
1111111110000101
1101111011
110111
111111100
1111111101011110
1111111101100101
11000110
1111111110101000
1111111110001010
1110110
1111111011110010
1111111001000001
1111111100010111
1111110111101101
1111111100000010
1111111011000011
1111111110000011
111100101
1011000101
101110011
101011101
100111110
1111111101011100
1111110101101011
1011000
1001000
1111111000010011
1111111110010001
101101000
111000011
1111110110111010
111101
1111111101110000
1111111101011111
1111111110110010
1111111100001000
1111111101011010
1111111100101011
1111111001010110
1111111101110000
1111111010111010
1111110110001110
1111111011101001
1111111000000000
1111111101011110
101111001
1000000010
110110011
101101011
1001000110
1001110010
1111111010101001
100000000
10010101
1111111100100111
11011001
11000001
1111111001101111
1111111001001101
1111111111110000
10100
10100111
1111111101010111
1101100
1111111011100101
1111111010110011
1111111001000011
1111111110000110
1111110111100000
1111111000110100
1111111000011010
1111111000000010
1111
11011010
10110101
1111111110001111
111111
1010110011
1000110000
11100
1011010001
111010111
1111111111000001
1111111011101111
10000
1111111100001111
1111110111011010
1111111101000101
110000001
1011
1111111110101101
1000101
1111111010001110
1111111101000111
1111111100011001
1111111111111101
1111111011101000
1111111000011011
1111111010100101
1111110110101010
1111111110110100
10001011
1111
1111111100000001
1111110011100111
1111111001100100
10001111
1010001110
100111011
10010000
1111111101001001
1111111000110101
1111111101110101
1111111110110010
1111111011010000
1111111111011101
1001000001
1111111110010011
1110001
1111111101011111
1111111010010000
1111111100001010
1111111010110100
1111111101010110
1111111101110110
1111111101100111
1111111011101101
1111110111000001
1111111100100011
10001101
1111111100011100
1111110100011101
1111110101111011
1000110
10001101
10001110
10000111
1000100111
1111111010011010
1111111011001001
1100000
1111111101100100
1111111111011111
100010001
1110111
1111111111100100
1111111100110110
1111111011110000
1111111010110100
1111111101111101
1111111001010001
11111
1111111100110001
1111111110111000
1111111100100000
1111111101001111
10001001
100010010
1111111000010110
1111111000001111
1111111011000001
1011
1111111110101111
1111111010111101
10111001
10011101
1111111011110100
11000101
1001011
1111111010011110
1010101
10011101
1111111110001111
11101110
1111111110010010
1111111111011001
1111111101110110
1111111110110110
1111111101011011
1001000
1111111111011010
1111
11110111
11111010
1101100
1101100
1111111101000010
1111111001001001
1111111111111011
10001010
1001011
10101001
11101111
101011000
1111111001100101
1111111100000110
1111111011100010
1111111001000011
1111111101000010
110000
1111111010110111
1111111110110001
1111111110110110
1111111111110111
1111111111100100
10010000
1111111110010100
100111011
101111010
1110011
101001111
101100111
1111111100000111
10100010
1111111010101110
1111111001011100
11000
1111111111101000
1111111111000010
1110110
100110
11101000
1111111010110100
1111111001100100
1111111101010000
1111111100001110
101011101
10001110
1111111011110000
1111111110101100
1111111111011100
10011111
1110001
1000010
11000
100000000
110101000
11101100
100111101
1001000110
1111111110001101
1111111110010111
1111111110110100
1110110
10001000
1111111011110100
1111111011011010
1111010
111001000
10011110
1111111010100011
1111111001111110
1111111001000000
1111111000011001
110000111
1111111001000101
1111111101010110
0
1111111111010111
1111111111101010
1111001
111101
110100
11110111
110010010
1001001
101100001
110001101
11011010
1111111111011101
11110100
110110011
101110000
10001011
110001101
101010001
110101111
101001010
1111111111001111
1111110111001011
1111111011110001
1111111111101100
1111111100011100
1111110111100010
10110
1111111100100100
1111111101010100
1111111111100011
1010100
1011000
10100000
10100010
100111101
110000011
1000110100
101010111
110000000
11000010
101100100
1000110100
1001001111
111101011
100011000
1111111111001100
1001111
1100000
1111111101110000
10010011
1111111111010110
1111111111101111
1111111000010110
1111111011000000
1111111101001100
101101001
101010110
110100110
100011010
1111111111110010
1111101
100000111
1011111
1111111101011010
10010110
101111001
11101011
1000000101
11111101
110000101
110101111
100
1111111011111111
1111101
10101001
1111110101111100
1111111000110011
101000000
1111111101010111
1111111100010101
1111111101010110
1111111101101001
10110
10001111
101011010
101111001
11101111
111110
100000101
1111111100111111
1111111110010100
1111111101001011
1111111101011111
1111111011111111
1111111111110000
11101001
10000011
11100100
10110110
1111111010010110
1111111001100100
100011111
11110100
1111110100001110
1111111110010101
1111111010100100
1111111010010101
1111111110101110
1011010
1111111110001101
1111111111110011
10100
111110100
1001100100
11001000
1111111111111010
1111111101101110
1111111001011101
1111110101110001
1111111011010001
1111111100101101
1111111100100011
1111111100101111
1010010
101011
11000011
1111111110110000
1111111000101101
1111110111111010
11010011
1111111010001010
1111110110100000
1110011
1111111010011010
1111111111000000
10110101
1111111101010001
1111111110000111
1111111111000000
1111111100111101
100010001
1110111
10011010
100111011
1111111100111110
1111111000111011
1111111011100101
1111111010010000
10101
1000000
1111111101111100
1111111101100011
110101
1111111111111010
1111111101010011
1111110110111000
1111111011010001
1111111110100000
1111111000100011
10000111
1011010
1111111111111101
1010010001
11001000
10000111
10011
11000101
1111101
1111111101100010
1001010
111101010
100011001
1111111100000100
1111111001110101
1111111101101010
1111111111010101
100110000
100000100
1111111101101001
1111111111110100
100
1111111101010111
1111110110001001
1111110110010010
1111111110000110
1111111011101010
1010100
1001011
1111111101011101
11001010
101111101
101100010
10011010
1010101
1111111111010101
1111111110110011
1111111101110011
1111110111111110
