1111111111101011
1100
1111111110100100
101101
11
1111111100111101
101110
1111111110101011
1111111010011101
1111111000010001
1111111001101100
1111111010100000
10010011
11111110
110000000
1111111101000011
1111111111101000
100101100
1001001101
1110101010
1110101001
1011111100
100001110
1011000
1111111010000111
1111111101010101
1111110111010110
1111111001000011
1111111110000001
1111111110111010
1111111110111000
1111111110010001
1111111101110001
1101000
10100000
1111111101011000
1111111001100010
1111110101010111
1111111011100000
1111111011100111
1111111110011111
100110110
101100100
1111111101001100
1111111010010011
10101010
1010000000
1011100111
1011111001
1000110100
101001110
1111111110011101
1111111101111110
1111111101111100
1111111011100100
1111111010011101
1111111110110010
1101101
1111111110110111
1010110
1111111111111110
1111111101110010
1111111101100011
1111111011101111
1111111100001001
1111111001010100
1111111001101110
1111111110111101
1111111100010101
1111111111111110
11010111
1011010
1111110010001011
1111111101101011
111110011
110010000
1001000110
100010000
100101010
110101
1111111110011111
1111111110101000
1111111110000011
1111111001100010
100
1111111101001010
110101
1111111110110111
1111111110001011
101110
1111111101110011
1111111101110011
1111111101010011
1111110100000100
1111111000010001
110100
111011
100010111
1111111110000110
1111111101000101
1111110100110010
1111111000110011
110011
1100101
111100111
1111111100101101
1111111111011100
100110011
1111111100111101
1111111110011011
1111111100110101
1111111010000001
11100100
1111111101001010
1111111110001001
1111111100110100
1111111101011101
1111111111010010
1111111110000010
1111111101110101
1111111110110000
1111110110101000
1111111000010111
1111111100000011
10110001
110110001
110011
1111111011110100
1111110110101100
1111110110110110
1111110001000011
1111111011000001
1111111110100011
1111111110111100
1111001
1010111
10111000
11100
1111111111001111
1111111011010111
1111111111101101
1111111110101010
1011011
101111
1111111101110010
1111111110110111
1111111010111000
1111111110111001
1111111011101001
1111110011011011
1111110111110011
1010001
101101110
110110010
1010000
1111111101110010
1111110110100111
1111111011000010
1111111101100111
1111111110110001
1111111011001000
1111111101011001
1111111111111001
1111111110101000
110011011
1111111111111101
1111111010110110
1111111011101110
100011
1111111111010111
1111111111100111
1111111111100111
1111111111001011
100011
1111111011001100
1111111001110110
1111111011100000
1111110100110100
1111111110001100
11101001
1100100
100111001
11100
1111111101110010
1111111110100111
1111111101101110
10011010
1111111111111010
1111111010010001
1111111110011111
10100101
111100
110001110
1111111101001001
1111111011000001
100
1010110
1101110
11011110
1011110
1110
11000
1111111101011111
1111111101011110
1111111110100011
1111111110111100
100110110
1111111100101011
1111111011011010
1111111010110001
1111111001000111
1111110111110001
1111111011000011
1111111101100010
111100
1111111110100000
1111110010011101
1010
11011011
1001110
11010100
1111111110101100
100110
1111111100111110
1010011
1100011
1111111100111000
1111111111010100
110100
11000000
100001111
10000010
101101101
10101011
100001101
1111111101100001
1111111101010010
1111110100100011
1111110110100100
1111110111110101
1111111100101010
1111111011110010
1111111110010100
101111
1111111110011001
1011011
10010001
10011001
101101001
1010
1111111110001001
1111111010110101
1111111111100101
1111111111111101
1111111110100111
1111111101000100
10100111
1110010
1111111111110100
101111110
1000100110
1000001101
1101001
1111111110011001
1101
1111111100000111
101100
1111111111010010
1000001
11011010
110010110
100101011
101111011
100010011
110110011
101101111
100001000
10111010
101000010
1111111110110100
1100011
11000001
1111111111010000
1111111111101100
1101000
10100001
1111111111010110
10010
1001110011
1011101110
111010010
11100000
1111111110001101
1111111001001110
1111111011110000
100100
1111111011110111
1111111100001100
110100100
1111111111011001
1111111101111001
100010001
1000110010
111101110
100001011
100011010
11011011
1111111110110010
10011111
1100
11101
1111111100111000
10000100
1111111111100001
1111111100000101
1111111101000001
110110010
10001000101
1100110000
111110100
11101100
1111111110101111
1111110111110111
11001010
1111111011101000
1111111100111011
1111110110001111
111001
110000101
1101110
1111111111100101
100111101
100101
1111111110010010
1011110
1111111101000100
100
1111111111110000
1111111100111111
1111111110011110
1111111101000011
1111111011001001
110110
1111111011001101
111101110
1111010110
1100100011
11010100
110101001
100010
1111111010111000
1111111001111111
11001000
1001101000
1111111100010000
100110
1000001110
11010011
1111111101011010
10011111
1111111100110101
1111111011111101
1111111100110000
1111111101001111
1111111100100011
1111111010001111
1111111100100000
1111111100001110
1111111010111011
1111111011100010
1110001
1111111001011011
1011101
1000101000
1001111
10000101
101100
1111111101111000
1111111100011011
1111111010110000
11001110
101110111
11110
1111111100111100
1100101
1111110111111010
1111111000111111
1111111100001000
1111111100001001
1111111011011000
1111111100101111
10100111
1111111000011111
1111111101001110
1111111000110001
1111111110110100
1111111001010110
1111111011001010
1111111110110000
1111111010110000
1111111110110110
1001110
10101100
111010
1111111000111101
1111111101101100
10111000
1101
110011111
1001101101
11101011
1111111011001010
1111111001100011
1111110101011010
1111110101001101
1111111000110100
1111111101011111
1111111010110011
1111111100010000
1101000
1111111100000010
1111111001011011
1111111000111011
1111111101111010
1111111001001010
1111111111000011
1111111100100001
1111111011001001
1111111111011101
100100001
110101
1111111110111100
1111110111000101
1111110110010111
11100000
1010111110
1110101101
1110001101
100111011
1111110101110010
1111110100001110
1111111100101011
1111111001101100
1111111111000000
1111111011010111
1111111001110101
11101
1111111100011100
1111111101010110
1111111011100101
1111111110101101
1111111110010010
1111111101010001
1111111011001101
1111111100010011
1111111000110010
10001111
111010111
1111111111111111
101
1111111100101011
1111111101011100
1000101000
1001100011
1101111000
111110101
1111111001100111
1111101000001111
1111101110101101
1111110111010010
1111111010000101
1111111100000001
1111110100111100
10011111
1111111111011101
110110
1111111011010100
1111111100010110
1111111100100011
1111111110111100
1111111101100001
1111111101001101
1111111101001010
1111111011011001
10100001
101110101
1111111110101100
1110011
1000110
111001110
1010100010
1000011001
1101001001
1000000101
1111111100110011
1111110100100101
1111110010110111
1111110010101101
1111111110011001
1111111010100101
1111111111100100
101100111
110000
1000101100
1111111100011100
1111111110101100
111110
11111
10
1111111111001010
1111111111001001
100010010
11110001
101101000
1111100
10100110
1010110100
10001011100
10011101110
1011010111
1110010110
110001010
1111111010110100
1111111000100101
1111110010011000
1111110000000101
1111111001001000
1101110
100101011
11010
100001011
1110100
1001001
1001010
11110000
101011001
111110101
110001101
101101100
101011000
1111111
10110010
1011011
1001111
111000110
1010010101
1011000001
1001101110
1010110
100101101
1111111011000011
1111110010111110
1111110110010111
1111110111011010
1111111011010101
1111
110001011
10001101
1111111110111010
1110100
100000100
1111111111101101
11001000
110000000
111110111
110000010
111111010
1001111011
110010101
1011101
10110
111110100
101111001
10001000
100101101
110101101
1000101001
1010100000
1111111110001010
1111111010101011
1111110111100000
1111111000111100
1111111110100011
1111111110111101
11011011
1111111111011010
1010
10110000
10111011
11110100
1000010111
101000111
11111100
100111111
11010111
1011001110
100001011
1111111110010111
1111111111010110
1001100111
1010001011
1001010100
1010000100
101110011
1011001000
101011010
1111111100101001
1111111110011101
1111111011111010
1111111010100110
1111111101001101
1111111110001010
11110
1111111111110011
1100001
111011110
10010010
10110110
100101111
100011110
111100101
111010110
101000011
101101110
10110111
1111111111100001
101000000
1101101110
11011000
101100111
100111100
110110
11000111
11000100
111100
110001101
1101
10000111
1111111011110010
1111111111001011
1111111111001001
100110001
1001010111
1001001011
11011000
1111111111110011
11010000
110110111
11010111
1111111110110001
1111111110101111
110110000
10001010
11010011
11100011
110110100
0
111001
1111111001001111
110010
1111111111000111
1111111010101100
1011111
101001111
1110100
11000001
1111111111001001
1111111110100000
10100101
100100011
111000011
1010101110
11011111
1111111111110000
11010110
101011
1010010
10111000
1111111001101001
1111111110001111
1111111100111000
1111111101101110
1111111111110111
1111111110010010
1111111110000001
1111111010001011
1111110111101000
1111111101000101
10010111
1111111001101110
100000100
111001011
111001000
1010011101
110010110
11110010
101100101
111000000
1011101101
1111001111
1111111111001010
1111111111000111
1111111111100111
1111111000100101
1111110111111111
1111111011111100
1111111001110000
1111111011110111
1111111001101011
1111111011010010
110111
1111111100010100
1111111010110111
1111110101011111
1111110110111000
1111111100111010
1001
1111111010100000
11000001
1001010
110100111
110010101
1011111
1111100
101111000
110000000
1000010010
100100100
1110010
100111001
1111111100101101
1111111000110101
1111111001001011
1111111001000101
1111111110110011
1111111011010100
1111111001100001
1111111010100010
11110000
1111111100001001
1111111011011110
1111111000110101
1111111101111110
10010100
1111111100100010
1111111010111001
1111111100001001
1111111
110110100
101100001
1110101
100101110
100011011
100000010
1000100
100010011
11110010
101010101
1111111111010010
1111111100111011
1111111110101001
1111111110000111
10101101
1000100
1111111001111011
1111111111110000
1111111101011001
1111110110100000
1111101111101000
1111110100000010
1111111110011001
1111111001000100
1111111100011010
1111110110111110
1111111001010000
100110001
101010110
1010101000
1011100101
100000010
1111111110110001
101100111
11110001
1111111011111110
