1111110101110111
101111001
101000
1111111011100100
11011101
1111110100011100
1111111101010111
1111110001011011
1011111111
11001001011
1011101101
11011
1111110010111100
1111111001001101
1111111011000010
1111111111011010
101100110
1111111011000010
1011011011
1111111101111000
1111101011011000
10001110
1111111010001101
1111110101110111
1111111010000101
1111110010001010
110001100
1111111011010000
1111111010111100
1100000101
1111111111110110
1111111010101000
1111110101000011
1100
1111111000010001
11100
101100100
1100011000
1111110011101011
111000010
110100
1111111101010101
111010110
1111101011001110
1111110111111011
1111110111010110
1000110
1111111110110001
1111110100011000
101100000
10010010
1111110100010100
11111011
1111101011011101
1111111010001100
11100000
1000111010
111010110
1111111100000100
1111111110010000
1111110010111011
1111111100100101
1111111110001010
11010010
1111111011001101
1000010011
10100101
1111101011000000
1111110101110001
1111110100011101
101100000
1110111000
1111111101010101
1111111001100110
1111110110110010
1111110100010110
110
101010011
1111111010100010
1010110010
1111111100001100
1101110
101101000
1111111001001100
1110110001
100011111
1111110100110100
100011101
10001001100
1111111101010011
1111111110101010
1111101111001110
1111111101001110
1111111010111001
1111111011110100
1111111000110001
1111100101111001
1111111100011010
1111110101011110
1111111010111001
100100110
1111111100111011
100000100
1001011101
1111111101110100
1000000011
1111111100011101
1111111010100000
1111110110111001
100101110
1111110001111100
110001001
1111110001111110
111011010
110010001
111101001
1111111000111110
10100000101
101010011
1111101101111001
1010101111
1111111011100001
1111110100010001
1111111111101101
1111110101100000
1111111100011000
1111111110001111
1111101101110000
