1000110010
110000110
1111100000001101
1111101101110101
1111111010110101
1111111110111111
1001111
1111110111101000
1111111000101000
1111111001001011
1111111010010010
1111101011000001
1111111001111101
1011111110
1111110111101101
111011010
1111111011110010
1111101100011101
1111110100101101
10000110101
10000010110
1001010010
1111100011101110
1001011000
1111100101010001
1000001101
1010100100
1111110110001100
1111110101111000
100110100100
101010010
1011000101
1111110011000001
1001000000
10111001111
1111110110100011
1111110100001000
1111111100111011
1000001100
1111110101001011
1001010101
1111111111010010
1111111011
1111110110111011
100000010101
11011101110
0
110011101
100110011
1111110010011110
11101110
1111111011111010
1111101100001001
1111101101100000
1111101010011011
1010101101
1111111111010001
101000
1111110110111010
100101
100101001
1111110110110001
1111111010010000
10100
1111101111110010
110011100
1001100111
1100111100
1111111010100111
1111111101001011
1101111010
1111101011000000
11001011000
1101100
1111101111110110
1111111001000110
1111111111000100
1111111100010000
10100111
1111110101000101
1111101100111110
1000111110
1110011
1111101001110100
1111111101101111
1111111101111000
1111110000100110
1111101111000001
1111101011011100
1111111011001000
1011110011
1111110000111101
1111101100111001
1111110001101011
1111111000111110
1000110001
1111100
1111110101111110
100001011
1111110101001100
10011000010
1111111010110001
111111
1111111110011011
1100100111
1111110100111100
1111100
111110111
1111101010101110
1111111010001110
1001111011
1111110000101000
1111111010011111
1111111101101111
1000110100
1111111101110101
11001111000
1111111111011001
11111001
1101010001
110101010
1111111001110100
10000001001
1100100000
1111111000111011
1111111110010000
100000110110
10101
