1111111001010100
1111000010
1111111001000110
1111110100100000
1101101000
11111110
1010001101
1111101111001010
1111110110011110
1111110110111001
1111111111010001
110111000
100100000
1111111110111000
1111111010100001
10000100000
1101100
1111101100101000
101101
1001011011
100000011010
10110000
10111100010
1111111101001010
1111100010100001
10110011010
1111111110011110
1111111001010110
111110010
1111011010
110001101
1111111111001001
1111110100001110
10111101
101011001
100001010
10010111011
1111110010001001
10010111111
100101101
110111111
110000101
1111111101110011
10110010001
110111100
10111000
1111110100011001
1001010011
1001100101
111000110
1010001010
1111111010101111
1111110000
1100011011
1111111011110111
111000010
1111110010001101
1111110100010111
1111111110011001
110101101
1101011
10010110001
1010100101
1111101100100011
1101111000
1101111000
100001011
100010100110
1111111010001101
1111111101011011
10011010111
1111110001101000
100110011
1111111010110010
1111110001000111
1111111100011000
10001100
1111111100100001
1111111111111010
1111111111010110
1111011111101111
111100
1111111010000011
1100100000
10010
1000010001
1111110110001110
100101000
1111111101100101
100011
111101011
1111001010011001
11011000
1111110011000100
1000011111
1111110110100001
100000111101
1111111100101010
10011100011
1111111010001000
1101011110
11110110
100110010
11110001
1111111101101011
1111110011000000
111101000
1101100011
1111100011110111
1111111100101111
10000000010
1000011
1011110101
10101100001
11010001
110010
1111111001111110
1111111001001010
1011101010
10101010000
100110001
100100001
11011110101
1111111001011001
1001011
110111111
1100000
1111000111
