1010101100
1101000
1111110100110000
1010011
1111111101111100
1111111111110011
1111111100110101
1101011010
1111111001111111
1111100101101010
1111111110111001
1111111100100011
110100001
10001011101
1011010
1111110110010111
100001
10101000
1111110011101000
1111110110110000
11101110
1111111011001110
1111100110010010
1011110010
110100101
1000101000
1111111011011000
100010110
11101010
1101000101
1111111001011000
1100001001
1111111110111100
1111111010000110
1101111011
11001010
1111110010100111
1111111101001101
1111111101111101
1111111011101111
1111111000111011
1111110010101011
1111111110100111
1111111110001000
10010011000
100010111
11100
1111111000001101
10001100010
1111111001101001
1111111000011111
1111111100110000
1111101110001001
1111110100101101
1111111110001001
1111111011011111
110101
100000010
10101110
1111111111101100
110101111
1111111111110111
1111111010010111
11011
1111101110010111
1111111010110111
101001
10000001011
1000110001
10111011
1111110111000111
1111110010011111
101100010
1000110101
100110000
110110000
1111110100100000
1111111010000110
1111111100011111
1111110000001000
101101100
10110111
1111110111110101
1111101011110101
101000
1111111010111110
1111111111011110
1111111101100101
1111110111111101
1000100011
11010010
10010111001
1111111110001110
111100010
1111111100011100
111111000
1101001000
1001000100
111110111
1010000
1111111010101001
1111111110101010
1111110000010110
1111111111110101
1111111010010101
1111110110001001
1000100010
1000010001
101000111
1110110
1001011
1111101111000011
1011
1111111110111010
1111110101110110
1111110101011111
1110001100
1111101101110101
1111111111011110
10111000101
11000000
110111000
1111110110110111
110110
101001100
1010001000
1111001000
10110001
