1000001101
1011000010
1111111101010100
1111111010110000
11111101
1111111011001011
1111111101101010
1111111000111101
1111111101011011
1010111001
1011110110
1111111000011111
1111110101011100
1111111010010011
100111111
1010
101111000
1111111010111101
101001101
10010010
1111101110000001
111010000
1111110101111000
111100110
1111111101111110
1111110010010000
1100110101
1111111101101111
1111111101000110
10110011000
11010101
11010101
1111010
1111111111010010
111110101
1111111101101011
1111110000011011
111100
1111110100011000
101010000
1000011110
11001010
101111101
1111101101011000
1000010110
1100111100
10100100
110110001
1111111101011001
100100001
101000001
1111111010100010
1111110101010000
1111101001101010
101110
111011111
1111111111110101
1010000000
1111111000001110
1111111111111000
1111110111000000
1111111011010101
1111111000010110
111100010
1111111011001100
10100001
10000
1111111100011111
1111111011010011
1111111011100000
110010000
1100001011
1110111111
1111110110010101
1111110111001100
11101111
100110011
1010100101
1111111111101000
1011101011
100111
111110011
1100011111
1111110000011111
101101001
1111111000100001
1111111000111011
1111111001010101
101100111
1111111111010010
101011101
1111111000100110
1111111011001100
1111111100011111
1111111010101010
1111110101
1111111000110111
1111111100000000
1100001
1101010
10001110
1111111010110011
101110101
1001011100
10101011
100111101
1111111100111100
1001110
1111111011110011
11010001
1111111010010101
1110101110
1111111011111100
1011000111
1000011111
10110010
1000011001
1011000100
1110111
11000111
100000001
1111110111111110
1111110010101101
1000010110
1111111111110001
1111111101111110
100110100
1111111100100000
