1111111001110000
1111110101010110
111100110
1110000011
1011001111
100010100
1111111100111101
1111111101010100
101011001
1111011110110101
1111100110000001
1111111111
1100101001
1111111100001110
1111110100101101
1111111011011101
1111110000001110
110011010
1111111101101000
1111111000010111
1011000111
1111110110010100
11001011100
1111110100110101
111001001
1100101101
1111110010010000
1111111100000111
100010000
1111110101010111
1111110011000011
1111110111101100
1111111100011010
1111111001000111
1111110100111111
111111000
10000110101
100011011
1000001010
1011100
1111101111101101
1111111101100100
1111110111111000
10010000110
1111110010111101
1111100110110110
1111110011000100
1111110111001111
1101010111
100100
1111110110011000
1111111111111111
10010111001
100000000101
1000001100
1111111000101000
1111110111001000
1111110011010000
1011010110
1111111001101110
101100
1101111101
10010101010
1111110011001101
1111110
1111111011010011
1111111100000011
1001010111
1010001000
1111111010101111
1111110110101001
1111110011101011
1111101010101001
101001011
1100001
1111111111101000
1111111111100010
1111110100000001
1000110
1111101100110001
1111111011011110
1111111001010101
1111101111100010
1111110000
1000110
100011011
111001
1101110010
1111110111111100
1101010011
1111110000001010
1111110001100000
11100000
1111110
1010101
1111101001011001
1100011000
1110100
1001010110
1010100010
1111110010101101
1111111101100111
1111110100111001
1111110110111011
1111101110110101
1111110001011001
1111111010011010
10111110
1111111100111011
1111111101000100
1111111110110001
1111101010101011
1110011101
1111111110011010
1111110011000100
1111101101111000
1111101110010000
1111100101100001
1111111010111000
1001000
110100111
111010100
1010110100
1111101111100110
1011010010
10101101
1111111001010101
1111111110001101
