1101101001
1101011111
1111110100011010
1111111000101101
1111110100110110
100010
1010010110
1111111000111011
1111111000011011
10110111000
1011000110
1111111000101100
1111111100100011
101010010
10000111
11101100
1011010101
1111111100011111
1111111101010101
1000011000
1111111010101001
101010101
1111101000111001
1001010011
1111111001110100
1111110100010101
1100110101
1111110111101011
1111111111100011
1111111110
1010101010
1000001101
10100100
110101110
110110100
1111111001111000
1111110010111110
1111111111110101
1111111011010101
1111111000111111
100100001
10100000
1010011100
1111110110000001
1010011001
10010001011
1010000100
1100110101
1111110101110100
1101110
1001000001
1111111000010101
1111101101110011
1111101011000100
1111110011101101
1000011111
111000100
100110000
1111110101111101
110010100
1111110111110011
1111111001111100
1111110110010111
1010010011
1111111001001110
1100010100
1111111101011000
1111111100010101
1111111001011110
1011000
1001100001
100000010
1100000000
1001010
1111111010100101
1111111011010000
10111010
1111011000
100110011
1111100101
1111111111001001
1101111110
110100000
1111110010101011
1111111110111100
1111111011100000
1111111100100111
1111111011100001
1001011101
1111111110110010
1010101111
111111010
1111111000011110
11011
10110100
10001001110
1111101110011101
11000
1111110110101101
1111111011100010
10110001
1111111111000100
1001111000
1100001
10000111011
1010110001
101011000
1111111011000100
1111111001010110
1110101
1110110
111001101
1111110111100110
100110101
1000011010
1011001001
110111110
1100001111
110101010
1111111101101100
1111111100000101
1111111000011110
101111
1010110001
1111111111111001
1111110101110010
111001000
11010000
