1111110011011101
1111111001011110
1000010011
1001110101
1001100001
10111
1111110111110010
10110000
1111111101000000
1111100011010100
1111101100001100
10001011000
111010111
1000010
1111111010101000
1111111101000001
1111111010100000
11100000
1111111100101110
1111110100111001
1000100010
1111110011111111
11011100001
1111110100010110
110000000
1000001001
1111101111010111
1111111011011011
1111111111011010
1111101101110001
1111110110001000
1111110110001111
1111111011011111
1111111010001101
1111110111110011
111101011
1100111000
1111111111111100
1111111111111101
1000110101
1111110011000111
1111110111111011
1111111110110011
10010000110
1111110010110011
1111100101101001
1111110111110000
1111110110011100
1100111100
1111111011010001
1111111010111111
1111111101100110
10111000010
11010001101
10011011
1111111111010111
1111111000101100
1111111100000110
1000110000
1111110111011000
1111111111100010
1101001011
1011111011
1111111001001100
111110010
1111111001000000
1100001
1101011101
1000101010
11101101
1111111001000010
1111111000011010
1111101111100100
1001010100
111111101
1001001101
1111110111101100
1111110001111001
1111111101000100
1111110001111100
1111110111010101
1111110110011010
1111111010011100
10010101001
111000001
11011
1010110
110111100
1111111010111101
110100101
1111110101111010
1111110100011010
110001
110111011
1111111000101011
1111101010110001
10011000100
1111111100110101
1100000101
1011110111
1111111001011001
1111111110011100
1111110001110010
1111110100101101
1111110001100110
1111110011111011
1001101
1000001100
111001001
11000
1111111101111010
1111110011101011
1011101011
1111110101011011
1111110001101000
1111110111011100
1111101101110010
1111101010101010
1111110111101101
110001001
1111111101111011
1001001110
1111111101111001
1111110110101011
111110011
1010011101
1111110001100101
101010
