1111110011111000
1111101001011100
1011000110
1111101000100000
110001101111
1111111011011000
1111110111111101
1111101100110000
10111100
1111111101101111
1111110101101100
10111011100
10011011101
1111111110101010
1110010100
1111111110101100
1111100100001111
11101100001
1110001111
110111010
100010000110
11101001000
1110000
1010111101
1111100001110001
1111101110101010
1111101111001010
1111111100111111
1111110111100101
1111011010100111
1111100101001001
1111110101100101
1111110110101101
1111111
1111101101001010
1010001
1111001111
1000011101
1111101101110000
1111110100011110
100100111
1111111101111000
1010101
1111101101100111
1111110111010100
11000000011
10010111010
10100000000
11001111111
1111111110101011
100101001
110101000
1111111101000110
1111111010011011
1001110011
1111110100100110
1111111111011100
1111111110011100
101011010
1111101010001000
1111010001110011
1111111110000010
101000001
1111110010000000
