11000111110
101011101101
11001001010
1101110101
1111010110101101
1111101000110011
11100001111
1110011001
1000010110001
1111111000001110
1111111000000100
1000010001011
1110111000
1111101011110010
11100011000
1111100100101001
1111010010110111
10011001110
1101011101
1011100100
1111110000110010
100010101111
1010100111011
100001001101
11011101
1000010100111
1001001010110
1111000010100101
100100000100
1111111010101011
1111110000000111
110011101
