1001110100001
1111001011101100
1111010001011
11101
1111111100100011
1111101000000000
1001100111110
10010100110110
1111000110001011
1111110001000011
10010001101010
1111100011011000
10010001010000
10000001001001
10000000101011
100101011101
10111101
1010001100101
111001011000
100011111010
111001000
101001100001
1111001010010100
1101101001010
1111101111101000
1001110110101
10011001101011
1010110001110
11010011111
1111101101110101
1110011
10000000111
