1111111110110111
11010101
101101
1111111101110100
1111111111101001
1111111100001011
1111111100001101
100110
100110111
1000101001
1000001001
1100010
1111111101101000
1111111010001101
1111111100100101
1111111101001111
1111111100110101
1111111010101001
1111110101101010
1111110011111000
1111110001101010
1111110101100001
1111111110010110
10111001
101010000
1111111011000100
1111111011011010
1111111100100010
1111111100100111
11001110
1001100
1111111110111000
1111111101000110
1111111100000110
1111111010101000
1111111110100000
11110111
110000101
101111001
11001100
11110001
1111111100001110
1111111010101111
1111111110011011
11000011
1111111101110001
1111110010100101
1111110011011111
1111110011100011
1111110111000111
1111111110100101
11110101
1111111111010011
1111111011010010
1111111100011011
1111111100011100
1111111101110011
10000010
1111111111000110
1111111010101010
100101
1111111100001100
1111111011101101
1111111111001101
111100010
10111001
11100
10001001
100100101
1111111110101110
1111111110011010
1111111111010111
1101111101
101000100
1111111011001101
1111110111010000
1111110101111110
1111111011000101
1111111001101100
1111111111101110
1111111110110011
1111111110110011
1111111101001011
1111111100100111
1111111111011100
101000
1111111011111111
1111111010101110
11110
1111111100100101
111101
100111000
110111
110001011
11000000
10111101
1111111100100001
1100
1001000011
101000000
10001000010
1010111111
10100110
1111111111011000
1111111000100111
101011000
10101110
1111111100110000
1010011
1111111110011110
1111111111100100
101111
100001
1011101
1111111111000011
1111111101101000
1111111100110100
1111111100011110
1111111110000010
110
101000
100010001
11111
11001000
1111111010100111
1111111110110010
111001101
1000000011
10100001101
1100011101
1110010100
1010011001
101111001
101000110
110100
1111111111101010
1111111001111000
1111111110001101
1111111111100101
1111111100100010
1111111100100111
1111111111011000
1111111111011101
1111111011100100
101001
1111111111110010
1111111110110000
100100
1111111101000001
101100011
1111111111100000
1111111110111010
1111110110011101
1111111010101100
1111000
101110001
1110101110
111000001
11111010
1010000010
1101101100
1001100101
11100100
1111111100100110
1111111010101110
1111111110110100
11110001
1000010
1111111101110111
1010101
1111111011001000
1111111110100100
1111111111110110
1001
1111111111000110
1111111110011110
1101100
100101000
1111111110111001
1111111101000111
1111111001100001
1111111110011101
10001011
110101000
111101011
110011000
101110001
11110010
1110010101
101101000
1111111101111110
1111111000011100
1111111100010001
1001111
111111
1110
1000111
1111111101011111
1111111100110110
111000
1111111111010011
1111111111011010
1111111111000110
1111111011110110
101001
1111111011101110
1111111010111001
1111111100100010
11111010
110111001
1000101111
1101000000
110111001
1010100011
1101001
1110111
1100111010
1111111111101000
1111111001100110
1111111101000000
1111111000001011
110011
1111111110010101
101010001
101000
1111111100101101
1111111110110010
1111111101100101
1111111101011110
1111111110111100
10111
1111110111001101
1111111000101011
1111110111001001
1111111100111000
1111111101010010
100001
1010011011
1000100110
1100110111
1001010111
111001000
101000
1111111100111101
1111111100111111
1111111001010010
1111111101110110
1111111100000000
1111110111011000
1111111100001110
1111111110011010
1111111111011100
1111111101111110
1111111111010001
1111111110001001
1111110
1111111100010010
1111111001111111
1111101
1111110111010011
1111110110000010
1111110101110101
1111111011000111
1111111111111000
1111111111000101
11000011
1111111100111011
10110101
1011111
10001100
1111111001101011
1111111011000111
1111111010101101
1111111000110100
1111111011101010
1111110110110101
1111111000000100
1111110100110011
1111111010000000
11101
1111111111000000
1111111101110000
1111000
1111011
1111111111000000
1111111100110000
111110
1111111011000110
1111111100001010
1111110110010001
1111111010011101
1111111001111101
110111001
1010110000
100100010
1111111101101010
1010001010
101000100
1111110101110100
1111111011010100
1010111
1111110111011010
1111110000001010
1111111000000111
1111110101000110
1111111000100111
1111110111101101
10100001
1111111110010111
1111111100111101
1111111110001011
1111111111011101
1111011
10011111
101100100
1110000
1111110111010101
1111110001010110
1111111000001000
1111111001110011
1111100
11010100
111101111
1010000
1010100000
1011111
110101110
1111111101000011
1111111001011101
1111110110010100
1111110101010100
1111110111111001
1111111011001011
1111111110100010
1111111101110100
110000111
1111111111000011
1111111111001011
110100
100011100
10001111
10010100
1010010
11111100
1111110110111110
1111110100111010
1111110011001001
101111
101
1111111101111111
100001001
100001101
1111111011100000
1111110111100001
1111111101000010
1111111001001101
1111110111111010
1111110010000001
1111111100010010
1111111011100111
11111000
11011110
1111111111011101
11010000
11100110
11010111
101110000
11100110
10001011
100101001
11100011
100110111
1100001
1111111000010100
1111111001101101
111
10001000
11110100
1111111101011011
10110001
1111111011000100
1111110110100001
1111111111010000
1111010
1111111111011010
1000001
10110011
1111111101011001
1111111101100101
1111111100100000
10000101
1111111110001000
1001100000
101101111
101010100
1110011
101111100
11000011
10110101
100100001
1111111111111001
1111111101001101
1111111010100101
1111111110010010
110010001
1000
1111111010011010
1111111111011000
1111111011001001
1111111001111100
1111110111111111
110101001
10100011
1111111111111110
100110111
1111111101111000
1111111101011110
101101110
100000101
1111111111011101
110111111
110101110
100000001
11111010
10110001
10101000
10100
101011000
1111111111111101
1111111111001101
1111111110101101
1111111111101111
1000100110
1011111111
1111111101100110
1111111010001111
1111110110100011
1111110011001101
1111111101100101
100011100
10000010
1111111101100010
10010010
1111110110111100
1111111011100110
11011100
11010
10110000
100100101
100101000
1100011
100011101
1010101
110000110
101100111
101101000
1111111111001010
1111111010111110
1111111111011100
1111111111001010
10111111
1101001
1111111100101110
1111111011111010
1111110011111001
1111110101000110
101100011
1101111000
101000100
100011101
101
1111111000101110
11010
1111111111000010
10010011
10101
100101011
11110011
101010101
11101101
101010111
100000101
10010011
10111100
1111111101000000
1111111100111011
1000000001
1111111011110001
1111111101111000
1111111000111010
1111110111010010
1111111110000000
1111110111001111
1111111111100011
11010100
1000011000
110011001
111010011
10111
1111111111111100
111100
1111111110000110
10000010
1111111110101101
11001011
1111111
11111000
100111001
11001111
100000010
10001110
10011111
1111111111100101
1111111100100011
101110010
1100111
1111111001000011
1111110010111010
1111110000101111
1111110100000010
1111110001010111
1111111001001010
1010101110
111011010
1000000001
1001111000
101011111
1111111110100101
1111111101011111
11110
1111111110101111
1111111101000100
1001100
1111111111010101
10101100
1111111110000011
1111111101010100
1111111101110010
1000
1111111101101001
1111111101100010
1111111101100011
10101110
110001100
1000001
1111110110101100
1111110010111000
1111111000110010
1111111001011101
1111111011000110
101010001
1100110110
10001111
111110100
10100001
1001001
1111111000110001
1111111110001110
11110110
1111111101000101
1111111100011011
101
1111111111110100
0
1111111100011000
1111111110111111
110011
1111111101011001
1111111101110100
1001
11101101
100111
1111111101110110
1111111100111000
1111111001011100
1111111010010010
1111110010001111
1111110100001100
1111111111001100
1111111111100010
1001011001
111110100
11010110
1001
1111111100101110
1111000
1001110
1111111001011101
110000
1111111110100001
1111111010011011
1111111110000001
1001000
1111111111111010
100100
1111111111000000
100010010
111110110
110000110
1111111111010001
1111111010010010
1111111010100010
1111110110001001
1111110111000101
1111110000000101
1111110100010110
1111111000111111
1110100
11001010
11110010
101011111
1001101
1111111110110110
1101101
1
1111111101100010
10001010
1111111111111110
100000
1111111101100100
1111111111000100
100010
1111111110011010
1111111101111010
1000101
11110010
10101111
1111111001100001
1111111011010101
1111110101011001
1111111100011011
1111111110101100
1111110111111110
1111110100000101
1111111100110010
1111111011001000
1111111100101010
10101101
11001101
1001001
10110
1111111100111111
1111111100010010
1111110111111010
100000111
101001100
1111111101110010
1111111110100100
1111111100000010
11101010
111110101
1010100
1111111110110011
0
1111001
1111111101010111
1111111101110100
1111111011000011
110100001
1111111100111110
1111111001100000
1011111
100001111
1111111001000000
1111111011110000
1111111111011110
1111111111111100
101000001
1111111110000100
1111111110111010
1111111100010001
1111110101100100
10010010
101011100
1111111101111100
100011
100001
11100001
101111010
10111100
100001001
101100101
110001110
110101010
1111111101110111
101001101
1101110
1111111001011111
1111111000110001
10111110
1111111100101001
1111111010110100
1100110
1111111011000110
1111111111100100
10110010
1111111110110010
1111111010110000
1111111000110001
1111110011000111
111101
101111010
101001100
110000010
101101011
101011000
11110000
11001111
101101100
1010011001
100101100
100001110
10100110
1011100001
111101010
1111111010001100
1111111110010111
101010101
110011
110000
1001101
1111111101000101
110011111
111101001
101010101
101111
1111111001011101
1111111011100100
1111111011111000
1111111110001011
10101111
101101000
10111010
100010011
1111111111001001
1111111100111010
11100011
11100011
1111111100111010
10010110
1111111110110100
100000001
10000011
1111111010011100
1111111110101111
100110010
1010001011
101010010
1111110111101101
1111111100101101
11101011
1111111
1111001
1111111101001100
1111111111000000
11110000
1111111110010110
1111111101101011
10101010
100111100
1111111100111101
1111111101001000
1111111011011011
1111110101111010
1111111111101110
1111111110000011
11101
1111111110001111
110100000
1101111
1111111010011100
1111111100100000
111110
1110111111
1101011111
101100
1111111111100010
1111111100011000
1111111100110010
10001
100001010
1111111111111011
1001110
100001111
