1111111111101001
111010
101100100
1010111
1111111111101111
1111111110000111
1111111011101100
1111111111111101
101101011
1000111010
101100100
1111111101110001
1111111000001110
1111110111010011
1111110100001001
1111110011011000
1111111000000111
1111111001111011
1111111000101101
1111111110111011
101111101
1000101011
110110110
111011110
100110010
1111110110110011
1111111001110011
1111111110001011
1111111110110100
1100101
11110101
110100
1110
1111111110011110
1111111110000001
100001
111100001
111011011
101000101
110001
1111111110010011
1111110111100101
1111110110110010
1111111001011111
1101000
1010100
1111111101010100
10001001
101101100
10101101
110100110
1000001000
11111111
1111111001110001
1111111111011010
1010010
1100011
100001111
1111111111000001
1010001
11011101
1111111100010011
1111111111001110
110111
1000111101
1000011001
100010101
1111111101010011
1101101
1111111011101111
1111111100110001
1111111100101101
110001101
101110111
10111110
111010101
101100000
100001110
10000001
101010000
1111111101011001
1111111100010010
1111111111101010
11100
10001011
10011001
1100111
11110101
1111111111110001
1111111100001001
100001101
11000011
110100011
10010011
10010101
11111
1101110
1111111111101000
11000011
1100011
1101011111
1101010010
1000111101
110100011
10110100
1000101110
1001011010
1000111
1111111101111111
1111111010101001
1111111110101100
1111111110101011
101001
11111000
1111111100111011
10010000
10010111
1001000
1011000
11111100
10101010
110100110
100011101
11110111
10110011
1111111111010001
10111111
1000010011
1110000000
101110000
10111010
110010
101100111
1001011001
111101001
111001
1111111101101110
1111111101010001
101010
1111111100001000
1111111111111111
11110101
111110
10110011
1111111111100000
1110001
11001101
1111111110001010
111110011
1100100100
110100000
1010101010
1111111010100100
1111111110101001
10100111
110001000
111010011
1111111110000001
1111110110001010
1111111001100110
101100011
110101000
11110
1111111101001101
1111111010100011
1111111110000010
11010100
100011000
1111111111010001
1110100
1111111100010001
1111
100110100
10010110
1111010
1011100
1001010010
1100010111
110110000
101100100
1111111110100110
1111111101011100
1111111100111110
1111111111101101
1111111010010101
1111111101100011
1111110111111000
1111110110001000
101
101010010
1111110101000101
1111110110100010
1111111110100011
101101111
1000011010
1000001000
1100000
10001
1111111110110001
1111111111110101
10011011
10101011
110010001
1010111
1001110
111000111
10011101
1111111010000000
1111111100001111
101101
1111111110011110
1001000110
11101000
1001000111
110111
1111110111010101
1111111101000110
1111111100000101
1111110100101001
1111111000110111
1111111101100100
101101010
100001011
1000000100
1111111101100000
10010010
1111111111101100
1111111110000111
1111111111011111
1111111101001011
111110001
1111111110111101
1111111011110100
1111111001010001
1111111111101110
1111111010100010
1111111010111011
1111111111100110
1111111111111000
1010101110
111100
1111111110010100
1111111110001011
1111110110111110
1111110010011011
1111110111011001
1111111010011010
1111111010000101
1111111001111100
1111111110010011
1111111110001110
1010100
1111111100100011
110100
100000
10110
1111111110101011
1111111100000100
1011101
1111111100000011
1111111111010010
1111111010011110
1111111011100110
1111111101000001
1111111011110011
1111110101100110
1111110001111100
1111111010000100
10010000
1111111111011011
1111111100000111
1111110111111010
1111110011101111
1111110001010110
1111110110110010
1111110110001101
1111111101001100
1111110111011101
1111111100110001
11111
1111111011001110
1111111100001101
1111111101000100
10000010
11001111
1111111111000101
1001100
1111111111010100
1010111
1111111001111101
1111111011100010
1111111010111000
10101101
11010100
1111111111111101
1111111010110111
1000100100
1111111110100111
1111110010111000
1111110010010000
1111110110110010
1111101001010010
1111101110101111
1111110100101100
1111111011110001
1111111000100100
1111111010000101
1001001
1111111100010110
1111111011001111
10111
11110100
10010001
1100100
0
1111111111000001
1111111101011100
1111111000001110
1111111100000111
10001001
11101011
1010010011
1000110010
1101101000
110111010
1000110
1111111111110101
1111111001010100
1111110100110110
1111100011000010
1111110001001100
1111110010111100
1111111110110001
1111001
1111111100010110
10100001
1010010
1111111111001101
11101101
100100101
1000001011
101100100
100100010
11001011
1111111100101010
1111111001101111
1111110101010001
1110
1111111111100110
101011
100110001
1100101010
1111111001010011
1111111001001111
1111111010111001
1111111010000011
1111111000111000
1111101111010010
1111111000111010
1111110101111001
1111111001110010
1111111110101101
1111111110111011
1101
11101100
101001111
101101111
100101101
1000100010
1010110011
101010100
101110010
1111111010110001
1111110100100010
1111110011100011
1111111000001101
1111111100011101
1111111010100011
1111110101011100
11110011
1111111010000011
1111110011001010
111101
1111111001110111
1111111100000110
1111111100011111
1111111100100100
1111110110010111
1111110101101000
1111111101110101
1111111111010000
1111111100010011
101011011
101101111
100110001
10110100
1000011111
1010111010
10111011
10110001
1111111100001010
1111111000010101
1111111010111010
1111111100000110
1111111110000000
1111111011110001
1111111000011110
1111111101110101
1111111001010011
1111111100010000
1111111111101101
1101000
1111111111000110
1110
1111111100100010
1111111011111111
1111110001111100
1100100
1011101
1111111010001111
1000011110
110111110
110011101
1101001
1111010
1000000100
11111001
101101110
1111111110010010
1111110110111001
1111111001110100
1111111101111001
1001100000
100001110
1111111101110000
1111111100100000
100
1111111100111110
10110101
100100010
1111111011110110
1111111110110000
1111111001111000
1111110110010110
1111110101111000
1010
1111111110001110
1111111111000110
110100100
101101110
100011000
11010011
100100010
11101011
101011100
11011000
1111111101101011
1111110101110100
1111111110000010
101101
1001110010
1111111100001100
1111111100111111
10011001
1011
1111111111110111
110100100
110000111
1111111010110100
110110
1111110110011001
1111110011101011
1111111011100110
1000
1111111110111000
1111111110011001
100111101
100000111
111101110
111010
111111
1100101
11011110
11110000
1111111100100100
1111110110000111
11000001
1101000
110000111
10001100
1001
111001101
11101
1110100
100111010
1111111110000010
11
11000101
1111111101100100
1111111011011010
1111111111101111
1111111110110011
1111111110000110
1111111111010101
1000001101
101110000
11111101
1111111101010111
1111111110110001
1111111110011000
1111010
1111111101010111
1111111100110100
1111111000000011
10011000
100101110
10001110
110000
1111111111011001
10110
1111111110000001
1001001
1001011101
1001100111
110000000
110000100
11110
1111111011001100
101101101
1101100
1111111101100100
1111111100010010
11011110
1111111111001100
10101010
1111111000111101
1111111000001010
1111111010110001
1111111100011001
1111111100111000
1111111111010101
1111111001001000
111101
100000000
101100001
101000111
11010111
110011001
11100010
11000010
1010100000
1010110011
110010011
100100100
1111111100011100
1111111111100001
11011
1111111101011101
1111111110100111
1111111001001110
1111111111000001
1111111100000110
1111111110010011
1111111000000000
1111110110111110
1111111100000110
1111111010100111
1111111010110101
1111111111010100
1111111110010101
1111111111001001
1111111101111001
1111111111110111
10111111
101101100
10110111
1111111110110111
1100011
1001001100
1000011110
1000010000
101000001
1111111001111111
111110100
1111111101111101
1111111101011001
1111111110001101
1111111011000000
1111111100111111
1111111101111001
1111111001001111
1111111000111000
1111111000100100
1111111001110011
1111110111111100
1111110110101000
1111111010101111
11111
1111111100000001
1111111110001000
1111111111110011
10110000
1111111101111000
1111111110101001
1111111011101010
110100
11011011
100101110
11011110
10010
1111001
1001000110
1111111110101001
101011
10010101
1111111100010100
1111111101101010
1111111110011010
1111111011010001
1111110110110001
1111111001000101
1111111000011011
1111110111100100
1111110111101001
1111111001110000
1111111001101001
1111110111111010
1111110111101010
1111111110010001
1111111110000000
1001011
101001010
10000
1111111110000101
10110111
1111111101010001
1111111110101000
10110010
1011000100
10001101
1111111101101000
1111111001110101
1111111101000000
1111110110101100
10000011
1001100
1111110110101101
1111110111110000
1111110111100100
1111111110011110
1111111110011110
1111111101110000
1111111010010110
1111110110001100
1111111010011000
1111111111111001
1111111111000000
101011110
1001001000
11100110
1111111010100100
101101110
100010010
1111111010001001
10111111
11110011
1111011
11001101
1111111111001000
1111111011001100
1111111011000010
1111110111000100
1111111110010110
1010010
1111111101001001
1111111111100000
1111111
11010101
101110100
10101110
100100001
1111111110111000
100011000
110110001
10110001
1010100001
111101101
1111111001110100
1111111000010011
1000100110
1111111101011101
110101
101010100
1111111011111001
1011111
10100011
10100101
1111111101001010
1111111000000001
1111110010101111
1111111010010100
1111111101111100
1111111100111011
101010001
100010100
111110111
11110011
111101111
111101000
110100010
111001001
100010000
101011110
1010001000
111100110
1111111010101010
1011
101011110
1110
10100000
1111111111111000
1111111101110001
111110
1100100
101110001
1111111111001000
1111111100100100
1111111110110110
1111110110011000
1111110101001010
1111111111111010
110000
111101000
111011111
11000011
101000011
110011011
1000111101
100010
110111
1001101
101011001
1111111
1111111000000000
1111111110100100
1111111100110101
1111111110001000
1111111001111100
1111110001110011
1111111100101010
1111111101110011
11110010
10011001
1111111110101011
1111111100011111
1001110
1111110011001010
1111110101100111
1111111111111001
100011011
1111111110011101
100000111
1111111011110110
1111111111100100
100011111
101110000
11000011
11110000
1010110
10010111
1111111011010011
1111110110110101
1111110111111101
1111111101110010
1111111101101101
1111111101111111
1111111010000000
1111111100011110
1111111111110001
101110100
101010101
1111111111111111
10001001
100100011
