110011000
101111011
110111001
1010000
10011101
1111111101010101
1111111011111111
111011
1111111110111110
10100011
1111111110011000
1111111000101010
1111110101010111
1111110000011100
1111110011100101
1111110111010100
1111111101010100
1111111010110101
1111110111010010
1111111101010111
11100011
111001
1111111100110011
1100011
11100010
1111111100001111
1111111110100110
111111
11111101
101000111
11111100
1111101
1101
1111111111011111
1111111111010001
110001
1000101
11010010
11110
1111111011100000
1111111010101111
1111110010001000
1111110010101001
1111111000100011
1011010
1111111110010010
1111111101010111
1111111100111011
11011110
100100
1111111101011000
1111111111111000
10000101
1111111101001100
10101011
101
101001111
100000011
11001100
1111111110111101
1100001
1111111111000111
110000
11100001
110010010
100101111
1111111110010111
1111111001111010
1111111101110000
1111111011001011
1111111011011000
1111111100001111
1000101010
10010000
10011011
10110010
110111
11101101
1111111100000000
1111111101000101
1000100
1001
100110
10010100
100011111
100011011
10000
11101001
1111111101100001
1111111100111101
110010111
10101110
11111110
1111010
1111111110100111
1111111001100001
1111111101011001
1111111100011101
1111111101001011
1111111111011111
1001110101
1001010011
101011001
100001101
111010
100000111
100101111
1111111111001011
10000
1111111011010110
1111111110001110
1111111101110011
100000111
100100001
1111111110100001
10110001
1111111101100011
1111111011110110
101101111
110011
1111111111011111
1001001010
10010001
10100
100000
1111111010101101
1111111100101100
110100101
1110111011
111001010
100001100
111110010
1000100100
1001001
1101001
1111111101000001
1111111001101111
1111111011001010
1111111111010100
1111111101101000
1001100
101010010
1111111110000010
10010101
1111111101110010
101001
110011001
1111111111001111
11100110
1001111101
100110011
110000010
1111111010010000
1111111010100011
1111111110010011
101010010
111100000
1111111110101000
1111110101101100
1111111111110000
100001011
100011010
1111110111011101
1111110111110110
1111111000011001
1111111111100011
10101010
1010000
10110100
10110001
111000
1010110
1111111111000001
1111111110110010
111011100
11110000
100100001
101110011
1111111100011111
11011000
10011010
1111111111001000
1111111101010110
101011
1111111111010110
1111111100110010
1111110100010110
1111110111000100
11
1111111011110010
1111101111011110
1111101010010011
1111111001001011
1111111111001101
11101101
1111111111000000
1110100
100111
1111111100111010
10001011
10010100
1
1000011011
1101100
110000
100101110
1111111110000011
1111111010001000
1100111
11000001
111110
1101000111
11011010
1111111110111100
1111111010010110
1111111011100001
1111111100111000
1111111000010011
1111110011000001
1111101100110111
1111110001000000
10101000
110001
10101000
1111111111101001
10111000
1111111101111110
1111111111010111
1111111110110110
1101101
1001010101
100101
1111111010111100
1111111000100001
1111111011100001
1111111011110100
1111111111110100
100111011
1110001
1010111011
1111111101110001
1111111001001011
1111110110110101
1111110100001101
1111101100010111
1111110001100011
1111111001101000
1111110100011100
1111101010101000
1111110111001001
1111111010101000
1111111111111000
1111111111001010
101101
1111111111100001
10011000
1111101
1111111101001101
11110001
1111111101000101
1000111
1111110110010111
1111111100000111
1111111001111001
1111111110111101
1111110111101110
1111110101011011
1111110110110011
1111111000110010
1111110110000001
1111110100110111
1111110110010101
1111101100101011
1111101110110000
1111111000111110
1111110101101011
1111101101111111
1111101001101010
1111110100111101
1001000
1011111
1111111111111111
110111
100111010
11111110
1011001
10000100
1111111111010100
1100110
1111111011011110
1111111010101001
1111110110000011
1111111111011001
1111111110010010
1111111011011001
1111111010110000
1111111101010100
1111111000100001
1111110101001001
1111111000100011
1111110110101011
1111101110110000
1111110110010011
1111111001000000
1111110001001010
1111101111001110
1111110101100111
10001011
11001
1111111110110001
1111111110101000
10101
100100100
100110111
1111111110100101
1111111100011000
1111110110011100
1111110011111101
1111111000000111
1111111100001000
1111111101111111
1111111110000101
1111111111111110
10010110
1111111110011101
1111111010011101
1000111
1111111110100101
1111111000111111
1111101000011010
1111111101001100
1111110100100010
1111110111111011
1111110110000100
1111110111110111
10100001
1101011
1100110
1111111111110010
110000111
1101100
100011000
1111111111011100
10100
1111110101010111
1111110001000111
1111110001101011
1111111001111010
1111111010101011
1111111001001000
1111110101000001
1111111111111010
1111110001111111
1111110110011000
1111111100110110
1111111010111010
1111110000001001
1111110010000010
111101000
1111111000001000
1111111001101010
1111111010000111
1111111101100010
11101
100000100
10001
11101011
10010000
111001101
101000111
10011011
100010011
1111111010010001
1111110100101100
1111110101011100
1111111011110110
1111110100100101
1111101111011001
1111101010011010
10010
1111111000001100
1111111001111111
110100001
1111111010011011
1111110010010010
1111111101100111
10001100
1111110101111111
1111110110010000
1111110101010101
111001
1111111100101011
100110000
100110
1111110
1111111110110110
101110011
101110110
101000
1111111110101100
1111111000101101
1111111011001001
1111111011010011
1111111101000101
1111111011011001
1111101111011001
1111110111110100
1111111011001000
1111110111110001
1111111100010111
11000100
10101011
1111111101110111
1111111100100110
1111111110011000
111
1111110101010111
1111111010010001
1111111110101101
101100
11011010
11
100000110
1111111101110000
100001000
101110100
101100000
1100000
1111111001111101
1111111110000100
1111111101100011
1001100
1010000111
100110011
11011
1111110111000010
1111111101001110
1111111101010100
1011001
101010111
1111111011110111
1111111010001110
1111111010111010
1111111110110000
1111110111100000
10100100
1111111100110011
1111111101101100
11111001
1111111111101001
1110010
10100101
1111111110000011
100110
1111111110110001
1000001
1111111101000011
1111111100001111
101010100
111111111
111011001
1010010
101000
100010
1111111111110011
1111111011000000
10110
11010111
1111111010001100
1111111001010010
1111111001110000
1111111000011100
100000100
1110101
1000110
1111111111111110
11110
1110010
100110
1111111111110010
1000110
1111111101000011
1111111101100001
1111111110111100
1111111001110001
1111110111111101
101100100
11101100
11110011
100101010
11110000
111011001
1111111101000001
1111111110011111
10100000
1111111111110100
10
10011100
1111111001100111
1111111101001011
11011111
10010011
101110
1111111101110111
1111111110000000
1110001
1110
1111111101100111
1111111011110101
1111111011011101
1111111010111101
1111111011000111
1111111100001111
1111111011101100
1001011111
1100000010
10100111
11101001
1111111111111011
1111111111000111
1111111101111110
1111111011110101
11100100
1111111110010010
11001110
110111001
10001010
1111111111010000
100010001
100101100
1111111101001110
1111111100011100
1111111001111010
1111111110000001
1111111100101101
1111111000010000
1111110101000111
1111111100001100
1111111011111000
1111111011111010
11101000
1100111
1001001110
1100001011
1010100011
1011110000
100100101
1111111111111010
1001011
1000001
11010001
10000010
10101011
110010100
1111111011100010
100001111
110001001
100011111
10001101
1111111101100110
1111111010101011
1111110111011100
1111111001111110
1111111001110101
1111111000000010
1111111000010100
1111111011001101
1111111110101001
10001000
100111111
11000110
1111111110100001
1000101011
1011100111
111011110
1111111111011000
1111111100101111
10110
100101011
110101100
1011110001
111011011
1001000
1010001101
110011001
111001
1110000
1111111100111110
1111111010100110
1111111011100011
1111111000001000
1111111001010011
1111111010000100
1111111101001111
1111111100010010
1111111110000110
100100101
110011100
10101000
1111111111000110
1011001
101100111
11111100
1011101
1100100
11001011
10111010
1010111000
1101000010
101010011
100011000
1110010011
101000000
100110110
10000101
1111111111100010
1111111001011100
1111111001100010
1111111101001100
1111111010010111
1111111100110110
1111111110010011
1111111100001001
111101
100101010
10011000
1111111100000101
1111111111110110
110101000
111111001
1100011100
1001010100
1001000110
100000010
1010011101
111000111
101001111
101011010
1111100001
111110111
11000101
1111111111001111
1111111111010110
1111111110010001
1111111010100101
110
1111111110010111
1111111011000001
1111111011101110
101000101
1111111111111010
11111110
1000
1001001
100011001
101101100
100110010
10001000100
10011110001
1001011011
100111011
1101101111
1011010011
11000101
111110101
1011000000
110011111
10111111
1111111110100111
1111111111100001
1111111111100110
1111111001101100
1111111010111000
1001
1111111100010010
1000
100010
10111000
10001110
10111010
100101001
11001100
101110100
1001100110
1001000111
10000001100
1011110010
1011100
11111001
1110011010
110011100
1000100000
1001001111
100101110
111001
100110000
1110111
11010111
1111111011010111
1111111000011010
1111110111000000
1111111001110100
1111111101011110
101001
111001100
110100101
1111111110101000
11101110
10010001
111111010
111111100
110010101
11101111
1011000100
111110110
1111111111001110
101101101
1001001011
101101101
101111101
101000111
11000
11100111
100001100
101110001
101100110
101011
1101
1111111010011100
1111111000010110
1111111110011011
10001000
111110111
101000001
1111111101100101
101001000
111110011
110011110
100101010
110000100
10001111
110100110
1100010
110001
110011111
1111011
100100001
1111111101001101
1111111010010101
10111010
10010101
110011010
100100101
11100010
111001
110001
1111110111001011
1111110101110111
100000011
1001111110
1001010
10010011
1111111101011001
10010000
111000111
100000011
110100000
111111001
110010010
101101000
1111111101110100
1111111111000100
1111111110010011
10000010
1100100
1111111111011000
1111111101111010
11001
11110110
100110000
101010000
11000010
1111111110111010
10111101
