1111111100111001
1111111111010011
1111111111100010
1100000
1011010
1100111
100001010
1111111101000001
1111111101001101
1111111000010010
1111111100010101
1111111111011000
111000100
111000101
111001001
111001000
11100101
10110010
1010001010
100011010
100010011
11111
1111111000010001
1111111011011000
1111111001100000
1000011001
111001000
11010110
11010
1111111100110010
1111111111101000
11001
1111111101101010
11001110
100110010
1111111101001100
1111111000100100
1111110110111101
1111111010001000
10011011
1101011
111101001
1001110100
10001101
1111111110100011
1111111100111101
101100010
11100101
11000101
1100011
1111111011110111
1111111001011100
1111111101110101
110111
11101001
1001
10000101
1111111101000010
0
10110001
1111111111101010
1110001
1111111111011111
1111111101000011
1111110110011110
1111111000101000
1111111101101010
1111111111110000
1111111111110100
11101001
1111111110110111
11010011
1111110100001111
1111110111010000
1111111110110000
1111111110011011
1101000
1111111011000100
1111111111101110
1111111110110111
101
10111000
10000000
11011110
100100
1111111100101010
1111111111110110
1111111111100101
1101100
11000001
10000000
1111111110000100
1111111100000110
1111111010101101
1111111110010001
1001001
1111111110101101
1101011
1111111001110010
1111111110000000
1111101100010011
1111110000100010
1111111011001111
1111111100000011
1111111110001110
1111111010010111
1111110111111001
1011110
10010011
11001110
1111111111010101
11011
1111111111110101
1111111111001010
1111111111001111
110111
1111111111001111
11111100
1001010
1111111111100011
1111111101101000
1111111100000010
1010101
1111111011010000
10100110
1110110
1111111001011011
1111111000011000
1111101110100111
1111110111000100
1111111000110000
1111111001100000
1111111100001101
1111111001100011
1111111101000100
1111111111110100
11100110
1100101
100101
1011100
1111111110111011
1111111110001000
1111111111000000
11010101
1111111111011110
1111111111111110
1111111110110001
1111111101111111
1111111111011001
1111110111011100
1111111101100001
1111111011001000
101100101
11101
1111111100011000
1111110111111011
1111111010000010
1000101
100111110
1111111110010110
1111111010011100
1111111000100011
1111111100000101
100001101
100001011
1111000
1111111110011100
1111111111010110
1110111
1111111100010000
100101
11100000
111110
1110110
1111111111100000
1111111111001011
1111111000010110
1111111011010000
101110
1111111011111011
100111111
101101
1111111111110110
100
1001011
1101100
100111000
1010000
1111111001010010
1111111011101111
100001111
1010100100
100011010
1111111011110000
1111110111111111
1111111010001000
110100
1001001
11011110
111101
1111111101010101
1101100
1111111100100011
1111111111111110
1111111100100000
101100
1111111110100011
111001001
1111011
1111111010011000
1111111010001110
1111110111001010
1111111001011100
1111111000000100
1111111111000011
10110110
1111111001110010
110001
1001010101
1001010000
10011111
1111111100111011
1111111110010101
1111111010011110
11110
11011
10000
1110010
1011001
10101101
1111111111110110
100100000
10101000
101010011
1111111111001011
10011011
1011001
1111111101001100
1111111011110100
1111110011100100
1111110111110110
1111111000101011
1100010
10101101
110100110
110101010
11110110
100000110
110010110
101101
10101101
1111111111011101
1111111111000100
101
1111111110111100
1111111111100011
1111111110111111
101100101
10010
10011100
1111111111110110
1001100011
11111001
11010001
1111111111100010
100010001
1000100111
10010001
1111111100001100
1111111100111010
100010110
1001000110
1010110111
1001011111
1000010000
1000010010
111011101
1000001001
100011110
1111111101011011
111
101011
1111111111000111
110111
110011
10010111
1111111110000000
10001100
1111111110011001
1010000
10001110
11010000
1111110111110111
1111110111000111
1111111100110001
101001
1111110101011101
100011
1110001011
1011110100
11101110
1110111100
1101000001
1101010010
1000010010
111110010
100000111
1111111111100111
1111111111101110
1110111
1111111111000111
1111111100110001
1111111011110100
1111111100111000
1111111101100000
1111111110010110
11111110
100101111
100111000
10110
1111111011010010
1111110101010001
1111110100010000
1111110111001101
1111111000001110
11011010
111001
1001010111
1000010001
10101011000
1100111011
1110101100
110100101
101010
110100
1111111010011100
11001
1111111111110100
1111111100100101
1111111000011101
1111111011111100
1111111001000111
1111111011101001
1111111100010010
101
101111110
1001010101
1111111101110101
1111111111111011
1111111101110000
1111111001101111
1111110011011101
110001101
1011001001
100001010
1000101010
1000101011
1111010000
110010011
1010110011
101100001
10111001
1111111110001111
110000
1111111011101010
1111111010011000
1111111000111100
1111111001001001
1111110111111010
1111111010100000
1111111001101110
1111111000110011
1111111110010100
1001010001
100111100
1111111111011101
1111111111000100
1111111110111011
101010111
1111111011100000
11100101
1011110110
10100011
10001111
101110010
1111111
10101111
111111111
1001011001
10001101
1111111111111110
10010101
1111110111100110
1111111100100111
1111111100010110
1111111100011110
1111110111010010
1111110111100011
1111111101110111
1111111000111001
10100101
11001001
10101100
1111111101101011
1111111001100001
1101101
10001100
1111111111111110
110101010
1001111010
100110011
1111111110110000
1111111111011101
100100
1111111111111010
111100010
1011010010
1111111111011111
1111111101111000
1001
1111111000000111
1111111011011010
1111111010011100
1111111100100101
1111111101000101
1111111010110110
1111111010101010
1111110111010001
10110001
10010100
100010110
1111111110001110
1111110100001011
1111111000110100
1111111111100010
11011001
100011011
10001000
1111111100100001
1111111100110011
10100001
1010010
101000101
111111100
1000110010
1111111110001101
10001110
1111111110001010
1111110110110111
1111111001001100
1111111000100001
1111111101010001
1111111011110011
1111111001111011
1111111100001000
1111111000100010
1111111111000110
101101100
1110110
1111111010111010
1111111010101000
10000100
1111111111011111
1111111101010011
1000100
1101011
1111111011011011
1111111001010011
1001111
1111111111100111
111000100
1100010101
11010010
1111111111101011
1111111110110101
1111111011100110
1111111000101010
1111111011000011
1111111000100000
1111111001110111
1111111101011000
1111111110000001
1111111001101000
1111111010100000
100011
110000001
1111111100101110
1111111101011111
1111111011110000
1111111110101101
1111111110001001
1111111001000110
100010
111100
1111110111010111
1111111111001010
1111111010111110
1111111101000010
1000011
100111101
1111111101100111
100000001
1111111111001101
100101111
1111111010101100
1111111001001010
1111111101100111
100100
100001
1
1111111100010010
1001111
1010101
101100001
1111111101110011
1111111010011110
1111111101101110
10000011
101011001
1111111111101000
10100011
10011101
1111110101010000
1111111001010010
1111111000001000
1111111000001001
1111111101100001
11
1111111110000010
10001000
1111
101111100
1111111110000110
11000
1111111111011011
1110100
11111001
1111101
11001111
11000011
1111111111101011
100111000
1111111011101000
1111111010011101
1111111001101110
1010100
1001110
111101
10101110
1111111111011110
1111111001100001
1111110101000111
1111111010101110
1111111011110001
11101000
1111111110111001
1111111111110111
1
110100
1000100001
11000111
1111111101101001
10111011
100001001
110010101
1100101
1111111111100000
110001000
10011110
1111111101011010
1111111110100111
1000101
1111111101111011
1111111010001011
1111111101111011
1111111100110100
110001101
1000110
1111111011000110
1111111001101110
1111111000110101
1111110111000111
10001011
1111111100001000
100000101
10111101
1111111111110010
1101111
1111111110100100
1100110
11101011
111010100
11100001
101001111
101110010
11100001
1111111110010111
1111111010010011
1111111111010111
1100011
1001110
1111111111001111
10100101
10011110
1001000101
11001101
101001
1111111101010000
1111111011110111
1111111101110101
1111111001000111
1111111001110001
1111111110111000
110110
1111111111010000
10001111
1111111100011101
111000
1011100
100000101
110101100
110111101
10100111
110001101
11000110
10000111
100000011
101001111
1111111111110100
10010010
1011001
1100
11110110
111000011
1111111110001101
11110011
1111011
1111111111100010
1111110101000100
1111111001111000
1111111110110000
11101000
11011000
111101110
1111111010111111
1111111011011010
1110101
111100011
10100001
1111111110001011
1111111011110000
10000000
1100100
10111011
1111111110101011
1111111111111111
11010101
1111001
1111111011100010
1111111110101101
110110100
1111111111111010
1111111000110000
10101100
1111111101110110
1111111110100001
1111111011011010
1111111001000101
1010
110100
10111111
1010100111
1111111100110110
1111111101110011
10111001
1111111111010110
1111111111000010
1111111000101001
1111111010011100
1111111001010010
1111111011001111
1111111110011000
1111111001011101
1111111001001001
10010101
1111111011000011
1111111101001111
110000010
111110101
1111111010011111
1001101
1111111011110001
1111111001100100
1001001
1111111011111010
1111111011011111
1111111100010100
1111111111111101
1010001100
1001011011
1110010
1111111101110111
1111111100111110
1111110111000110
1111110100000001
1111110110110111
1111111000001110
1111110111010111
1111111010000001
1111111000001001
1111111100110110
11
1111111110111001
1111110111010110
1111111010101111
111110001
1011001
1111111001111110
1111111101101100
1111111001011100
1111111111100100
1011001
1111111011000001
1111110111010111
1111111000111010
1111111100110111
11100000
111010
101100111
11010010
1111111100111000
1111111010100111
1111111010101001
1111111010001110
1111111101100110
1111111111101000
1111111011101011
1111111010111001
1111111111011000
10100101
1111111111100101
1111111100010010
1111111100100110
110110010
1111111110110110
1111111111010001
1111110111111001
1101001
1010111110
11000101
1111111110100011
1111111110001000
1111111101110000
1111111111111110
1111111101001101
1111111110011010
100010100
101001010
1111111101111011
1111111001011110
10010
1111111101110011
100001110
10101110
1111111101101100
1111111101100001
101010
10001
1111111100100001
1111111110111100
1000010001
110101011
10010100
1111110111010110
1111111001000001
1111111100101100
1011001
100111000
1111111111001101
1111111010111110
1111111000110011
1111111001111000
1111111101110001
1111111000001100
