1111111010000110
1111111100000111
1111111011101111
1111111101000001
1111111110100000
1111111100111000
1010000
1111111100110111
1111111000010011
1111110001010000
1111110011011111
1111111101101001
1111111100110110
101010000
1000110111
1111111111001010
1111111110001010
100110101
101101101
1000011110
1011010101
100100011
1111111111001011
1111111001111111
1111111001101110
1111111100001110
1111111111010011
1111111010011100
1111111100111001
1111111011100010
1111111101001100
111000
1111111101001111
1100
10001111
1111111101111001
1111111001000011
1111110010101110
1111110010011101
1111111010001100
1111111001010111
10010010
1010001011
1111111100111011
1111111001010101
1111111111011111
1000001110
110111111
1000010111
110000110
1100111
1111111100011110
1111111001011111
1111111011101101
10001100
10000100
1111111100011001
1111111110101111
1111111111111011
1111111111110111
1111111111000111
1001111
1111111011001110
1111111101110110
1111110011111111
1111101101000001
1111110111000100
1111111011100000
1111111011011001
1111111101111111
1111111110011100
1111111111000010
1111110010101100
1111111111000000
101110001
111101010
110001111
1111111101101011
111101
111111
1111111101010110
1111111100000010
11011101
1111111110010011
1
1111111100111010
1010000
1111111100010110
1111111110100001
1100100
1111110111111111
1111111010001101
1111110101001000
1111101110011110
1111110011110001
1111111010100011
1111111111110010
1111111111111111
1111111011100011
1111111010101000
1111110100101100
1111111010110111
1111111101011001
1101110
100110011
1111111111000111
1111111101000110
1111111100011010
1111111110110001
100111
11010000
11001100
1111111111000001
1111111110111111
1111111111110001
1111111101000000
1111111101111110
1111111111101011
1111110101000001
1111111000110000
1111110101001011
1111101110101001
1111110010100001
1111111011010100
1110000
10111010
110110
1111111101000111
1111110111100010
1111110111100001
1111111011010011
1111111011010110
1111111110110000
11010
1111111110011101
1111111010111110
1111111111101000
11
111011
11101000
1100100
1111111111110000
11001001
1111111100111111
10001110
1111111110101000
1111110111010001
1111110110010000
1111110101011001
1111101010010000
1111101111111110
1111111011100001
11010001
1110010
1111111111001101
1100
1111111001010111
1111111101111101
1011101101
101111100
1111111011110000
1000111
101100110
1001
10011000
10000000
1111111110101001
10001010
1010000
1111111111110000
1000001
1111111111010010
1111111111110001
10001000
1111110011011011
1111111000000111
1111110100100101
1111110001111111
1111111001110100
1111111100000111
11001000
1111111110111100
1111111110100101
101100000
1000101011
11000110
10000111100
1001100101
1111111100010011
1111111100111110
10100001
1000001100
110001000
1111111111011010
10101100
10000110
1111111101011101
1010001
1111111111111000
1111111110011110
1110001
1111111110100011
1111110010001111
1111111000101010
1111111011110100
1111110101110110
1111111101110101
1111111101010010
1111111011111101
1111111010100110
1111111101100101
1111111011000100
11111101
10000010
110100000
10011
1111110101011100
1101
1111111110011000
10101011
1100000000
10101
10111011
1010011
1111111101111100
10000001
110101
1111111110101010
1111111111111000
1111111111101010
1111111000011000
1111111010101001
1110010
1110010
1111111111010011
1111111010110000
1111111111100001
1111111110010000
11001110
1111111100000101
1111111110110000
1111111110011111
1011000
1111111101010001
1111111110100101
11110101
11010
11110000
10000001110
100000001
10101010
1010000
1111111110010001
11100111
110010
1111111111110011
1111111110011010
1111111110110010
1111111010011000
1111111101110111
10100
101001100
111011
1111111110100011
10100011
100010011
111111101
100011101
100001101
111100
10000111
10010001
10100101
1001110001
10100111
10110101
1000111100
1101011011
1001101000
1111111101100010
1111111101011110
100000
1111111110011101
1111111101110001
10111010
1111111100101001
1111111010110110
1111111001001100
1111111011101110
100010000
111000111
111110101
100011011
1111111101101001
1111111111011000
100000100
1111111001100010
1111110111111111
110111
1111111001111110
1111111000101001
111101101
1000011110
111110001
101111110
1100001101
1000110000
1011010
1111111110010001
1010101
1111111110100110
1111111111110111
1111111011101001
1111111010110111
1111111110111111
1111111000010100
1111111101011011
111111100
111100000
111101010
100010001
1111111010000001
1111110010101001
10110100
1111110111010110
1111110000111011
1111101110100011
1111110100010011
1111111101001000
100011110
1111111110100010
1100011001
111011000
100100100
111010000
10011001
1111111111000111
1011110
1111111100010101
1111111011011101
1111111010000111
1111111010010010
1111111011111011
1111111000011000
111010
101110000
1101001010
11100100
100001111
1111111111111101
1111111000000010
1111111010000111
1111111100101010
1111111000010001
1111110001000110
1111111010000011
1001011101
101101011
1111110110110011
1001101010
101011101
100111011
1111111111101110
111010
1111111010000111
1111111101001010
1111111000110001
1111111011100011
1111111010010110
1111111010001111
1111111111001001
1111110101100110
1111111110100100
1000000000
100110110
11011010
111000010
11
10111011
1111110100010001
1111111011000000
1111110100100001
1111110001111110
1111111101100010
11111111
1111111011000001
1111111010010010
111011001
11011110
111101110
1111111101011101
10010010
1111111001111001
1111111011110001
1111111100001000
1111111100111101
1111111000010100
1111111100101010
1111111110001101
1111111010001010
10100111
101111000
110011101
1101110
1111111100011111
1101010010
1011000100
1111111011011010
10001000
1111111101000110
1111111001011001
1111110100100001
1111111111110110
1111111110010111
1111111010101101
1111111111100000
100001101
10010001
1111111110000011
1111111110100111
1111111000000011
1111111101101011
1111111100000111
1111111010101101
1111111101010110
1111111001001111
1111111010110101
1111111000101110
100000001
1001011001
110100010
1111111110111011
1111110111001010
1111111011011100
10011010
101101010
100100
10110001
1111111000001110
1111110001111101
1111110110011110
1100101
1100000
111100000
111001110
1001010
1111111101110100
1111111011111110
1111111000111000
1111111011011000
1111111001110001
1111111101010101
1111111100101101
1111111110100100
1111111101010101
1111111011011100
110011000
1010110111
111011
1111111001001101
1111111000011010
1111111011000110
100110101
1111111101100100
11000101
110001000
1111111011100110
1111110000000011
1111111010110001
1111111100001011
10010001
110111110
101001
101001101
1111111101011011
1111111101111110
1111111100000001
1111111001111011
1111110111010011
1111111110100110
1111111110101000
1111111101110110
1111111101110111
10101010
110010100
1111100010
1010010
1111111101010001
1111111111001001
1111111101000110
10000110
1111111001101001
110111111
101101100
1111111110110010
1111111100000100
1111111100101000
1111111100101000
1010001000
11100000
10111010
100110100
1111111100110011
11101100
1111111111001010
1111111011111101
1111111100111111
1011111
1111111111111101
1111111111100101
101101111
111101001
110011001
1100001011
1111010
1111111111000011
1111111111000011
11000
100100111
10000110
111101001
1000101100
10100101
11011110
1111111101111001
1111111100100111
100000001
110110010
110000010
1111111101000111
1111111100010110
1111111111011110
1110001
11011010
0
10011000
110111100
101000100
1010101010
1010100001
111000101
1001000100
11010111
1111111101000110
1111111101010011
1111111000111110
1111111011110001
11011010
11010101
111010101
10101001
1111111111001110
100111100
1110
11001011
100000100
1111111111111101
1111111010111011
1111111101100111
1111111100100111
10110010
100100
1111111110010011
101101110
110001010
100001000
1000011000
1011110000
100001111
111111111
10001100
100100110
1111111001001110
1111110111011011
1111111001101110
11110110
1000011110
10001111011
1001011001
11010111
100110111
1111111111100011
1011001
1111111100110100
1111111101110110
1111111100011101
1111111100000011
1111111111011100
110000
11000000
110100
100111011
10001000
11110011
111101111
1001100100
11111001
101011111
11000111
101010001
1110010
10011000
11101011
111000010
1111010001
10000011110
1001011010
101100001
1111111110100100
1111111011101100
1111111100100110
1111110110000100
1111110111011011
1111111000111000
1111111011010000
1111111110010000
101011011
101111001
110010111
110100110
100001000
111001111
1010110010
1011100010
1000001110
101110001
1001111010
1001011011
101110001
1000111101
1001010001
1010110100
1101101011
1100110011
1000111100
100101010
1111111110101001
1111111101010010
1111110101100100
1111110110011000
1111110110001111
1111111010100111
10101
1011
110010000
11100010
100101100
111100011
111010100
1111111110110101
110011011
1101100011
1001000001
1010001001
111111010
1010000101
111100110
100011000
1001111
1100110001
1011010000
10010111
1111111110110000
1111111110001111
1111111010010000
1111111000110011
1111110111010100
1111110101111100
1111111101001101
1111111110100110
1111111101111100
1111111111000101
100011001
1100010
100001001
10101101
1111111111011001
11000001
11000111
111101010
1000010111
1000010100
1011111011
1011101010
1000110011
1011110
100001000
110110101
11010000
1111110100010111
1111111011011100
1111111001001010
1111110110011111
1111111110011100
101010
1111110110110110
1111111010101000
1111111011010011
10110010
111000100
101011001
100010001
11111111
1111111011000011
1111110110110101
1111111111100110
111011010
110000110
1001101011
1001101000
1111000011
1011011011
111100010
100100001
1111111100001111
11101101
1111111001000000
1111110000010010
1111110110100000
1111111000011101
1111111101100100
11000001
1111110110111000
1111110110110110
1111111011011000
1111111011001100
1111111110011100
1111111101010111
110001000
111001001
10110000
1111111100010011
1111111100110111
1111111111011110
1001110100
1000100000
110110010
1001111000
1100010100
101000010
1010110
1111111000010110
1111110110111101
1111111000001100
1111110000010100
1111110101101010
1111110001001100
1111110111101101
11001101
1111111110001001
1111110111010111
1111111001100010
1111111001100011
1111111001000000
1111111010100110
1111111000111010
100101110
110000100
10100010
1111111111000001
1111111111000001
1111111111111101
1001101110
111111101
110101101
111101000
11010111
100010
1111110111001111
1111110010001010
1111110110001011
1111101100010100
1111110010100010
1111101111111010
1111101110001101
1111111100111011
1111111110001011
1111111100111001
1111111011110110
1111111010010000
1111111001001011
1111111011100111
1111111011011111
1111110001001101
