1111111101110110
1111111101011011
1111111101111100
11
1111111111101000
1111111111010110
1111111110010100
1111111111010100
110000001
1000000001
101101011
110110
1111111110001101
1111111000100111
1111110111101100
1111111011100000
1111111101011000
1111111100111101
1111111010110011
1111110110011100
1111110111111111
1111111111001110
1111111110101011
1111101
10001111
1111111111000001
100110101
111010010
1111111010101101
1111111101110011
1111
1111111111001101
1111111101100100
0
1111111111111110
10100
10001111
1010000001
1000011100
10011010
110000
1111111001110000
1111111010100110
10110
11111001
1111111110010011
1111110111011000
1111110111100111
1111111011101111
1111111001001001
1111111110100111
101011100
1011010
1111111100010010
100111100
1010100110
1111111010100011
11010
1111111101000111
1111111011101010
1111111111000001
1111111111101011
10001
1111111111100001
110010000
1000011011
110000000
1000111
11000010
1111111101110111
1111111110110111
10001
1100101000
101110011
1111111001100101
1111111010011111
1111111100011101
1111111101100010
1111111000101010
1111111101010110
1001101
1111111111000100
111010010
1010111110
1111111011110110
1111111110100100
1111111110100010
1111111011110101
1111111110011001
1111111110110101
1011110
11011110
11110110
1000000111
101000001
1111111111001100
1110110
1111111101110110
10111110
10110011
10000110101
110111001
1111111110001110
1010011
1111111011100010
100100101
1111111110110111
1111110111000101
11100
1010111
101101011
101100001
1111111100110100
1111111111001110
1111111110011101
1111111110100000
1111111110011010
1111111100010100
10100100
100100011
1010011
1001101011
111011100
100111011
1111111101111011
1111111010101111
11001101
110101010
1100001000
110100111
1000001000
1000011111
1110111
100110100
1111111110100011
1111111100110100
1111111101011010
1111111101100101
1111111110101101
10101100
1111111110010111
1111111110110110
1111111111001001
1111111100111101
1111111110011111
1111111100100100
11000000
101011000
100111101
1101001001
101101110
11100
1111111101010010
1111111011010000
100100001
11110011
101111111
101000000
100111100
101101000
1010000101
100100100
100000000
1111111111100101
1111111000011100
11110
100101111
101001100
1111111011100110
1111111101100001
1111111100001111
1111111100011111
1111111011101010
1111111101001111
11111011
101100011
11001110
1100101001
1001
111000
1111111010011101
1111111011111001
100001100
1111111111000101
1111111110000000
1110111
11111010
1010101
1001101000
11111010
1111111111000000
1111111001010000
1111111100101000
10110100
1000001111
101110011
1111111110111111
1111111100010011
1111111101001011
1111111101000110
1111111111101010
1111111100010011
10010000
10101100
1111111111111111
10010100
1010101
11010011
11011001
1000000010
111100100
100111010
110110111
1000111100
10010110
110100001
1110000101
101110
1111111100011111
1111111010001001
1111111011110010
100011111
10011000
1001011000
1111111011110011
1111111101100111
1100
1111111100000110
1111111101101111
1111111100011001
1111
1111111010001110
1111111100010000
1111111101000101
1100100
111001010
1011110110
1011111110
101101100
1011110010
1000100101
1001000001
110000100
111101001
101110000
1111111101001100
1111111010111101
1111111110101111
1111111101111001
1111111101000011
1111111100101011
110011000
1111111011111001
1111111101001000
1111111110001101
1111111111110000
1111111101010010
1111111101100010
1111111111110011
1111110111101001
1111110110101111
1111111010001001
1111111111001110
110111001
1000100010
10111111
1010
11101111
110010
1010101
1111111101001011
1111111111000001
1111111111010100
1111111011000100
1111111011110001
1111111010101110
1111111100100011
1111111010110001
1111111101000100
1111111111001001
1111111010011011
1111111100000011
1111111100111011
1111111100111110
1111111110010010
1111111010100011
1111111111011001
1111111101100100
1111111101010110
1111110111111100
1111111010000111
111011
110011000
1010101010
101111010
11110010
100010010
1111111011011000
1111110100010001
1111111011101110
1111111101110001
1111111001111111
1111110011101111
1111111010010011
1111111100100000
1111111010111010
1111111101000110
11101001
1111111001111011
1111111001001101
1111111111001111
1110011
1111111110100011
1011101
10000
1111111111011010
1111111001000000
1111110000111000
1111111000011001
1001
1000001
101101100
1001100010
11111111
100011000
1111111111011111
11111
1111111001101010
1111110110101001
1111110010011100
1111111010010000
1111110111110001
1111111111100111
1111111101101010
1111111100110010
110010111
1111111100001001
1111111100100100
10101011
110011001
10011111
101010000
101
100010111
1111111010111110
1111110001010101
1111110010001101
1111111101111100
1001010
11110100
10110011
100000001
1111110111110100
1111110000000110
1111110111010101
1111110110011010
1111110001111001
1111110000101010
1001
1111111011100011
10100001
1111000
10100010
11110
10101001
100011011
1000001001
11110111
1000101000
100110001
10000111
10001100
1111111111011000
1111111011110001
1111111001011000
1111111011110101
1011111
10010111
1111111111101101
1111001
1111111100001100
1111110110010011
100010
1111111011001001
1111111001011100
1111111111111000
1111111111001001
1111111111101011
1100001
10001011
1011101
1111111011101111
1011010110
110000110
110010101
101111110
1011000000
1001000110
1111111111110111
11110010
1111111110011010
1111111111010111
1111111000101100
1111111010011110
1100010
1111111011101001
1111111110100011
11101001
1111111000101001
1111111100101100
1100000
111001001
100111100
11010001
101111011
11101000
11101001
1010111100
101010110
1111111100010101
110011101
101010010
110111000
101111111
101000110
111101011
101111001
110000001
11001000
1111111011010011
1111111001111101
1111110111000101
101101001
1001011101
1111111101111010
1111110110101101
1111110111011011
1111111011000100
100001000
1001011010
100000000
1111111110110111
100010011
1111111111100101
100110000
110000011
1111111011111110
110000
110111110
110111000
100001101
101110010
110000011
100100110
101110101
1000110110
10101
1111110110111110
1111111101011110
1111111010111000
1111111111110110
1111111111001101
1111111101000100
1111111001101011
1111111101111000
11110000
1011100010
10010100100
1001111010
100111101
1111111111110010
1100010
1011010000
100100001
1111111110100111
1111111111010000
111001111
100011000
110111100
110101101
100101111
101010101
11101000
100100011
1111111110011001
1111111000110101
1111111100010000
1111110111111111
1111111001001100
1111111011100001
1111110111011001
1111111100100010
1111111001001100
10001001
100001101
101011010
1011000010
101010000
101101001
111111111
110101101
11011
1111111010111111
1111111000011001
1000001110
110110110
100111101
11011010
111111
1111111110111100
111010
100100
1111111111101011
1111111001000001
1111111110000001
1111111101011100
1111110011011111
1111110001100001
1111110001100100
1111110101000010
1111110101110000
1111111011001011
101100111
101011110
1010010110
1000100101
1000010111
100111110
111101
1111111101100101
1111111100111110
1111110111110100
1111111111011000
100100111
11100000
1111111111100011
1111111101110000
1111111101111100
1111111101100110
1111111011011100
1111111100101110
1111110100011000
1111111000111010
1111111001100110
1111110111100011
1111110000110001
1111110101010100
1111111011100100
1110110
101001
100111000
1100011001
111100101
1011110011
101001100
1111111111101011
1111111001000010
1111111110011010
10111010
1111110101001001
11010
1111111101110010
1111111011100011
1111111110100100
1111111001011010
1111111100011110
1111111100000001
1111111001110110
1111111100000110
1111110110101101
1111111000100011
1111110100111101
1111110110110111
1111111100101101
1111111101100001
1111111111000100
1111111110101001
1111111110110001
100100000
11101110
111000111
1011010110
11000000
1111111111101101
1111111100101101
1111111111101111
0
1111110110011010
10111010
1111111110001100
1111111110110010
1111111101101101
1111111101001000
1111111011101110
1111111001110100
1111110110001011
1111111101101101
1111111111011000
1111111101010001
1111110111000011
1111110111000011
1111110100010011
1111110111000000
1111111101110000
1111110111000011
1111111001000011
1111111111001101
1101010
11011100
1010000
11000010
11111110
0
1111111111011010
1111111101000100
1111111100110100
10101001
1111011
1111111100100101
1111111001111110
1111110101100001
1111111000110111
1111111010110000
1111110111110001
1111110111010000
1111111011111011
1111110111000111
1111110100101000
1111110101110001
1111110011011000
1111111001111101
1111111110111111
1111111010001011
1111110110100101
1111111100101011
1111111010010100
1111111100010001
10110000
11010001
1111111110001000
1111111010001100
1111110010100100
1111111011010000
1111110100100110
1010101
1011110
1111111101010100
1111110110101110
1111110101010110
1111111111110110
1111111111000100
1111111000010011
1111110111000001
1111111001011001
1111111001101110
1111110111111110
1111111001110010
1111111010011110
1001110
1111111111100110
1111111011010000
1111111111111111
1100101
1111111000010101
1111111010010101
1111111110110010
1111111110101010
1111111110110000
1111111010101010
1111111001000101
1111110110101110
1111110101001000
1111111110110011
10110010
1111111100100010
1111111011101100
1111111111111110
1000111
11001110
1111111011100011
10001
100110000
101100010
10000100
1111111011111010
10111001
10
1111111100110001
1111111101100010
11010
1111111010101000
1111110111100010
1111111100111001
1111110010010001
1111111010010100
1111111010011011
1111111001011001
1111110011110011
1111101011110000
1111101110110000
1111111110111001
1111111110111101
1111111111110101
111001101
1010101000
1000110001
1000100101
100000000
100001101
1101001101
1000001000
1111001
100110110
1010111100
111001001
1111111011100101
1111111110011010
10000111
1111111001100010
1111111100001011
1111111000101110
1111110100100110
1111111110000111
1111111101001010
1111111011010011
1111110111110100
1111110001011001
1111110100110001
1111111010001001
1111111011001011
1100101
101001010
1010010100
1000001000
1111111101101011
10001001
110110001
11100101
1111111111101100
11001110
100111000
1100110001
11100101
1111111110010110
1111111111111100
1111111011101111
1111111110101110
1111111011001111
1111110000000010
1111111000011011
1111111011101001
1111111001010000
1111110110100100
1111111010110000
1111111010100000
1111111000101111
1111110110100001
1111111110010111
10100100
110110011
100110
1000010
1111111001110111
1111111101011111
10100000
1111
110101110
111101010
1010001010
1000111110
1111111111101101
1111111100101110
1111111010000010
10001101
1111010
1111110111001110
1111110100110000
1111110100110010
1111110101000011
1111111000010011
1111111101010011
1111111100011010
1111111000001010
1111111111001010
