1100000
1111111110101001
1111111110111010
1000110
1111111111000000
10000
1
1111111111000111
1111111110100101
1111111011111000
1111111100101010
1111111110101011
1111111111000101
101011001
100000010
1111111011010110
1111111101100011
11011
111111101
1100111010
10010010110
1100010100
110011000
1000010
1111111001110110
1111111010101110
1111110111101000
1111110111110011
100011
1111111110111110
110001
1100010
10101001
1111111110000011
1111111111111101
1111111111100010
1111111100101111
1111111000111110
1111111011000101
1111111110110011
1111111110001011
1010111
110111000
1111111011100110
1111111001111101
11101101
111001011
1011011011
1111000100
1011011100
10111111
1111111110111110
1111111110110101
1111111110001100
1111111001010101
1111111010110101
10010
1111111101011100
1111111111101011
111
1111111111011010
1100111
1111111110001000
1000111
1111111110110001
1111111100100110
1111111101101110
1111111111111010
1100010
1111111101110110
1111111111000010
1111111101111100
1111110010101001
1111111011001000
1001011110
1000001110
1001111001
110001000
110101110
101
1111111100010111
111011
1111111110010111
1111111000111110
10101001
1111111110100101
1111111110000110
1101110
1011111
1111111111110000
101100
1111111100100000
1
1111110110110110
1111111100011001
1111111101111011
110001111
100000010
1111111100010111
1111111001101000
1111110101000001
1111111010101001
1111111011011010
11110101
110101100
1111111101110101
11011000
10001100
1111111110100010
1111111111100111
1111111100111010
1111111000101101
10010
1111111110000011
110
1101100
1111111101011000
11101011
1111111111011011
1111111100000011
1111111101110001
1111111011001111
1111111010100100
1111111111001111
1000001110
1111100
1111111111110111
1111111101000111
1111110110110001
1111110011011101
1111101110110100
1111110010010110
1111111000110010
1111111001110001
1111111101111011
1100110
11101110
1111111101011011
1100010
1111111110000101
1111111111110000
1111111110111111
10100111
1111111111001100
1111111101101010
100100000
1111111110000101
1111111111000010
1111
1111110111110001
1111111100101010
100110110
1001100100
110101101
111011
1111111011100011
1111110010000110
1111110010101010
1111110101000000
1111110011001101
1111101111000100
1111111010111100
1111111011110110
1111111111001110
1001001000
1111111101101011
1111111100101001
10011
1111111111100010
110010
10010011
1111111110010000
1111111111010000
1000110
1111111110100100
1111111111011111
1111111100011010
1111111010010110
100100100
11011000
101000001
10110000
1111111011100010
1111111011100100
1111110110001010
1111110100111101
1111111010101011
1111111100001010
1111101111010111
1111111001110111
1111111110100100
11101111
110110110
110000
1111111100111000
1111111111110110
1110
0
1111111110100000
1111111110110000
11101
1111111111100101
10101010
1111111100100110
101110
1011011
1011101101
1111111101110100
1111110101000101
1111110111000001
1111110011110000
1111110100001100
1111111000111001
1111110110010010
1111111101110111
1111110111100110
1111110001111110
111100
1110110
1111111110101111
100101101
10101100
1101100
1111111011000011
1111111100100001
101100
1111111101100010
1111111100110101
1000101
1110110
11100011
10111101
11000000
11110000
110010110
1111111011101101
1111111010101111
1111101101011101
1111110101101011
1111110110001101
1111110101001110
1111111000101010
11111010
1111111110111000
111011
10011001
1111111111110111
1111111110111111
1010110100
100010001
11110011
1111111111100100
111101
11100111
110101
1111111110000100
10000101
1101011
10101010
1010001101
1000111101
1010001100
11110101
1001000
1111111101000011
1111110100000000
1111111001100101
1111111011011001
10010101
101110101
111010000
1001100001
1000010101
111000010
100100110
11011000
1010101011
1010100011
111001111
1111111110101010
1111111111001101
100001100
1111111101010110
1111111111101001
11111010
1111111111110100
1111111111100010
1011110
1010100110
1101011110
101001111
101000101
1111111100111011
1111111001010000
1111111001100111
1111111101001110
1111111110001110
101110
110110101
1101000
1111111111000100
110
1000110011
1000000011
1000101101
1011010100
111010110
1111111101100001
1111111100111001
1111111110110001
1111111100100000
100110
1110100
11011
1111111111010111
1111111100100010
1001000011
10010000011
1110111001
101100110
111001
101100
1111111001100011
10111011
1111111101111010
111101
1111111100000111
10100001
1100001010
11110001
10000001
1001000011
111100000
110000001
11111111
1111111111111100
1111111111001010
1100011
1111111110001110
1111111100111010
1111111111101100
1111111111110001
1111111101000000
1111111101010001
1000000110
1110110111
1101100100
101111110
101001010
111110
1111111111101001
11111111
10110111
1101011111
1111111111111101
10011011
1000110011
100111011
111101
111000000
1111111110111111
110
1111111110010100
1100110
1111111110101011
1111111110100000
1111111001101011
1100111
1010
11100
11011000
1111111100101111
1111111111001101
11111010
1001000
1010110
100000111
1111111011001001
1111111111101001
10100011
11101010
101011
1111111101011100
101
10011010
1111111100001101
1111111101101110
100101000
1111111111000010
1100000
1111111010110111
1000110
1111111000111010
1111111111001101
1111111101110011
100011
1111111100101011
0
1111111111100011
1111111011100110
1111111110110000
1111111101001010
110101001
101010101
1111111001100010
1101
100101001
110001000
1000110110
101011101
10010001
1111111010101010
1111111010000011
1111111101110110
1111111010100001
1111111111011110
1111111011001000
1111111001000110
1111110111010111
100
1111111100001100
1111111110101011
1111111011001001
1111111100111001
1111111010100101
1111111111001101
10101111
1111111011000010
1111111111001011
11000001
11111010
1111
1111111101000101
1111110110100101
10110000
1010000010
1011001001
1001010100
1110011
1111110001000101
1111110011111110
101001110
1111111101010001
101111100
1111111101100011
1111111110011110
1111111100101010
1111111110010100
1111111100011010
1111111111000001
1111111110001011
1111111101001100
1111111111011100
110000
1111111110010110
1111111100000000
1111111110000100
100110001
1111111101001101
1001011
100000011
1111111010000100
110000001
1000001001
1000101010
101100000
1111111100011100
1111100101010001
1111110001101110
1111111110111010
1111111110010000
101111
1111110111100110
1111111110010001
1111111110100011
11100001
1111111100001000
1111111100110010
1111111100110010
1111111011011101
1111111101101001
1111111100110101
1111111001011100
1111111001110111
11011
110011
1111111000011100
1111111111100110
110101
101111100
101000010
10111100
1110001100
11100110
1111111101111000
1111110010100111
1111110101010001
1111110101000001
1111111101101001
1111111100110001
1110101
11110
1111111110100110
100011011
100100
100111
1111111110001011
1111111111011101
1111111101101011
1111111100100000
1111111100001100
1101000
11000110
1101011
1111111011011000
1111111101111110
110001111
1110111100
1011001111
1100111001
1110110001
110111101
1111111110111100
1111111010001001
1111111000110110
1111110010000000
1111111001101110
1111111111111000
101010101
1111111110000011
1111111111010111
10001010
10010011
100100
1111111111100001
1101000
101100
1111111101100111
10001110
1000000
1111001
1111111111010000
1111111001101110
1111111111110001
1011101
100010000
1000010110
1010001100
100101111
1001000010
1111111101111000
1111111000011010
1111110111100101
1111111001101000
1111111010100110
0
10000111
1111111110001111
1111111010010000
101011
110111110
11001
101000111
100111
100111100
10011001
10000100
100011100
11101
1000001
1111111101110011
10111011
11
1111111110001111
1001010001
110000011
1011100000
1011100101
11001
1111111011010101
1111111011011100
1111111001101011
1111110110100001
1111111110100000
1111111111001100
1111111011010111
1111111001100111
11011011
1001101
1011111
100101101
110110011
11100000
1111111111101110
1010011
110100011
1111111100111100
1111111001010111
1111111110011110
100110100
11001100
1000011110
1011010000
110100110
1011110110
111101011
11110111
1011001
1111111001101000
1111111010101001
1111111101111110
1111111010000010
1111111110000110
1111111110110010
1111111111101000
11010001
1111111111100000
1000000
1111111110000101
1101000
100001000
10000100
10001000
100100111
1111111111010110
1111111110100011
1111111011111110
110111001
100001
100100001
100100010
11000110
100111111
100000010
10000001
101010011
1111111011011001
1111111100110101
1111111101001100
1111111101010111
1111111100111001
100000100
1111000
111111000
10000000
1111111101011111
1111111101100010
10111101
101100001
1011010
1111111010000001
1100100
1111111110000111
1111111011111001
1111111010100000
10001
1111111101010011
101100
1111111101000011
101
11100101
10110
1111111111101010
100101000
10011001
1100100
1111111111101001
1111111001110000
1111111110100111
1111000
10110011
110111100
10110001
1111111110001010
1111111111101110
10011101
100101000
10000110
1111111010100101
1111111110110110
1111111111000010
1111111000101000
1111111011001100
1111111101101100
1111111100111010
1111111100110011
1111111010101011
10110000
101000001
1111111100100100
100000001
1010001010
110000001
101001110
11000001
10
1011011
110100010
1010011010
1001001111
1111111011010100
1111111010101100
1111111101010011
1111111101001110
1111111000010110
1111111110011011
1111111011000010
1110011
1111111001011010
1111110011010100
1111111111001001
1111111101001101
1111111010111010
1111111000100110
1111111110010010
1000001
10110110
1111111101000001
11000100
10011000
10010011
1010101
1111111101100110
1111111101011010
1111111110110110
11101001
111000000
10100011
1111111111111111
11010010
1000001
1111111010000100
1111111000110011
1111111111000011
110011
1111111110001010
1111110111011101
1111111100101111
1111111111110011
1111111100011010
1111111011100010
1111111011110000
11001101
1111101
1011111
1111111110110011
1111111011011011
1111111110111101
11001
100110
1111111001010101
1111111111100010
10100000
11011
1111111110010010
1110100
1011001
1101
1111111111100001
1111111100011010
1111111100111011
1111111110011101
100001010
100000001
1111111010110111
1111111110101110
1111111010101101
1111110101110111
1111110110110010
1111111001110000
11111000
1111111111010100
1111111001000111
1111111000111100
1111110000111001
1111111111111110
1111111111001000
10101011
1010000
1011001
1111111110011000
1010010
10000101
1111111100011001
