10001101
1111111111111000
11001010
1110
1111111111010101
1111111110001100
1111111101110111
1111111101110000
101100001
110001000
101010011
1111111110010001
1111111001000001
1111110101111001
1111111000111110
1111111001111110
1111111111000110
1111111101110110
1111110111001100
1111110111110100
1111110111110011
1111111110001000
1111111111111011
100101000
10110101
1111111101000001
1111111101101010
1111111110110010
1000010
1100111
10101010
1111111110000110
1110000
1111111101000011
1111111110110100
1001011
10000101
100000111
100001111
1111111111011110
10001011
1111110111010110
1111110110001110
1111111100101000
1011101
1011001
1111111010001101
1111110111110101
1111111001111001
1111111001010010
10001001
101011001
11101001
1111111110101100
1110010
1111111111101101
1111111110111001
1111111111010000
1001010
1111111110011100
100100
1111111011101011
1111111101110011
1111111111010011
101111100
100100010
1111111110111100
1101101
1111111110000100
1111111110001100
1111111100110111
111
1100111010
100000010
1111111011100011
1111111100101101
1111111001010001
1001001
1010000
1111111110010111
10100100
1111111110100001
10000011
111
1111111111000001
1111111111000100
0
101000
1111111100111010
1111111100100000
1111100
101100110
1011011
100010011
10000001
1111111110110001
1111111111100101
1111111100010101
110111000
110110101
10011110101
1110110110
101011001
10001011
1111111101010000
1000100110
1110100
1111111110101110
1111000
1111111110111011
1111
11
1111111110101001
11011010
1111111101100110
1111111110111011
1101
1111111100010011
1100000
10011110
1111111101100110
10111111
10111
1101011
1111111001110000
1111111101000111
11101001
1010101010
10011011011
1010010101
1100010110
1000110100
110111111
110100100
100110010
1111111100111111
1111111010111001
1111111110011011
1111111111010010
1111111100110000
1111111111001000
10001011
110000
1111111100100010
111011
1111111101010011
1111111110000100
1111111110101001
1100110
110111110
1001111
10100010
1111111001010011
1111111100001000
1010011
110101001
1010110110
100011101
10100010
1001101100
1011111100
1011110011
1110010
1111111111111111
1111111011000001
10110000
10101010
10110101
1001010
11
1111111101001111
1111111110001011
1111111101111111
1111111111110110
11100111
1111111111110100
10010100
111011111
1111111011110010
1111111110111001
1111111100110110
11011
11001100
100010100
11110001
110111101
11001110
10010
1001000010
110100101
1111111100001001
1111111000000111
1111111100100000
110111
11101101
1010001
10000010
1111111111110010
111
1010
1111111111111111
1111111110000011
11001
1111111011011110
1111111110001000
1111111101111110
1111111001111000
1111111111001110
11110000
1010111110
1010111011
10000010011
1011000011
111100000
1000010
1111111111101111
1010100100
1111111100001110
1111111001001001
1111110111100101
1111111010000101
100100101
1101101
111011100
101001
1000010
11000
10001011
1111111101100101
1111111011100100
1100011
1111111000110100
1111110110110110
1111111010010010
1111111100110101
1111111110000111
1111111111100100
1001000010
1010000110
1111010001
1010001011
111111000
1111111110011100
1111111010010010
1111111010000001
1111111100100000
1111111111000010
1111111010111011
1111110100101010
1111111101000111
1111111110001000
10100010
101111
1111111101111000
1111111101101000
100101
1111111101001101
1111111101000000
1011011
1111111000001101
1111110111001010
1111110101011100
1111111011000111
1111111110111111
100011
10100110
1111111111001000
1111111111101100
1111111111101100
1111111101001100
1111110110011001
1111110111101001
1111110100101010
1111110011111001
1111111001110000
1111110101110001
1111111001110110
1111110100110011
1111110110011010
1111100
101110
1111111101100100
1111111110000010
10101001
1111111111011001
1111111001111100
1111111111110000
1111111110100110
1111111011011000
1111110101100011
1111111011110101
1111111000000100
100010001
1000100100
11101101
1111111111100010
101110110
1111111011100011
1111110100110100
1111110110100101
1111111100010110
1111110010010010
1111110001010001
1111111000001001
1111111001011001
1111110111100011
1111110111011110
100100110
1111111100001100
1111111110110100
1111111111011001
1111110
1111111110001011
10011
11011000
1111111111000010
1111110110000001
1111110101101001
1111110100110110
1111111111111110
101001000
101110111
11100111
1111110
100101011
1111111011001011
110101
1111111011111010
1111110011000100
1111101111101011
1111110111101111
1111110011100010
1111111110101101
1111111101011110
1111111010010101
11101000
1100000
1111111111101100
1011011
100101100
10001000
101111111
1011011
1000011
1111111011011110
1111110011100011
1111110110001111
1111111101011011
1111111100101010
1111111101101111
1100100
11000100
1111111010000111
1111110001111001
1111111001111111
1111111001000111
1111111000110101
1111110000101001
1111111101000001
1111111010001011
1111111101100101
1111111111011101
1111111110011110
1111111111000011
10010100
100111111
11111000
100001100
110010010
100101100
1
100110110
1111111111101111
1111111000110010
1111110101111110
1111111100101110
10101
1111111111110101
1111110101011011
1111111111000010
1111110110100001
1111110110011010
1111111110011001
1111111101111110
1111111100101010
1000000
1111111100010110
1111111011101101
1111111001100110
1111111111110000
11001001
1111111010010010
110101011
110101100
11111111
10011001
110101001
111000000
10111010
11111110
1111111101101001
1111111100011100
1111111100110100
1111111010001000
11111110
1111111100111001
1111111011010000
1111111100010011
1111110100101011
1111110101110101
1111111001000001
10110100
1011010
1111111110000111
1111111110111000
1111111110010101
1111111011100001
1000101
100000110
1111111101111011
111101010
10011010
10011001
11110111
110101100
110111010
1010000
111110111
10010110
1111111100011011
1111111101011010
1111111011011101
111101001
101001011
1111111011000001
1111110111100111
1111110100111010
1111111001010001
111101
1000101001
11000100
1111111100100101
1111111010111100
1111111000110111
1111111000001001
1111111111101111
1111111111010100
1111111111000010
100101100
10000110
11110010
1100011
11110100
100011001
110100001
1001000101
1001001
1111111010001101
1111111111000100
1111111110101111
101010
1111111101100110
1111111100101010
1111111000111111
1111111010010000
1111111001000001
1000000010
10000100110
10101101
10001000
1111111010110011
1111111100000101
10
10000101
11110
1111111110100111
11100100
100010111
1110111
100010011
101010111
1000001
100101101
10000111
1011110
1111111001000001
110010011
1111111100110010
100101
1111111010001000
1111111011010000
1111111110110111
1111111010001000
1111111110011000
111000110
111000100
101011110
111001001
1111111101000010
1110000
1111111111110111
1111111100111000
1111111101111110
1111111011011111
1000001
11000101
1100110
11100110
10111011
100100
111111
1111111110001101
10100
1111111110001001
111010000
100011001
1111111100110010
1111110111000110
1111110101111000
1111111010010101
1111110111000010
1111111101011011
1011100101
1000111000
1000001010
1011100111
100011
110
1111111110110110
1111111111111100
1111111111110110
1111111110101000
1110011
1111111110111011
100110
1111111110000010
1111111011011001
1111111111110101
1111111110111100
1111111110000011
11100
1111111100000111
100011001
100111110
11110
1111111101110001
1111111001110101
1111111110110011
1111111111000111
1111111110010010
1000101111
1011001010
1000100010
111011101
10001111
10111010
1111111110001011
1111111101100010
1101011
1111111100110110
1111111001101010
1111111111010111
1111111011111011
1111111100110000
1111111011111110
0
11010
1111111011000000
1111111110001111
11001000
11000011
1111111101110101
110111
1111111110100111
1111111101000111
1111111011110011
1111111000110000
1111111101011110
100010010
110101100
1010000010
110000100
1111
101101001
101011
111010
1100110
1111111011011000
10100
1111111100110001
1111111010111100
1111110111011101
1111111110010100
1111111101110001
1111111010011111
1111111100001101
11010010
100010011
11110010
1111111110010110
1111111111000110
1111111010000001
1111110110100010
1111111100100100
1111111000011111
1111111100001001
1111111101100110
1111011
10101011
1101011
101001100
100110111
1111111111001101
1111111111011000
1110111
1111111101001011
111011
1111111101110110
1111111100010011
1111111011100110
1111111010100001
1111111001100000
1111111110010000
1111111101010000
1
10011100
1111111110010011
1111111001101110
1111111101100100
1111111011011000
1111111110100011
10010010
1111111100100101
1111111010110100
11101010
1111111001010011
1111111100000101
111110
1001000000
1110101
110110
1111111010100110
1111111000111011
1111111001010001
10111101
10101010
1111111011110010
1111111010110010
1111111101000111
1100001
101011000
1111111100000111
1111111101100110
1111111110110010
10011101
11010
111101
1111111110001100
111101011
11000010
1111111100110111
111011
10011000
1111110110010001
1111111101111010
1111111110100100
1000010
101100000
1111111011100100
1111111101011001
1111111001101111
1111110111111110
1111111110110010
1010010
1111111101001110
1111111100110110
1000
11011
101110110
11001110
110111110
111001010
111011101
110001000
11010010
110100101
11110000
1111111010110101
1111111001110000
10110101
1111111011101000
1111111001001011
1001000
1111110111110001
1111111101010001
1111111111011001
1111111101010101
1111111100010101
1111110011001000
1111110011001110
1111111111101000
10001101
1100100
11110110
110110010
111100010
10101010
110000101
111100110
1010001111
110000011
11011001
101101011
1101010010
110100010
1111111011000010
1111111100000101
11110
1111111101110100
1111111011111001
1111111100011000
1111111010100101
1100111
1111001
11101010
1111111011110110
1111111010010010
1111111100000000
1111111001100100
1111111010000001
1111111101101110
1100100
100011111
100010110
1111111101010010
10100010
111011010
111111000
1111111111011000
11000001
1001011
11101110
1111111101000010
1111110100110011
1111111011100110
1111111110000010
1000011
1111111110110000
1111110101010110
1111111101100111
1111111110010111
1000101
1111111110111011
1111111010000001
1111111011110111
1111111011100010
1111111000101111
1111111100100010
10001
10011000
1111111101101101
1110010
1111111100001111
1111111101110000
111001
11111011
11100001
100010000
1000000010
10011101
1111111001100101
1111110101011111
1111111001110111
10011011
110010101
1111111101001110
1111111010100000
1111111001111011
1111111011100010
10011111
1001111
1111111101100001
1111111101101000
1101101
