110001101
101001101
100011110
1111111111011001
1111111111111000
10111000
1111111110010010
1111111011101111
1111111010110110
1111110111111000
1111110101111010
1111110010111100
1111110000111000
1111110100101001
1111110101000010
1111111100000100
101011101
101001011
100110001
10010110
101000110
1110010
1111111011011011
1000010
100100001
1101111001
1111010101
10000010110
100011010
100
1111001
11100
101111
1111111111110010
1111111111101101
1111111100110100
1111110111010000
1111111001111000
1111111000000010
1111110000110010
1111110101111001
1111110011100011
1111110101101100
1111111101000010
10100000
1111111101100111
111110001
100001010
110100111
101001000
1111111111011100
1111111101010110
110101110
1111000110
1011110000
1101110110
1111111111000000
1111111110101001
10111011
10010010
1111111101101000
100101
11111111
1111111011111000
1111111100110011
1111111101100101
1111111001110110
1111110100111001
1111110101010010
1111110100101001
1111111001001101
1111111110000011
1111111110010110
1111111101010000
1111111111000110
100011000
100100000
1111111111101001
1111111101001010
10101111
1000010000
1000010010
1001010001
1100001010
101111
1111111101000000
1001
1001101
1111111110101100
1111111100011101
1001001001
1111111101111010
1111111111010000
110000110
1111111110101101
1111110111110111
1111111010001100
1111110011100011
1111110000101110
1111111111101100
1111111001111111
1111111110101111
111010010
11000101
10011110
1111111100111100
1111111011011000
1011001
10110110
110000001
110000101
101101000
1111111101111001
1111111101101101
11010
110010
1111111011100000
1111111011011011
110010000
1111111100100010
100111
111011101
101110
1111111101100111
10010110
1111110010011011
1111110010110010
1111111101000010
1111111111000001
101000110
110011100
1000001001
1111111
1111111101001100
1111111000100100
1111111011011100
1000011
110100101
10110101
10010101
1111111111101010
1010
1111111111100111
1100110
1111111110000010
1111111010111011
111010001
1111111010011110
1010010
110011001
110001
1111111110001010
1111111100000110
1111110111011011
1111111000111001
1111111101101010
10010
101000
1111111001110011
10001011
10000100
1111111101110001
1111110100101000
1111111001000011
1111111100001101
1100001
100001011
1111110
1111111100010101
1111111101101100
1111111110110001
1111111111111110
1010010
1111111001111011
1000011010
1101001
1011101
101010101
1111111110010010
1111111111100010
10101000
1111110111110011
1111111000110011
1111111110111111
1111111010110001
1111111100111101
1111110100001010
1111111110001000
1111111110111000
1111111011001010
1111111100101010
1111110100010110
1111110010110111
1111111101001100
1111111111010101
1111111110001111
1111111101110111
1111111101100010
1111111011101101
1111111110100001
101
1111111010101101
100110100
1001001111
101100
111010111
1111111110011110
110011
1001010010
111110010
11001101
10110000
1111111001111000
1111111000110100
1111111011100100
1001100011
11011000
1111110111101000
1111111110011111
1111110100111101
1111101101110001
1111111111110011
1111111111100010
1111111101100111
1111111110001011
1111111101010011
1111111101101110
1111101
1111111111001001
1111111101001001
11000100
110110000
1100111
110101110
10011011
101111001
1101011010
1100110001
101100001
11
1111111110011000
1111111001111010
1111111100010001
10111010
1111111101001011
1111110100001011
10001111
1111111000111010
1111101100000101
1111110111110011
11101
1110111
1111111101100001
1111111011011101
1111111110101011
111101
1111111110011100
1111111111111000
1101
100000110
110101101
11110101
100001110
100000011
1001111010
11110010
1101110
10001
1111110001011011
1111110001110001
1111111010111001
1111111000111010
1111110110000111
1111111011000010
110011
10100001
1111110100011100
1111101101000000
1111111001100000
111100
1111111110001011
1111111011101100
1111111100011111
1111111101110111
1111111110001101
11011101
1111111111110010
100101010
101100100
10000001
11001000
1010101000
11111001
1111111100110110
1100100
1111111000100110
1111110000000011
1111101110011110
1111111010110000
10010101
1111111001011011
1111110110010100
111111100
100001001
1111111000100111
1111101110010001
1111110101111011
1111111111111111
1111111111110111
1111111011111110
1111111110111110
1111111101011010
1111111101110100
110100101
1111111011011010
1111111111110111
100010100
1111111111001110
101011011
11011111
100010110
1111111101100000
1111111011111011
1111110010100101
1111100111010111
1111101111100000
1111111100011010
10110000
1111111010011100
1111111010000111
1110001100
100110000
1111111000100010
1111110010111100
1111110111010100
11111
1111111110010110
1111111101110011
1111111110100010
1111111111010011
1111111111010001
11101101
1111111100010111
1111111101000101
1111111111100000
1111111111110011
11101101
1111111111001001
1111010
1101000
1111110101000101
1111110111111010
1111101100001011
1111110100111001
1111111110110111
1111110101010000
1111101110001101
100111000
10010011110
100101
1111111000001111
1111110000111110
1111111111000010
1111111110001101
100010
1111111011101000
1111111111110011
1111111011011010
10111101
1110
1111111111110100
1111111111000011
1111111100110111
100100100
1001100100
110011110
1111111011001111
1111111011100001
1111111000101100
1111111101100010
1111111001011001
1111111110011010
10100011
1111110110001111
1111101000001111
10101011
110000101
1111111100111000
1111111101111100
1111111000111010
1101111
1111111110010100
1111111100101000
1111111100000110
1111111101011101
1111111001001001
10001111
1110001
11010100
1100001
1010101
11111011
1010000101
1011100111
1111111010011010
1111101011010000
1111111001100101
1111111111100000
1111111011000000
1111111111111001
110110101
1001
1111110111101110
1111111011111001
1111111011110011
1011
1111111100100111
1111111110011110
101101011
1111111110000000
1111111101011110
1111111100010101
1111111111101001
1111111011001010
1111111111111001
100001011
10011111
100001011
11110001
101111110
111101000
1100101000
1000100110
1111111111111001
1100011
1111110111010000
11110110
1010100100
1010011111
1100000110
1101000
1111101111100100
1111111011001011
11111101
11011100
101100001
10011110
1111111111111011
1111111011001000
1111111100101000
1111111100110100
1111111100010011
1111111111011100
1111111100100100
11010111
101101000
10001011
1111111111011011
1111111010
10100001111
1100101001
101101110
1111111110110010
1001000
101011101
111111010
1110111
111011101
1111111011110001
1111110011110110
1111111011010101
11111001
1011111100
10101
110010111
1111111011100110
1111111100100101
1111111101110010
1111111100111000
1111111111101000
1111110
1111111101010101
1111111111000000
101100101
1111111111010001
1111111111000100
1011101111
1111110110
100001100
1000011111
101111001
110110
1111111011011010
1111111100011010
1111111100001001
1111111101000000
1111110001000000
1111111111100110
1111111010001011
110101
11100110
1110110
100010000
1111111110110010
1111111000010101
1111111101011100
1111111111001110
1111111101001001
1111111011110100
1111111100101100
1111111101001101
1111111110101101
100011
100111011
1010000001
1000101010
1110
1100001101
111010010
1011011
1011
1111111011010110
1111110011000110
1111110101110111
1111110101111010
1111111101100110
1111111010011011
1111111101011111
100111011
1000110101
11011011
1111111111011001
1111111010100001
1111111000110001
1111111101110100
1111111010011001
1111111100001001
1111111100110011
1111111011010111
1111111111001101
100001101
100010010
110110100
11011011
10011000
10011000100
1111111101
1001101000
1010110100
101001001
1111111011111011
1111110101111100
1111111110101001
1101100
1111110111001101
10110100
1111100001
11101001
1111111101101011
10111011
1111111000100111
1111111011110011
1000
1111111110100011
1111111100001110
1
1111111100010010
110010
11110001
11011001
1111111111001101
1111111010110100
10101000
10100010100
1111100101
111000001
1110100010
110101001
100000111
1111111101001000
1111111111110101
11000010
1111111011111100
1111011100
1000111000
100101110
1010100
1101001
1111111101010100
1111111101010100
11101
1111111111011000
1111111101111010
1111111111100110
1011011
1111111111000010
10110111
110000111
11000
1111111101011101
1111111011100100
1001100011
1011000001
1000101110
1110100001
1001011100
111101001
11100011
100101001
100100010
10111111
1100100000
111011000
110110101
1110
1111111111011100
1111111100101110
111011
11111111
10100100
1111111111000011
1111111110001100
1111111101111001
100011101
10101001
100000101
1111111110001001
1111111101110110
10110100
1000100111
1100110110
11111101
1110001000
1001000100
1111111110101011
100
1011101100
10100100
1101101010
1010011000
110110010
1110001
1111111011110001
1111111111100000
1111111101000101
1010
11101101
11010101
1111111111111111
101000100
1111111111010011
1111111101100011
100011011
1111111111011111
1111111111110001
10
100101110
1101011110
1100000110
11011010
1100101100
1011011111
1110111
1011110100
1000001110
1001111111
1000100100
1111111111100001
1111111111001011
1111111110111010
1101
1111111111110010
1111111100111100
10101000
10100011
10000011
100000010
1111111111110001
1111111010111010
1111111010101000
10000001
1111111001101111
1111111010000011
1001110
11100101
101011001
1001110
101001111
1010101110
110000110
1111000
111101100
11011
1011001110
1111111010110010
1111111000111000
1111111111101000
11001011
1111111110110111
1111111101101011
1111111110101000
1011111
1111111101101000
100011100
111011101
110100
1111110110111001
1111111001011011
1111111111010011
1111111000011110
1111111001111000
10111111
1111111110010111
1111111100101111
1111111010111111
1111111110101010
10110100
1111111010000111
100101010
1111111001100111
1111111111001100
111011
1111111001111000
1111111011001001
1111111001101100
1001000
1111111110111011
111101
11001101
1111111100110011
1111111101101010
110110111
10010011
100100111
1111111010111101
10010
1111111011011111
1111111010101111
1111111111000111
11010001
1111111111010111
1000
1111111101001000
1111111111011001
1111111010001001
1111111010100100
1111111100000000
1111111000100010
11110000
1100010
1111111111001111
10110010
110000
110000001
1111111111100011
1111111011100110
101100
1111111111010101
101110001
111010101
100000101
10100101
1111111010110111
1111111110101000
0
1111111101111111
100001111
110111011
1001101110
110101010
1011010
10110000
1111110011111001
1111110111010111
1111110110011101
1111110111111100
10000101
1111010
1110011
101100001
10110011
1011110
1111111100001110
1111111001000000
