1101010
1111111100001001
1111111101011111
1111111101100101
1111111101101000
1111111100100100
100101
1111111110010001
1111111001010001
1111111000101011
1111111011111111
1111111111010111
1111111100111000
1111111110011010
10001101
1111110100111010
1111110111010111
1111111011110000
1111111110110010
1001111000
1100110000
111100111
110110001
1111010
1111111011000010
1111111010001100
1111110111011001
1111110010111101
10100100
1111111011101100
111011
1111111110110100
1111111101011011
1111111111110001
11
111001
1111111001010000
1111110111000010
1111111000111110
1111111101001011
1111111010110101
1011010
11111100
1111111010011000
1111110111000000
1010001
10111001
1000011011
1100111101
101100101
111011000
11111100
1111111011111000
1111111001001000
1111111000110010
1111110111111110
1011011
1111111111001111
1101
1111111101111000
1111111111101001
1111111101110000
1111111010100011
111001
1111111001000000
1111110100011110
1111111000000000
1111111100101100
1111111101100111
1111111100110110
10001110
1111111001100010
1111110110001010
1111111100011110
111011100
101110001
1001010010
101111011
111111100
100011000
1111111100101011
1111111101011110
1111111100101011
1111111010011001
1111
11011
1110001
1111111101000110
1000001
1110000
1111110111100110
1111111011001011
1111111010100100
1111101101100101
1111110010011001
11100
1111111100111110
10100000
10101001
1111111000000010
1111110111100111
1111111001100100
11000
101011001
110111001
100100100
10001001
101001000
1111111111110001
1011110
10100000
1111111101110000
1100000
111111
1001011
11010
10101101
1110110
1111110101101001
1111111011011000
1111111100000110
1111101110011100
1111101110001111
1111111110000001
11110
1101001
1111
1111111001101010
1111111000101110
1111110011100101
1111110100101011
1111111000111011
1000110
101000111
110111100
100010010
11110100
1100110
10101010
10001110
11011100
1111111110001111
1010110
1111111101111101
1111011
11000010
1111111001001110
1111111010010001
1111111011000000
1111101110001001
1111110011000110
111110
1111111111010001
1111111101100000
1111111101111010
1111111100101011
1111111011110111
1111110101001001
1111111111001100
1111111101101110
1111111000100110
100100000
100000111
1011
1000110111
10011100
1011011
101111110
111101
1111111111001000
10001111
110011
100110
10001001
1111111010000101
1111110111101101
1111111001001100
1111110001111110
1111111011001110
1111111101001111
1111111101000111
1111111101101111
1111111000010010
1111111011110011
1001100
1111111100101100
101000011
11001010
1111111010011110
11101101
1111111100000111
111
1100000111
11011000
100010101
110010010
1001010
100
11100111
1111111101110100
1011101
1010100
1111111101000010
1111111000000001
1111110111010100
1111110110011011
1000111
1111110010111001
1111110011100001
1111110100111110
1111110111111001
1111111101100010
1000101011
110101000
101010110
1111111001110011
1111110010111000
1000010
1111111011000010
1111111100110110
1010111111
10010011
101000000
10100100
1111111110111100
100111111
10001000
1111111110001001
11100010
100010010
1111111111001011
1111111101011001
1111111011011001
1111111000001000
1111111010111011
1111110010000101
1111111000110011
1111110001001101
1111110111011110
111100
101011010
10100000
101011100
1111111011101000
1111111000101101
100110101
1111111000001100
111000
1110010000
110010000
111000
1110110
1111111100010100
11100101
1111111111001001
1111111110010010
10110000
100101
1111111101110011
1111111110010000
1111111110100001
1111111011010110
1111111001010101
1111111000011001
110
1111111010111000
1111111100011010
1111111111100001
1010000110
111001100
1110001
1111111111000011
1111111110011111
1111111110111000
1111111101110010
1111111101011001
1001110111
1101010001
1000101111
101000
1111111011011011
100010111
1000011
1111111110111001
100011001
1111111101111011
1111111100011000
1111111001010101
1111111111100000
101101001
1000001
1111111111110010
1000101111
11000110
1111111001000110
101010
1000011000
1111111100110101
1111111100101110
1111110101101111
1111110111100100
1111111010010010
1111111100110110
1111111100110001
100010100
1010111101
1000110101
10110111
1111111011000111
1110111
111000
10101011
10111001
1111111100110111
1111111110010011
1111110101111001
1111111111011100
1001101001
111001011
1000011101
1000000110
1010101011
1111111110100011
1100100100
11000000
1111110111110111
1111110001001000
1111110001110111
1111111110100100
1111111000011011
1111110010100010
1111111111111011
11011100
1000100010
101100010
1111111110100110
1111111101101011
1100010
1111111101110110
10000000
1111111111100000
1111111010111101
1111111101110010
1111111100000011
11110011
1001001100
111001100
1000010111
1000011101
110
10100010
111001101
1111111100101101
1111111010101110
1111101111001101
1111111111010010
1010100101
1111111100000100
1111110110110111
1111111110110110
1010010
110011101
10100000
1111111111010010
1111111011100000
1111111101001100
1111111110010110
1111111111001010
1111111100001110
1111111100110000
1111111111011001
1111111010101001
111100
100110000
1111111110000011
110011101
1010011100
10000100
11100000
11010001
1111111111110110
1111110010111111
1111110001101011
1000000
1000110001
1111110111010100
1111111000010111
1111111111000001
1111111010011010
1100
1111111100100101
100111
1111111101110001
1001011
1111111110000001
11001110
1111111101001110
1111111111000101
1111111111011010
100000
1111111110110000
11100
101010011
10011111
11000100
10001000111
1011111111
100101011
100111111
1111111110000000
1111110111011100
1111111000011100
1111111111001001
1111111111010000
1111111111011010
1111111110110011
1111110111010000
1111111101000010
1111111000101100
1111111100000010
1111111111000010
1111111101001110
1111111101010000
1111111111111001
1111111100101001
1111111111010010
1111111100100011
1111111110010001
1111111111101010
111011111
101011111
1111111111110011
1111111111101011
1111111110111011
1100100101
1101100010
10010001
0
1111111000001010
1111110000010000
1111110100100101
10001111
11110100
1111111011111011
1111111000011111
1111111010010110
1111111001111101
1111111100100010
10011101
1111111100011001
1111111101011110
1111111101110000
1111111110010111
10010111
1111111101111100
1111111011001000
10101010
1000011011
1111111111111100
1111111011111100
11010
1111111100010111
101111100
100101110
11011000
10000010
1111111110110110
1111101111101110
1111110000100000
1110000
11000111
1111111010100001
1111111000001011
1010001
1111111110101110
11011
1111111111110001
1111111110110101
1111111111100010
1111111101110010
1111111010110100
110110
1111111101001110
111000
110100010
1100011110
11000000
1000001
11101111
1110001
1100011
110100001
1001010000
110110110
10011000
1111111000000111
1111111100010101
1111111010000011
110110010
1111111000111010
1111111101100100
1110101
1111111111100111
100111000
11110011
1111111111010111
1100101
1000100
1111111110110001
1111111111001011
1100100
11100011
100101000
111100011
11001101
10101000
100110
101111110
110100111
110010000
1000010011
1001010010
1101101100
1010001010
11110100
1111111101000101
111011
100000010
110010100
1111111011100010
1111111110001011
1111111101011110
100110101
1001110
11001000
100010100
1101000
10111010
1000010010
110100111
100001100
111010010
11001110
1100110
1111111110000010
1111111001000111
1111111110000010
10110
1111111110001101
1001100011
1001111010
1100001110
111100101
11000111
1111111111101001
1110000
1111111011111010
1111110110100110
1111111010101000
1111111001010000
1100011
11
100001100
10110000
11111011
1111
101110101
111110101
100100101
101101000
101001101
11011001
1111111010010010
1111110101110011
1111111100001010
101011
11100111
10001010111
1110000001
1010100011
1010001011
11101101
1111111011101001
1111111001111001
1111110100000010
1111110100000001
1111111001110110
1111111100100010
10110000
10000111
10110011
10010000
1111111111111011
1111111111000111
1111111111000001
101001001
101000010
100101000
110000100
1001000011
101010011
1111111100100011
11101010
11000001
1100111111
10000101001
1101010101
1101000100
10101000
1111111011001110
1111110111101110
1111110011000000
1111110011110110
1111110101011010
1111111100100011
1111111110110110
101001001
11000111
10001000
1111111101100010
1001110
1111111101111011
10110001
111110111
110110001
10010000
10110000
110011101
1111111101100011
1110110
100110001
1100100010
1100010101
1111010100
10001010101
1001011101
1111111011011110
1111110101010101
1111110100000000
1111110010110000
1111111000101110
1111111011010000
1110001
1111111110011100
11010001
1111111111011101
1111111100101010
1111111101110001
10
1000111
1111111111110101
101000001
100011011
101110101
101011101
110001010
1111111110001110
1001101
11101101
1101010001
1000110100
1010101010
110011101
1111111101110111
1111111011101100
1111111001010001
1111110111010001
1111111010000000
1111111100000001
1111111011111100
1111111100001001
1111111011101011
100000000
1111111101101111
1111111101111010
1111111110100011
1111111010100000
111101
11000000
1001111011
110101101
111000001
1010100010
111001001
110110110
110010010
1011000100
1010111011
11011111
11011
1111111101010010
1100010
1001111
1111111100011000
10101001
1111111111100011
1111111111100010
1111111110101011
110111
1110001
1111111010011000
1111111001110010
1111111111111100
1111110101000000
1111110101101011
1111111100100100
1000000
1010001001
100010101
1000101110
1111100110
1001001010
1000001011
1001101011
111010011
101000001
101100001
1111111111000001
1111111011000110
1111111101100110
1111111110011101
1111111110000001
1111111100011001
1111111010101011
10100
111001
1111111100001111
1111111111110010
1111111111100111
1111111110111101
1111111101000001
1111110101001110
1111110101011100
1111111101000001
111101111
110000101
100001100
101010110
110110000
100000100
10100110
10111100
10011111
1111111110010101
1111111010111110
1111111001010101
1111110000011110
1111111011011001
1111111010110101
1111110110100001
1111110011010011
1111111100100111
1111111100010100
1111111011111011
1111111001011110
1111111010000010
1111111101111000
1111111101001001
1111111000011111
1111111000101000
1111110111111000
1111111110110110
100101100
11000
10111101
11110111
1000111
1111111101001110
1111110100001010
1111111000000010
1111110101010101
1111110000000011
1111110101100111
1111110100010110
1111101011011010
1111111111000001
1111111001101010
1111110111010000
1011010
1111111001001011
1111111000011111
1010101
1111010
1111111001001111
