1111101001100000
1111111111001100
1010011000
1111111010101011
100010111
1010001
1111111110110110
1111110100110110
1000011111
1100011100
100011101
101111110
101001000
1011000
1111011
11111101
1111111100111011
1111111010101111
101111111
100001011
1001111010
111111100
1000100011
1111110100001101
1111111000100110
100110111
1111111111110110
1111111011000001
111101001
11100100
110110010
1111110101011111
1111111101111010
1000010001
1111110011101100
1110111
10110010010
111110001
1001011001
1001100
1111111
1010101110
1111111100111010
110101001
1111110110010000
1111111011011111
1111111101001111
110000100
1111111000100110
111010011
1001011010
1111111111110010
100111001
111011101
11101001
11001001
11010100
1111110101101100
1111111011110011
10000111
1111111010110101
110011101
1010000011
1111111101100111
11101100
100110100
100001111
1111111110001000
1111111010010001
1111110111111110
1111111111100101
1011110
1111110110000010
1111110110110000
1111111100011111
1111110110101011
1010010001
1111111100100011
100001000
1110001010
1111110001110101
100110101
1111111110001101
111010110
1001101110
101101000
1111110110010000
1000001100
1000001001
1111111100001101
10001
1111101000111011
10110001
1111110011001001
101011
1111110111101010
1111111110001100
1111111001111011
101000000
1111111111100010
11100101
110001010
1001011011
101000
101110110
1110001
1111111010111111
111100111
1111111010010100
1101001000
101010011
10000000100
1111111111010110
1001011
1101000001
1101111000
1111101011001001
1100111000
1111111101101100
1111111100001001
11100010
1001000
11000101111
1111111100001110
1111110111110101
1001011
11011111
100010001
