1111111010000110
10001100010
1111111100101111
1111110011001100
1111111001001001
10001001
110111001
1111110110101010
1010011
1111111000100100
1111111010001010
1111111011010100
10000
1111111010101100
1111111101110001
101001100
10011000
1111110001111110
1111111010100000
100010101
10100101011
1000101000
1111111111011101
1111111110111101
1111110000101010
110100110
1101010
1111111101001001
101010010
10001001111
10000110001
101111000
1111111101101011
1100000000
11011101
1111111000101110
1001000100
110
1010110011
1111111011001111
1111
110000001
1000111111
1001111111
1101010010
1100010110
1111111000010011
1011100001
1111101010001110
100011
101000111
1111111011011011
1000010111
1111111100111111
1111110100010100
110110
1111111111011100
1111111111001110
1111111000001110
10110110
1111111100011100
100101000
10000110
1111110110100111
101011010
1011001001
1000000100
1111110101010000
1111111001111000
1111110111001101
1111101110
1111110101100000
111100000
1111111100011101
1111101101001011
1111111010000001
1000110001
11111000
101000100
1111111111111000
1111110001010101
100101010
1111111010000011
11110011
1111111111001000
1011011001
1111111100111101
110100110
1111110101101000
1111111011011011
111000101
1111100111111111
1111110110010000
1111110001000111
10110000
1111111000011111
1111110011110110
1111111000100011
11000011
1111111001011001
1010110001
101001100
1000100111
11101010
1011001001
1111111101010101
1111111110010101
11110101
1111101100001110
1111111110100010
1010001010
10111010
100100011
1101110010
1101010011
1010
1111011
100010
100011110
1111110011000110
1111111111010010
1111101
11100100001
1001001000
1111111010000100
1111111111000010
10001001011
1010100001
