1111111010101010
1111101000000001
1110111
100010100
1111111010111000
1010100100
1111111101011110
111111000
1111110010101110
1111110011110100
1111111010000100
1111111100110111
1110000001
10011111
101111101
1111111100011110
1111111011000001
1001000000
1111111111010011
1111111101001011
10011111111
1111110111110011
1011000111
11001011
1011100111
11010110
1111110111011000
110100101
111111110
1111100011010001
1111111110000011
1000101001
100011100
1111110111000010
1010000
1100101
11001
1111110011110101
1000100110
1111111011001111
1111110111110011
10111000
1111111000111001
10110100100
1111111001110001
1111111011010110
1111111010011010
1111110111000000
100010011
1111111101100101
1111111010111001
1011111101
10110
10001011000
1000110111
1111110010000000
1111110100000100
1111110100011110
1011101110
111101011
111110010
1111111000101001
1111111000101010
1111111101110100
10111010
1111111100111111
1111110110011001
10100100001
1001000101
10101000
1111111010011011
1111110111001111
1111111000111100
1011011111
10011110
110100101
101011011
1111111010110111
10001100
1111111000001100
1010100110
1111110111101100
1111110100100111
1111000100
1111110101100111
1111111100011001
11110011
1111111101011000
1111110011100010
101000110
1111110001010100
10010110010
1011000011
110011011
110001110
1111111101100011
10101011001
1001011000
1011100011
110100110
1111110000011100
100110000
1111111110110110
1111110010001001
1111110111110100
1111110001110101
1100110111
1010111
101000111
1111111000101110
1100100000
1111110110011101
111010110
1111110110111000
1111111100110000
1111111100101101
10101101
1111110010101100
1111110101010000
1001011100
1111110011100000
1010011111
100000000
1111111001100011
110101000
1001001
1111111100110110
1111000011
