111110101
11101010001
1111101010100010
1111111111110000
11010100110
1111101000101010
100101011
1111111101010100
111101111
1111101001011010
1111110101010111
1111110100
101100111
101111011
1111111010000000
10111011
1111110
1111110000011001
1111111111100101
1001010
1111110111101100
110000001
1011111
1111111010001111
1111110100010101
101011101
1111110101111111
1111111101100101
1111111000000011
101000100001
1111110001010111
1111110100111001
1111101110000010
10101000
1111111100010000
1000110101
10000101100
1011101101
1111110010011110
10100011100
1111111100111001
1111111011011011
110011011
1111110010000000
1010111111
1111101111111110
1111111110100111
10110111
1101001010
1000101011
10111100
1111111000001001
111110101
1000000001
1111111111000011
1010010010
1111111010000001
1111
1111100110001011
1111101111100011
10000100
10111011000
10100111011
1111111100100000
1111111110010010
11011100
100001100
1111111111101000
100100111
1111111011000101
1111111010100101
1111111011001011
1111111101011110
100001110
1001011000
10111001
1111111100100000
1111110101110011
1111111010100111
1111101101011100
1111101100011001
1111111111010101
1010011
1111111001100001
1111011111
110000011
1111110110010011
10001101111
10100110
11010100
10001011
1111100111111100
1111111110000100
1111111010001001
1111111010001101
1111110100011110
10110101
1111110101000000
1010000110
10000011
1111110100110001
1111110100010010
1111110000111001
1011101010
1111110111101100
1111111110010101
100100
1111111111111000
1111111110111100
10100011111
1111111100110101
1111101001001100
1111111100101011
1000000001
1111111110100011
1111110101001101
1111111100110010
1111101000110111
101000001
110101111
10100101011
1001011000
101100001
1111110110101000
1000000001
1000110011
10000001110
1111110010101110
