11000111011
10001100100
1101110
1000000
100110011
1111101101001100
10111101
10011100
110100010
1000000101
111110011
1111111010110100
1111110011001011
100010101
1111111110100001
1111111101101101
1000000110
101000010
1010001100
1111111111000101
1111100001000100
110000101
1111111100100100
1010110011
1101001111
1111100111001000
101011111
1001111011
1111111000111111
10001111010
1111111111000111
10010001
110111100
11110
1111111011110100
1111111111010101
1111110010100111
0
1111101011110000
111110000
1111111111100100
10101101
111101
1111100100101000
111010010
10100001
1101011011
1000101000
1111110100001010
1111111000111101
111010110
1111110101000010
1111111111001010
1111110000101101
1111111110111011
10111011
10100000
10101110000
1111110101101100
1111110100101011
1111111001101001
1111111110101011
1111111000100000
1111000111
100010
101010000
11101100
1111011010111111
1111111100001011
110111
11000000
1100011101
10001100011
11100011
10001110
1111111110010100
1111111101010110
1111101011
1111111110110100
111111101
1101001011
110000101
1001011101
1111101100001101
10111010
100111
1101100110
100010001
1000000101
1111110111001101
100011
10010001010
1111111100001011
1110011100
1111111111101000
1001011000
1111100110000011
1111111111001001
1111101100100010
110000000
1100110011
1111111010111001
1111111110000000
101011000
101000010
1110100011
1111111011100000
1111110010000010
1001011000
10011011
1111101111000010
111000011
1111101111111101
101011110
10010100
111110011
11110110
1010010100
1000011
1111101000001101
101011101
1111111110101010
1111101010000110
1110101101
1111111111101101
1111110101001100
1111111110100111
1111111010000010
