1111100111110010
1111110010110010
1011111010
1111110110010011
1111101101011010
10001011011
101111010
1111111101010010
1111111010110010
10001011010
1110111
1111111011000010
1010010
1111110100000110
1111111101111101
1000101001
1111111000011101
1111111010000001
110011110
10001001000
10011000100
1000101011
1010011110
1111111101000001
1111110111100100
10000
111011100
100010001
110001101
1111011110101011
10000100100
1111111001000010
1010100
1000111100
1111110011011111
1111111101000000
1101000000
1111110001101100
1101001101
1111111001101111
10000110011
10100110111
1111111000001100
10001000010
1111101011000001
1010001010
1111110100001000
101001111
1111110001010010
1011010111
1011001
10011011
1010111
1111111111111111
101101
1111110111101001
1111111101111000
1111101011101000
1011010110
111001111
1111110111001101
1111111001110011
1010011
1111110111010000
11100111
101111100
1
1111111011001101
1111110011101110
1111111011010101
1011101001
1111110110111101
1001
1111111010010101
1111110010010010
1111101110000100
1111001101
1111101
110011000
10010001101
1111110110100000
10101011
1111111111001010
1110101101
1111110101000010
1101100101
1111111010100111
1111111001000010
1111111110001010
1111110101111011
1010111
1111101001100001
1111110101100111
1111101110011011
1000111101
1111110011110100
1111110111001110
101010010
1111111000001101
1111111000101100
111111101
101101111
10100011111
1111110101110010
11110111
1111111110000101
1000000100
1111111011000011
1111110010101010
1111111000001011
11010110
10100011010
100011100
1111111111101100
1110001110
1011111101
1111110010111001
100010100
100110011
1111110101101010
1111111100000011
1111111011101001
100000011000
1111111100110010
1111111101000110
1111111110110010
1111110111010011
1000011110
