1111111001100000
1111110100011001
11010011
1110000111
1010101000
1111111001011001
1111111010000111
10
11001100
1111101101000000
1111110100110001
1111100101
1100001
1110
1111111000111111
1111111000011110
1111110110000110
10001101
110000
1111110101011010
1111111010000011
1111110110011110
10100111100
1111111101110000
1101100011
1111111100111001
1111110110001000
100101101
1111111011100100
1111100010000101
1111101011011011
1111111100000011
10111100
1111110011001000
1111110011000001
1000000010
110001011
100110101
1011011
110001111
1111111101000101
1111110101110111
1111110111101110
11001001
1111101101111100
1111101100110100
1111111100101010
1111110100101011
10000110010
1111111010110100
1111111100001111
10000111
10010111101
10111101001
100111101
1111111000010011
1111110111000011
1111111111001001
110001100
10110
10111
1001000110
111101100
1111110111110101
100001000
1111111001100100
1111111010110110
111110001
111111001
1111111111001101
1111110111011000
1111111001000110
1111110111100011
1000111000
1100111110
11011011
1111110010010100
1111111010110010
1111111111101011
1111110100100001
1111111110101011
1111111001000111
1111111101000110
111011101
100010110
1010111
1000110010
10110001
1111111101111011
100101101
1111111001111010
1111111000110010
1000011110
110000010
1111111000101010
1111111001010001
1011000000
1111111110110001
1000110101
1011110110
1111111110101101
1111111100100101
1111111010101100
1111111000010111
1111101110110010
1111111010010101
100010
110100101
1001000001
1111111111010011
10000100
1111110101010100
1010000
1111111001101100
1111110000000011
1111111111000001
1111110000101111
1111111001100001
1111110111001100
1001010101
1111111110101101
1001
1111111001110101
1111110011001011
1000011101
101000010
1111110000111100
1111110101011011
