11010011100
101011
1111110100110101
1111101101110010
1111110111010010
1111110010011111
10110110100
1111101000111010
1010010
1111100100101010
10001101111
1111111
11010000
1111101001100001
111011110
1111110110001001
1111110011111010
11010101001
111101110
10010111100
1111111111001011
1111111101111100
1111111100000001
1111110101001100
1111110111011011
1111011100001100
1111100101011000
10010101111
1111100110001111
101010100
1111101001100101
111111110
11000100110
111110001
1111110000110110
10011110110
100001101010
1111111110011011
100001000010
1111101110011001
1111011000
1111111001100000
101100101
1011011100
1111110110111100
1101001
1001001011
1111110111110101
1001001010
110111011
1111110010001000
1010011100
1111110010110110
1111111110000110
1111101101111011
1111111111101110
1011101110
1111011011
1111110010111100
1111110001100110
1111110110011001
1111100110100010
1111011111000001
1111110011101111
