1101000100
101101011101
1111011110111000
10101100100
1111011010011101
1111100001011001
1001110
1111111011000100
1111110011101000
1111101011001111
101010
11000
1111111111100011
1011
1111110111101010
1111110001000011
100111
1111101100001011
1111110011000100
1111110011111011
1111101111101100
1111101011001101
10010000
1111011111110100
10100110010
11110001
1000
111100100
1111111001111110
1111010010
10100001111
1111111111001001
1001001
111110100
10001001001
1111111001100001
100010001
101010011
111000010
1001011000
1111111101011000
1111110001111111
111011001
100010011010
100101001010
1111101111101000
1111110101111001
1111111101000011
1111110111110111
1111101001000010
1111101000100001
111100100
1111101011111000
1101000100
1111101111111110
1111111010101000
1011111000
10000011101
1111101111011011
11101111100
10000010
1111110010010100
1100001010
1111110010011000
