1101001101
101011000010
1111110110000011
1111111001
0
1111101011010011
1111110001100010
1111110000110111
1010111100
1111110110001101
10000101100
100101111
11110100000
1010100010
10000000001
1111111011000111
10101000
111101110
111100111
1111111011011010
1111111001
1111111100010101
1111100000
1111110001001010
11100111110
1111111001000111
111001
10000111001
1101101
1111110000100000
11000100100
1100010001
1100100
11000001000
10000101110
1111111100100010
10011001000
11111011101
1011001010
1111111110100010
1111110011000100
1111111111110011
10010100010
11001100001
10011111001
1111110111110010
1001111001
100100111110
1111111100110101
1111101111111001
1111111101111111
11100010110
1111101110100000
11001101011
1111110111110010
1000001101
10011110101
10110010011
1111110111000101
11110001110
1111011110011110
11000100
101000111011
10110101
