100111001
100011100
10001111000
10100011
1111111001000101
11101010101
101110000
1011111010
1111011101110000
1111111000110110
10100
111010010001
1111110000000000
100000101
1111100011110001
111100
1111111110101111
1100100100
1111100000101100
1111111011010000
1111101001001000
11100000101
1111010110100111
1111111000101110
1010001111
110110
1000010100
1111111010011101
10011111
100110111111
1111111100010110
1111011001100110
1111100111001011
1111100011101101
10101011110
1111111110100011
100100000010
1111111011110000
1111100111110010
1100110
1111110100100000
100111
1111110011111110
11100000010
1111100100100100
1111111000001000
1111110100110001
1111111100100100
11001101011
1010011110
1101111101
1111011100111001
1000000101
1111011110101010
10111010101
1111110010110111
1111110110111001
1111110000101100
1000100000
1010101
1000010000
1111111111101011
1111101000010010
1111101111111000
