1111101000110101
1111011000100110
1111110011111111
1111100101111101
101111011101
10001101110
1111101100000000
1111111111101111
1111101111010000
11010011011
1111111010011011
1111101000011100
1111101111001010
1111111001110011
1111100101010001
100010101010
110011111100
1111101110000011
1110110101
1111100110111000
110001100111
1111101100011111
1111011111101011
100011100
100011101000
1111111100101100
1111110000100110
101000101100
1111110001111111
101011110101
10010111010
111011111000
