1111111100100100
1111111001111000
1111111100100101
1111111011011000
1111111011101000
1111111111100101
101101010
10011101
10111
1010000
1111111111011010
111000000
111111110
1100011000
1011101011
1010101000
10110010
11100010
100010000
10110
1111111111000010
1111111101011111
1111111111011011
1111111100001011
1111111110001010
1110001
100011110
1111111100000011
1111111011101000
1111111010001011
1111111100101111
1111111101110001
1111111111110000
1111111110010000
111000
1111111111111001
1111111100111001
1111111111110001
10111101
11100011
110101010
1001101010
1010010101
111011001
10000011
1111111110111110
1011010
1111111111001110
1111111111011111
1110111
10101011
1111111101111100
111
1111111111111011
1111111111101111
11100
1111111101100010
1111111100111001
1111111100001101
1111111110010001
111000
110001
1111111110011000
1111111111001011
1111111011111010
1111111011101000
111000
100001110
11011
100101100
100001101
11100001
1111111000010111
11
1111111110010000
11010
1111111101011101
1111111111001011
10111
1111111111101000
1111111111010000
1010011
1001101
1111111111110001
1111111010011101
1111111110010111
100100
1111111011001101
110
10000
1111111011101101
1111111110101100
1111111100001100
1111111000011010
1111111101001100
11011101
10101110
100000110
1111111111010001
1110101
1111110100110011
1111111000001110
1111111011110000
1111111110111100
1111111111111110
1111111100011100
1111111100101011
1111011
11111111
10
1111111111100100
100110101
1111111100011110
1111111101110110
1010010
1111111110011111
11101001
1000000
1111111000111101
1111111101011001
1111111111100000
1111110101011001
1111111111101011
1111111111010011
1000100
101110100
10001000
1111111000011110
1111110100101001
1111111100110001
1111111011101110
1111111101111101
1111111011111010
1111111111101000
1111111111100000
10101100
101010000
10110110
11101100
11000000
1111111110010000
1111111101111101
1111111110101111
1111111110110111
1101100
101101
1111111011010011
1011110
1111111110110000
1111110011101111
1111111100001101
1111111100100111
110000
101001101
11001011
1111111001101011
1111111010011001
1011001
1100010011
10110100
1111111101011111
1111111110111110
1010101001
1001000011
101010001
111011
1111111100001011
1101110
110011
1111111111001110
100101
1111111111100011
11110
10100010
1111111011001111
1111111100011010
1111111010100110
1111110110110010
10100
1111111010011010
1111111110100001
11011011
101111001
111110
101100101
1000011101
1100000111
1011011000
100010101
101011011
1011100100
10000111001
1001001000
1111111111000000
1000
1111111110000100
1111111110000111
1000010
1000101
1111111110100000
1111111101011111
1111111110010010
1111111010100000
1111111110010111
1111111110011100
1111111010011110
1011110
1111001
1111111101100000
1111111011110010
10111011
1111110110100101
10010110
10110101
1000000000
110011100
100110010
110001111
1011100011
10001101010
1101011111
1111111101011000
1110000
1111111101011001
1100001
1110111
1011110
1111111101101110
1111111101010011
10001001
1111111100001001
1111111
101011001
10011111
100001111
11000101
11011110
1111111110110101
11011011
1111111001100111
11000000
1001100001
1001111100
1000100110
1111011011
1010101110
10100000
111111001
10100111001
101010001
11001001
1111111101101100
1111111111100010
1111111111110000
1111111111010100
1111111110110101
11
100101001
1111111111100011
1001000
110100
111000111
110110001
101010111
10110
1001100100
1100001111
1010000110
1001000111
1000110111
110111110
111010011
1111010010
1100101000
101011001
111100100
1110000110
10011000110
111111001
1111111111101101
1010011
10001
1111111111000100
1111111100001110
11100
1000011
11101
1111111101100101
1111111100111001
10001010
1000010101
100011111
100010101
100010001
100100111
1000011010
1010001
110101000
1001111001
101010001
111010110
10000001110
110101011
1010011101
1001011110
1111011000
1110111000
1111101
1111111111101011
1010100
1110011
1111111101101101
1111111101000110
1111111101100001
100010000
1111111110110110
111001000
1001110011
110110011
11111110
11001111
1111111111110100
1111111101001001
10100001
11101101
11000110
1111111101101011
1111111101110011
1000011001
10101110110
100010100
1001100110
110110101
1001111100
101101010
100
1111111101101000
10010111
101010
1111111011010001
1111111010101010
1111111001010010
1111111100110100
1111111110011110
101111110
1101001010
1001100111
11110010
1001001110
111101000
111101111
1111111110100010
1010011001
1010001010
1111111101110110
110111100
1100001011
1100100000
1111111010110001
100110011
100000010
100111111
10100110
1111111101100111
1111111111100111
1111111110000010
1111111111111100
11100
1111111001111001
1111111000100000
1111111011010001
1111111010011101
100011100
110110110
1010001011
11100110
111010001
1110101110
10001001000
1111111110001001
111110010
111001011
1111111100000101
110101100
1001100110
1001101
1111111100101111
1001100000
111110111
1001011011
1111111111001101
1111111111010101
1111111101010000
1001
1111111111100011
1101010
1111111011000000
1111111001110111
1111111100000011
1111111100110100
10011000
110000
100000110
10110
1001000
1100111101
111100100
11110
1000101011
11011101
1111111001000100
1111111110000100
100010000
110011
1111111111101011
110010
1000001001
110000001
1111111111000001
1111111111010111
1111111101000101
1111111111001001
1111111111110011
1111111110011011
1111111111100001
1111111001111000
1111111100001011
1111111011000111
101110001
11000110
1111111101010110
1111111100010001
1111110101100001
1111111100101000
100101
101111001
1100001
1101
1111111010011110
1111111010010001
1111111
101000000
10111000
10011010
110000101
1111111101100101
1111111101100001
1111111110001011
1111111111110010
1111111111110011
1111111111110010
1111111111011110
10111110
10010101
1111111110010010
1111111010100001
10001111
101110100
1111111010011010
1111111000001010
1111110111101010
1111111100111100
101010001
1111111110101100
1101111
100000010
1110
1111111001001111
100100111
10011110
100000011
10101011
1111111110010100
1111111110010100
1111111111110110
1010000
1111111100101100
1111111111001001
1111111011010111
101000
1110
1010
1111111111111000
110111
110000010
1001000110
1111110111111000
1111111011010101
1111111110010000
1111111011000100
1111111100000001
1111111001111001
10001100
0
1111111011000111
111000
10000101
1111111111111010
1001101
1111111110111001
1111111101000000
1011111
1111111011000111
100000011
1000000
10110000
1111111100111011
1110110
101000011
101000000
101001100
1100101
1011010
100100111
1111111000001110
1111111010000000
1111111100000011
1111111011111010
1111111101010000
1111111111110101
10011000
10101110
1111111100011101
1111111101110000
1111111011111001
1111111101110001
1111111111011010
10100111
1111111100011101
1111111010000001
11000
10001100
110000101
10110010
1111111111111001
1000000100
111101001
101010010
101011000
101000111
1111111100101101
1111111101110101
1111111000010001
1111110110011111
1111111011100100
1111111000000011
1111111010011001
1111111101001101
1111111101011010
1111111110010001
1111111000001100
1111111011110100
1111111001110010
1111110110101101
11101100
1111111101010010
1111110101110101
1111111110011011
0
100111000
1000001011
100100001
100001111
111100000
1001001011
110111110
100110000
101101110
1111111111010111
1111111100001100
1111111110010000
1111111111010101
1111111001010101
1111110101011001
1111110111011001
1011000
10010110
1111111110001000
1111111011011001
1111111010000101
1111110101101111
1111111001110010
100010010
1111110110011110
1111111001011000
1111111101001001
1111111100111011
10100011
11100101
111000001
11101101
1000101010
110000000
110011
100110100
1101010
1111111101001100
1111111001100110
1111111110111000
10001011
10011100
1111111000111100
1000100
1111111100010010
1111111111000000
1111
1111111011111100
1111110101110111
1111110100111000
1111111010000100
1111111010100100
1111110001010010
1111111010000101
1111111011100110
1111111011010100
110101
11101010
1011011
11101000
10000000
100110111
110011
1010010
1000
1111111101011011
1111111100011000
1000011
10000
1111111100000111
1111111011110111
1111110111111011
1111110100111011
1111111010011011
1111111010101111
1111110111111001
1111111101001100
1111111011101010
1111111000010000
1111110110001100
1111110111011100
1111111001000100
10110
1111111111111000
10110101
101100010
1111111111000011
10101101
11111100
1111111111000111
1111111101010110
1111111110110111
1110
1111111110110000
1001100
1100110
1111111100110110
1111111100011110
1111110010011010
1111110000101011
1111111001001011
1111111010101010
1111110011000101
1111110010110001
1111111010010010
1111110110111000
1111110100000000
1111110110110011
1111111110010011
0
1111111110111010
100011100
10100101
100101011
1110011
10110110
1101010
1111111110011010
1111111110011001
1111111110000010
1111111101001111
1111111101011010
111001
1111111110111100
1111111000000011
1111111101011010
1111110100110000
1111110100010000
1111111100100111
1111111001100010
1111110001100010
1111111011010111
1111111000111100
1111110101111111
1111111100011010
1111111101000101
10010
1111111001110001
1111111101110001
1110001
101011000
11110110
11111110
11001111
1111111011101110
1111111000100100
1111111010010110
1111111110110111
1111111100111110
1111111010101110
1111111010000110
1111111100011100
1111111101101011
1111111011011001
1111110011101010
1111110101011110
1111111101101110
1111110110000001
1111110011111010
1111111010101000
1111111010000101
1111111010101000
1111111111100111
1111111110010100
1111111110011111
1111111100000011
1111111010100111
1000100
10100101
110100001
111100010
1111011
1111111100010011
1111111010100011
1111111001111100
100110110
1111111100011011
1111111101000101
1111111100100001
1111111110001000
1111111110011001
1111111010010010
1111111000100001
1111110111110001
1111111011010111
1111110111101101
1111111101101100
1111111001110110
1010000
111100110
1100100
1111111110010010
1111111111000000
1111111110011011
1111111111101110
1111111111110010
1111111110101101
1000100000
100000101
1111111110000011
1111110100110000
1111111011100100
1111111011001100
100101000
1111111111100000
1111111010110001
1111111101010001
1111110111100101
1111110110101101
1111110010100100
1111110100101100
1111111011100100
1111111011000000
110010
1111111110010101
111101
1100000
10001111
1111111100111111
1111111111010111
1111111001010000
1111111010100001
1111111100000110
1111111111101010
1111111111110110
