1111111100000010
1111111101010110
1111111010101011
1111111111110111
100111
10001
1100
1111111100101000
1111110100100110
1111110010001011
1111110000111010
1111111010100000
1111111010111001
11110111
101001101
1000111100
110001011
110001000
1111000100
111001011
1011010
1111111001111111
1111110101010111
1111110010110001
1111111001011111
110111011
1000111110
1001100001
1111111111010001
1111111011011100
1111111101101011
1111111110000000
1111111101100101
11111
101100
1111111000000010
1111110110010010
1111110001100000
1111110011000101
1111111011000011
1111111001110000
1111111111111110
11100010
100100110
1110001
11001
1001010110
100100001
1111111100100110
1111111011101101
1111110101100111
1111110101100111
1111111110100101
10001010
110011010
1001000100
1111111101001111
1111111001011010
1111111111010111
1111111100110001
1011
11001011
1111111101110000
1111111011101011
1111110011101100
1111110010010100
1111110010110000
1111111001100010
1111111010010110
1111111100011111
1111111101010010
100001001
1111111010100001
1111111000011001
1111111101101111
1111111111111010
1111111011010001
1111111000010001
1111110101011100
1111111010000100
1111111101111110
11000000
1100100
101110110
1111111011101010
1111111100010110
1111111101010110
1111111110101000
1111111111000010
1110101
1111111110111101
1111111010100010
1111110110110100
1111111010000010
1111111000100110
1111110111000100
1111111010000111
1111111010110100
1111111000011010
10111001
1111110000111110
1111110110001110
1111111011101110
110100
1111111100100101
1111110010110010
1111110111101010
1111111011000011
1111111111000101
1111111111111110
1101101
11100100
1111111100001111
1111111001000001
1001
1111111110100000
1111111110100000
1110100
1111111101100100
1111111101111100
1111111000100100
1111111000100011
1111111100111110
1111111011000100
1111111101100111
1110100
1111111001001001
1111111011000000
1111110011111001
1111111101000110
101000110
101010011
1111111111101100
1111110111000001
1111111001010101
1111111001000101
11
11111101
1101011
11001011
1111111101110101
1111111000101010
1111111101111111
1111111110010110
1111111101010010
11000
110010
1111111100000101
1111111001111000
1111111000000101
1111111000001101
1111110011110001
101010111
11
1011011
1111111100101100
1111111011110100
1000000010
1101010111
1010100110
1100001
1111111010100000
10101
1111111110110001
1111111101101011
101101
1111111101100111
1111111010100011
1000
1111111010100101
1111111101011111
1110011
1111111110000001
1111111110001011
1111111010111010
1111111110001110
1111111011000001
1111111001100100
1111111001011111
1111111100010111
100111110
111010011
1010110010
1001000001
101001110
10000011
1011100101
1011011110
110010101
1111111000111011
1000010010
11101011
1111111011011000
1111111010001101
1111111001011000
1111111001110011
1111111101010001
1111111100011000
1111111110010010
1111111101100110
1111111110100011
1111111111111011
1111111010111010
1111111111011001
1111111010100010
101100
1111111101011110
1001111000
1100001111
1011110100
1000001100
1111111010110100
1111111010001000
1111110101110111
1111111111010001
1101100110
100011011
110111
1010001001
101010111
1111111110111101
1111111010100001
101
1111111100110011
1111111110011011
1111111100100111
11011
10010000
1111111100111000
10010000
1111110111001000
10011001
11001110
111101110
11000110
1001111101
10001010100
10001110011
1110110011
1111110111000110
1111111100000011
1111111111001011
1000101
110110001
1100100110
100110101
1000111110
1100010
10100010
1001101
10010110
1111111010011001
1111111111000011
1111111011000001
1111111111011100
111100
1111111101100000
1011100
1111111011010010
10101101
11000000
1011001000
1000111001
1101010110
1100000010
10010010111
10101000000
1001011100
1111111001101000
1111111001100100
1111111111010000
10111101
111001111
1011100111
1001000010
1100101101
10001011
1110100
100111010
1111111101110100
10100111
1111111101111011
10000
1111111111011000
1111111100111101
1111111111010110
1111111101010010
1111111100111101
1001001
1111111111010011
110001010
1010100100
10001011
1111111100010000
110010011
110111001
1111101011011111
1111110001011111
1110000
111110000
110100
10011101001
10001100101
1110010100
101100011
10101100
100100111
1111111101111001
1110011
1111111110101011
1111111111010111
1111111011110011
1111111011010000
1111111110011001
1111111011100110
1111111101100111
101110010
110011000
1010
1111111111101111
1010101
1111110001010010
1111101101110010
1111101110011100
1111101010010100
1111110011101100
1111110100011111
1111111111000000
1111111110011001
10101111101
10100010110
10010101000
11110100
1111111100101100
1111011
1111111011000101
1111111100100010
1111111111101110
1111111110111100
1111111000100110
1111111001110101
1111111000110100
1111111010010000
1111111011101001
10001010
101000110
1000010010
1111111011111000
1111111100000011
1111111010110101
1111101110100000
1111100111001000
1111110100101011
1111110111010110
1111111010101110
1111111011000110
1111111001011011
1101001001
111001100
1011111101
10010001
1111111111100010
11100010
1111111101101011
1111111100011000
1111111011000001
1111111001001100
1111110111111100
1111111000110101
1111110110111111
1111111010010000
1111110111110000
1111111110011010
1010001101
1010000010
10010101
1111110100010101
1111111011000010
1111111100000010
1111101001000001
1111110111011011
11110110
1111111100101111
1111111010000100
1111110111010011
1111111011111111
1110100
111100111
1001011110
110010000
110110101
10111
1111111000110000
1111111001001101
1111111010100110
1111110111110110
1111111010010011
1111110111101011
1111111100101110
1111111011111101
10110001
1001101010
1111110
1111111011011000
1111110010011000
1111110101100111
1111111101001001
1111111001000000
1001101
11100110
110010010
1111111010100010
1111111001110000
1111110110101001
1111111010001100
111110111
10001110011
101010000
111010
100100111
1111111001100010
1111111000010000
1111111100001011
1111111001001110
1111111001110111
1111111010010011
1111111110101010
1111111010100011
110101000
1000001010
100011101
1111111100111010
1111110000000011
1111110101110100
1111111011011100
1111111001001110
1111111111111011
100111100
11110110
1111111111100001
1111111110001001
1111110110100111
1
1010001001
10000111001
11110000
101101001
1111111111000100
1111110110100001
1111111000101100
1111111000010011
1111111001100001
1111111101000000
1111111011101011
1111111110011011
1111111100101000
100011010
110001100
100111001
1111111001001010
1111110001111110
1111111111000000
1111110111111010
1111110110000110
100000101
1100110111
1111111101011001
1111111101111101
1111111110011111
1111111000110001
101001110
10000101111
1100110000
11111011
1101010
1111111110010111
1111111000000010
1111111001100011
1111111100000111
1111111100010010
1111111110111010
1111111011101110
1111111110110111
11100
11001011
110111010
111110
1111111111001111
1111110100101100
1111110110110011
1111110111001000
1111110001111110
1111111110010011
100010100
1111111000101101
1111111110001100
1111111011100101
10010100
100010111
1101100011
1000111011
1001001101
1010101
1010000
1111110111000101
1111111010110010
1111111001111011
1111111011101100
1111111111111001
10111
11110011
11000011
100111010
111010010
11001110
1111111001101001
1111111011001000
1111111010010100
1111111110110001
1111111100001110
1011010
1111111111110000
1111110010001111
1111110110010110
1111110100000011
100001110
10111110
101100011
101011100
1001010000
11011111
101000010
1111111001110000
1111111111111011
1111111111100100
10110101
100010010
101001101
100011101
100100101
101101011
101010010
10100110
1111110111000000
1111111001011101
1100000
1110001
110111
110100100
1010110
1111110111001010
1111110010110011
1111111011110010
10100001
110001010
110111001
110000010
101100110
10101100
111010100
1111111111011111
1110010
1100
11111000
111001001
1001100
11111110
100110110
111001010
101110001
1000001
1100
1111111101100001
1111111110101000
1011000
11000101
1110001001
1010101000
1111111100111110
1111111001010100
1111111101011001
100011101
1000111001
10010
1010011001
111111101
11101001
101010100
1111111111101111
10111000
1101001
111100110
10110110
110111011
111000101
1000110000
110011011
100000010
10100010
10000111
11001011
10011101
110100011
1000110010
10001101010
1011010011
100000110
1111111011111100
101101101
1000011011
11111001
1001010
11001011
1000101
1001010
101100101
1001100
1000000111
1000001011
111001000
100111010
111001010
111111010
1011101001
111101110
101010101
110001111
1001101101
111100100
110000100
110100101
100110100
1011011010
1000011011
1111111111111111
100101011
1010100010
100100001
1111111111001101
1111111111010010
1111111110010101
11001100
100000100
101011011
1
11000111
110001111
1011101011
100100001
1010011
10111110
11100100
111010011
111110111
1000101000
101101010
1010001000
101000100
1111100
101001011
1100100010
1111111110100100
1111111010100101
11111000
1100010
10011
1111111110000010
1111111110011001
1111111100011101
1101100
11011011
110111011
101001011
110010110
111010011
11100001
1010010
1111111010001110
1111111110101111
1111111001111111
1111010
110001000
100000100
10111101
11011011
1111111010010000
1111110100101001
101000001
11110101
1111110100111100
1111111011111000
1111111001000110
1111110110011111
11100110
1111111001011110
1111110111101110
1111110101101001
1111111110000110
110100010
1010110000
110010001
100100111
11110011
111011
1111111101101001
1111111101011101
1111111010101111
1111110111000100
1111111101000010
11100
110111
110001010
1111111111001100
1111110010110011
1111110001001111
1111111100111111
1111111000001011
1111110010000101
1111110111101000
1111110010011000
1111111001111011
110
1111110110110010
1111110011010100
1111110001001100
1111111001001000
1111111110110110
1111111110001010
101000010
11110011
1111111110111001
1111111100000011
1111111100011010
1111111001001001
1111111001001011
1111111100111000
1111111101001110
1111111111101000
10100000
101000011
1111111110001110
1111110110011011
1111110010111011
1111111110100110
1111110100001000
1111110011111111
1111110011110110
1111111001110010
1011000111
11101010
1111111101101010
1111110110001001
1111110111000000
1111111110001101
1111111001001011
1111111011101111
100011000
1001101011
101100101
1010100
1111111101111000
1111111101000001
1111111101001100
10101000
1111111101101001
1111111100110100
11110000
110010001
1000000
1111111101000011
1111111110010000
1111111110001100
1111110001011001
1111101111011010
1111110010111110
1111111000010100
1111111101111101
1111111101011010
1111111001001001
1111110110100101
1111110001011010
1111110001110010
1111110100011010
1111110001101110
