11111011
10000100
1011000
10110010
10000010
1111111011001001
1111111001101010
1111111111011110
1111111111011110
1110001
10101010
1111111110001010
1111111011111010
1111111010010110
1111110101011101
1111110011101101
1111111011001100
1111111110110010
1111111101111011
101001101
101110011
101111000
100111100
101111111
10010
1111111010010101
1111111100111111
1111111100011111
1000011
100010101
10110111
10110000
11110011
1111111101111001
1111111011000100
1001000
100110000
101010011
100001010
1111111110001010
1111111111011101
1111111100001000
1111111001010011
1111110110101111
1011100
0
11011000
11001010
110111101
101111000
10000110
100010111
1111111111101100
1101
1111111111110001
1111111100111110
100010001
11000000
1111111110010011
1111111110101011
110100
1111111100000101
1111111110011111
10101111
1000011011
101000011
101111011
1111111110110000
1100000
1111111100110100
1111111101110100
1111111111001010
110010111
11110011
1001110010
101011001
101001111
101111100
101011010
1011111
0
1111111101101110
1111111110000100
1111111011110100
1110011
10111111
1111001
10100111
1111111101111010
1111111100101101
10100101
1101001
1000000110
110010000
11110010
10010110
11100101
100001101
1111111111110110
110100
1010011110
101001011
11000001
101100110
110110000
100101001
110010110
1111111111001001
1111111100001101
1111111101011000
1111111111000001
1111111100011011
10010100
1110111
1111111011110000
1001
1111111100011001
1111111100100111
1100101
1111111110110101
100001001
1000000000
11001101
101000010
1000010010
1110000
1101010
111111110
1001110111
10011000
1111110110000010
1111111100011100
10110101
10000010
100011111
1111111101011000
1111111011010111
1111111011010110
1010111
1111111101000011
1111111111010000
10110001
1111111110101000
1000110
110011
0
101100110
11000101
1001100110
1100000001
1010010011
1100111110
100000001
1111111110101101
1001011
101011100
1111111011101110
1111110111111000
1111101100011111
1111110100111111
1111111001101110
101001
1111111010001010
1111111100111000
1111111101111010
1111111111111000
1111010
10011111
1111111110001011
10111000
1111111011100010
111000
11010010
10000011
110001001
1011101
110111101
1101110000
110100101
1010000011
11011100
1110100
1111111010011011
1111111100101011
1111110000010011
1111110101000001
1111101110101100
1111110001001011
1111110100011110
1111111101001011
1111110010100011
1111110001101011
1111111101110001
10111111
11011100
101000111
1111111111110100
10
1111111011011111
1111111111001010
10111011
1111111110110111
1011100100
100010010
10101101
1010001101
111100100
1111111110001111
1111111011000011
1001100
1111111100111011
11101100
1111111111001000
100
1111111011101100
1111110100100111
1111110110110001
1111111101011110
1111110101111101
1111110101100011
1111111010000011
111010110
11010001
1000000
1111111111001101
10000101
1111111111001111
1111111100011010
1111111111011000
1111111110110100
1010000100
10110001
1111111111000010
1100
10100001
1111111110010111
1111111011011101
1111111011110101
1111111111000110
1000101110
1111111110010010
1111111000001110
1111111110101111
1111110100110100
1111110001111111
1111111001100111
1111111001011010
1111111010011000
1111111010011100
1011101
1100111
1000010
1111111010101101
1111111110101000
1111111111111111
1000001
1111111111011010
1111111111100100
101101101
1000000
11010010
1111111011001110
0
1111111100010101
1111111010100111
1111110011010000
1111110010101101
1111111000001101
1111111110010111
11000011
1111111100001001
1111110111001100
1111110010000011
1111111000000010
1111111010011011
1111111101100101
1111111101110011
1111111001011010
1111111101110101
100000010
1111111100100111
1111111111100001
1111111011101111
10010101
1111111111100110
1000010
11001
10110110
111110011
1111111111101101
1111111010001110
1111111110000100
1111111110000001
1111111111011010
1111111001101011
1111110111101111
101011101
1000100
1111111011000100
1111110110011101
1111111010111011
1111101011101000
1111110111001111
1111111010011001
1111111101110111
1111111010111001
1111111011100010
11000011
1111111110100000
1111111101010011
1111111100100110
100000111
11110101
101101000
1111111111011011
1111111111100101
1110100
1111111001001110
1111111111101110
1111111101101000
1111111011011110
100100011
111111000
1011011010
1111111111100100
100011100
11110010
1010010
10001010
1111101001010101
1111111011011101
1111110111000100
1111111101000011
11010001
1111111101111101
111111
1111111011110110
1111111110110101
1101000
11011111
1000010110
110101010
101001100
101111100
10110011
1111111110010010
1111110111100011
1111111101110100
1111111000110110
1111111010011110
101010101
1110011010
1111111101010110
1111111110000110
100001
1111111101100001
1111111100001011
1111110100110111
10110000
1111111100000111
1111111100110101
101010
1111111101010011
10101011
1110110
11010100
1100011
110100110
100100100
110100010
1001101010
110000100
1111111110011101
1111111001110010
1111110100010000
1111111001011001
1111111001010011
1111110111101111
1111110011111101
1000110101
1111111110001110
1111111011010000
11001001
1111111001000000
1111111101010100
10101100
100111010
1111111001100110
1111111010100100
1111111000001001
1111111101100111
1111111100011101
100011001
1110101
100010110
11110011
11110110
111100111
110011100
11111001
1111111100110110
1111111010101011
1010011
10000
1111111110111111
1111110111000111
1111111010100101
1111111101111101
1111111001110010
1111111011010001
100001000
1111110
1111111101010101
1111111111011000
11010110
1001100
1111111000000100
1111111101111011
1111111111111101
1111111100110011
110011010
100010101
100011011
1011100
10011100
111100111
110001101
101111010
11010
1111111111010101
1110111
100011000
1100100100
101001000
1111111100000011
1111111000100111
1111111110010010
11101110
101110000
110000
1111111100000110
10001101
10000010
1111111100111000
1111110111100100
1110
11
1010
111010101
101010111
110011100
11001001
1010110
101101101
111010110
1000000111
1111111111110111
1111111100111100
11111100
1101001111
1101100111
10111
1111111111110010
100111001
101010101
1111111110010101
110101000
1111111100011011
1111111000000011
1011111
1111111010110001
1111110101111101
1111111011101000
1111111110110011
1111100
1111111111101101
111011001
101100
110101010
1000101
1111111110010010
11101100
10011111
10010111
1111011
1111111011100111
100001010
1001011010
111010010
100101011
100000010
111111100
100000001
111000
10100
1111111001111001
1111111100000110
111100
1111111100000101
1111111100001001
10111101
1111111011111010
1110011
1111111110010000
10110100
11010010
10110101
1111111101110110
1111111011111110
111010
1111111101010111
1111111101111000
1111111111110111
1111111010010101
101000110
111110111
100101100
101101001
10011000
10000010
101100
1111111110111010
11001000
1111111111100100
11101110
1111111110010111
111001
1111111001111111
111011011
11011
1111111101010001
1111111010010100
10100110
1111111110011110
101110
1111111001111001
1111111000010001
1111111100001010
1111111000111100
1111111001110110
10000000
1111111101000000
1111011
110100110
11010010
111100001
100100001
11010001
11100
11011001
110110011
101111110
11011110
1000110
1111110111000001
1111111110011101
101010110
1111111100110110
1111111110110011
1111111010101011
1111111100111100
101110
10010
1111111011001011
1111110110101000
1111111101000000
1111111000110010
1111111001100010
1111111101001010
1111111100110000
1111111110101010
1111111101011110
111111
11111111
101010110
0
1111111100011000
11100000
11011011
101011000
11001110
100011110
1111110111000100
111100101
1111111101011100
1111111010110000
1111111110011000
1111111110100001
1111111110101001
1111111101101010
1111111110111100
1111110111000110
1111110111011100
1111111000011011
1111111000010101
1111110110101010
1111111000101101
1111111010101111
1111110111011111
1111111010010011
1111111011011010
101001
1111111110000010
1111111100011101
1111111110101110
1101
110011011
1010110001
10001101
1111111101100000
10111110
1001110011
1111111101001000
1111111110010111
10101111
1111111111000110
1111111110110010
1111111011001000
1111111110010010
1111111100111100
1111111010011001
1111110111010011
1111110010010000
1111111001011111
1111111000001011
1111110110000000
1111110011001101
1111110011100111
1111110101001000
1111111101100111
1111111110000110
1111111111010011
11010100
1001011
100110000
1111111110111110
1000001
111100
111110111
1001110
1111111111000000
1111111001010001
1111111100110001
1111111000100010
1111111101001000
1111111011100101
1111111011011110
1111111101110001
1111111011011010
1111111111011011
1111111011010111
1111111100001111
1111111001010000
1111110100001011
1111110100001101
1111110110111010
1111111001011011
100
10101100
1001000
110101
111101101
101101001
1111111110100011
110011000
101010001
10101110
10100011
1111111110010111
1111111101100011
1111111001111100
1111111010011110
1111111100011010
1111111111000000
1111111111101010
10111001
101111100
111001010
1000101
1010001
1111111010110011
1111110101100110
1111111000011010
1111111010011010
1111111010100010
111001111
10110111
1111111010101111
101111
1100101000
1111111111101101
1001100011
1000101000
10110010
1111011
111
10111
1111111110000111
1111111001111010
1111110110111110
1111111010011110
1111111001111100
1101111
11110010
100110000
100111101
11001
101010110
1111111011001111
1111111010101100
1111111000100000
1111111010000000
1111111110101100
1000001010
110001001
1111111101010111
1000011101
110101000
11111110
100111000
11010100
1111111110110010
1111111110110101
1111111111001110
11000010
10000
1111111101101110
1111111111011000
1111111010101010
1111111010000110
1111111111110101
1111100
11101001
11011001
1111111101110100
1111111111100100
1110
1111111110001101
1111111100001100
1111111110011101
1111111110110101
11110100
101111111
1111111111001111
101011011
1111111101101111
1111111111110011
1111111101100111
1111110101011101
1111110111011111
1111111010001100
1111111111000010
1011
1111111101010001
1111111101110000
1111111101001100
1111111000010000
1111111011011001
10111000
100011100
10001001
10100
1111111001010101
1111111011100111
1111111101110001
1111111111010100
1111111110101000
1111111110010111
10011000
100011101
1000100
101010010
1111111101001100
1111111000000100
1111111010010111
1111111111001101
1111111001111110
1111110111011011
1111111111110110
1111111101001110
10011
1111111111010000
10100100
11001001
