1000010
1101110
111
11101101
100101100
11101100
11111100
10110101
110110111
1001100100
110000011
111001010
10101101
10110
1011
1001101010
101010110
1111100
1111111101001011
1111110010110001
1111101111011101
1111110110111011
1111111000101001
1111111110110000
101101101
1000100100
1110000011
1110010010
10110100
1000110
101101
11100011
101101
100000110
0
1111111110101010
100110001
1000001011
110100001
111100100
100010001
1111111111111001
1111111100010001
1000111010
101111100
111
1111111100101000
1111110111011011
1111110100110110
1111110111111011
1111111001011000
11001000
100101011
111110000
111111010
1011100111
111000
11001001
10111010
1111111110111100
1111111111101000
1111111111010011
1111111111100001
110100
1001100
1001011111
110010010
1111001
10101110
1010010
1111111110010001
100110001
1000111100
1100000
1111111011001011
1111110110011101
1111110101010011
1111111001110001
1111111100011100
1111111111100100
1001001
10100011
11110011
1011100101
11100
101100
1010011
10010111
10000000
11001110
11010010
11101100
10000011
1011010100
1010100110
1101110
1111111100101010
1111111101010111
1111111110100111
110110100
1001111000
10011110
1110111
1111111100011110
1111111000010000
1111111111011101
1111111100010100
1111111010010000
1110011
11000100
10111110
1000011010
1011
1111111110111001
11010001
1111111111010010
1111111111110010
10001101
111001001
110001100
110111
1000111010
1011011100
1000010
1111111001001010
1111111010110001
1001110
11010010
110100110
1010011110
10001110100
1000010101
1111111110101001
1010110
1111111111001011
1011011
1011011
100000010
11111111
110110111
1110011
11010
1111111111111000
10001101
10010001
1111111111000111
110110100
111001
11110
1001011101
100010110
1111111101001000
1111110110100001
1111111011010110
1111111101010001
1111111101101000
1000011100
1101000101
1000110100
1000101101
1001100111
1111111111011010
11011011
10101011
1111110111000100
1111111110010011
110100111
11110010
1111111111001111
1111111111000001
1111111110010100
1110111
1111111111000011
1001101
11101001
100101111
11011111
101111010
1111111110010100
1111111101111011
1111111110010110
1111111011100001
1111111111000101
1101110
111110110
1000111000
101110110
101110100
111110001
110101
1001101
1111111111110001
1111111001010010
1111111111011010
11101010
100
10000
1111111111101100
1110001
10111
1111111110111101
1111111110011100
1111111111011101
100011011
101101
10000101
1111110110100011
110011011
1100000101
1001100100
1000111111
101110101
110001111
101101110
1100100
101101000
1010101100
1111111101010011
1111111111001111
10101011
1111111001010010
1000111
1110
100111
1001111
100010
1111111111011011
101001011
1111111111110010
1111111101111101
1111111010101000
1011110
1111111101010010
1111111110010011
1111111001111100
111101101
111000110
10000000010
1000010110
10010111
1000100000
111101001
1111111110100101
1111111110010000
1111111110011010
1111111100001011
1111111111110111
1100111
1111110101010000
1111111010101110
1111000
1111111111110000
1111111110111101
1111111111010000
100010111
100101101
100110
1111111101111001
1111111110010011
1111111011111101
1111110100010011
1111111000110011
1111111100000100
1001001
10000100
1001010110
1011
10110000
1111111010111000
1111111001000100
1111110110110111
1111111000001101
1111111010111001
1111111000100111
1111111011001011
1111111100100000
1111111010100001
1111111110100001
1111111110010000
1101010
11101111
1111111111011101
101010110
1000000
1111111011100011
1010010
1110001
1111111101001001
1111110110000000
1111110001100110
1111111000101110
1111111011111000
100110
10011111
10000100
100000
1111111001111000
10110110
1111111011010011
101000
1111111111001100
1111111111011110
1111111000010011
1111111101100010
1111111001101101
1111111101101101
1111111011000010
1111111111111011
1000111
10100100
11000
10011010
1111111100110001
1111111111110111
10101111
1111111111110010
1111110101100011
1111101110010110
1111101110100011
1111111000100101
1111111101101000
1111111010011010
10100111
1111111001000110
1000101
1110111
11000110
1101011
1111111000111100
1000111000
1000110101
11110
1111111110010100
1111111101001110
11111
11110111
100010100
1111111110110001
1111110
10000100
1111111100001001
1111111111111011
1111111100000010
10110111
1111110101100000
1111101111000110
1111110011010101
1111110110001100
1111111000010110
10010011
10101101
1111111100111011
1
1111111001010000
1000111110
1111111110000100
1111110111111100
10001111
101011110
101011
110100000
1111111110001111
100100001
1111111101000001
11101110
1111111110110000
101110
1111111101110101
1111111111011100
1111111111101010
1111111011101111
10001000
1111111110010101
1111111011110110
1111111110101101
1111111011110100
1111111010100001
11111100
110111000
1100100
1111111011000100
1111111101001101
1111111110011101
10100100
11000100
1001101101
111011011
11100010
1011100010
11101101
110101010
1111111101101000
101001100
10001110
11100000
1111111110101100
1001
1111111111000110
1111111011110010
1111111111010100
11
1111111111001100
1111111011010110
1111111111101001
100110111
1111111110011000
1111111011011010
1111111100101111
1111110110111010
1111110101000101
1111111100010010
100011001
111101110
101110011
1011010110
101011111
110101110
1000110001
11110100
11001101
1111011
1111111111100010
1111111110011001
1111111111010011
11001011
1111111110010001
1111111110011010
1110001
10011110
1111111110011100
1111111110101110
10101010
110111011
110000000
1111111000011101
1111111001101011
1111110101011011
1111111000011011
1111111101111100
1110111011
10000010110
1111
10011011
1
1000101011
10101000
10100110
1100111
1111111101100011
1111111111001010
1111111111110110
1111111111110100
1010100
1111111110110101
1111111110100011
1101010
1000000
1111111100001110
110110000
10110011
10111001
111110001
1111111101001001
1111111000110000
1111110111000111
1111111101100101
100001010
11011010010
10100110000
101110010
10010011
100000000
1000111101
1111111101101010
1111111110001100
1111111010100001
1111111111101001
1111111111001011
1111111100101110
1111111101101011
10111111
10000010
10011110
10100
1111111100000001
1111111010110100
111100101
110110010
1010001
1111111110010100
1111111000100001
1111111000111010
1111110000101110
1111111000001011
101101110
1101111111
1010001101
1010101100
1111111110101011
100110011
1111111101010101
1111111010111110
1111111011110011
1111110110000010
1111111000101100
1111111110010101
1111111100011001
111110
1111010
101110
1111111100100110
1111111111100000
1111111110110011
1000101
111000011
1000010
1111111010001001
1111101111001110
1111110000111010
1111110001011011
1111110001110010
1111111001010000
1111111110101110
100001101
101101011
1000000111
1101111
1111111011110110
1111111000110000
1111111110110000
1111111111000010
1111111011101101
1111111001001110
1111111001010001
1111111101100010
1111111100001100
1111111101011001
110000
1111111001100010
1111111011010110
1111111101100011
100100
100110
1111111111010100
1111111001000001
1111111001111111
1111110111110110
1111110101001011
1111111101011110
1111111100101000
10000101
10001010
101110011
11000100
11010110
1111111100000111
1111111001110110
1100011
1111111101101110
1111111111000000
1111111001100101
1111111110011011
1111111100001001
1111111001111110
1111111101011100
1111111011101101
1111111101000101
1111111000000000
1111111100111101
1111111110001001
10110111
1111111101000010
1111111101100001
1111111100110000
1111110110101001
1111111010001011
1111111001110110
1111110101000110
1111111101010010
11111
11110110
11001010
11100101
1111111100001000
1111111100100101
1111111101000110
1111111111110011
1111111100111100
1111111011000111
1111111010011101
1111111001010111
1111111001101100
1111111010110000
1111111110100011
1111111101011010
1111111000010010
1111111101110111
1111111111101000
1111111110101000
1111110001110011
1111110110000000
1111110110101101
1111110110100010
1111111000110101
1111110100101011
1111111001010000
1011011
1111111101011010
100110
100101111
1111111111010101
1111111101110100
10001000
1111111110001110
1111110111100110
1111111011001001
1111111001110001
1001100
1111111100111101
1111111101111111
1111111010100111
1111111101111001
1111111101011000
1111111001001110
1111111111111010
110101
1000001
1111110100000110
1111111010001010
1111111000011000
1111111000000000
1111111001110010
11000
10010
1111111010100110
1111111100011010
11110110
1000011
1111111111110000
11100110
1111111111011101
1111111110001110
1111110101110100
1111111001100000
1111111010100010
1111111101100001
10100010
1111111010111010
1111111001111110
1111111110100111
1111010
1111111100100000
1111111101100011
110100101
1111111110001110
1111110110111101
1000101
1111111011000001
1000111
1111111111011101
1111111101101111
1111111110000011
1111111000101110
1111111011101100
1111111010000101
1111111101010100
1111111101001001
1100110
1111111011101010
1111111001000111
1111111011111010
1111111001000100
1111111011011001
1111111101110010
1111111100000011
1111111100110101
1111111100001010
1111111010000100
1111111101010111
1111111010111000
1111111111010111
10011011
1111111011001000
1111111011010010
1111111
10111101
10101110
10100101
1111111101001011
1111111100000000
1111111000110111
1111110011011100
1111110110111000
1111111011101110
1111111101000100
1111111100010101
1111111000001010
1111110101101111
1111110110000110
1111110110000110
1111111111110011
11011011
1111111101110100
10011101
100101010
1111111101101001
10010101
1111111110101100
111011010
11101010
1111111000010110
110001
11011101
1001000
100
1000010
1111110111010011
1111111000111001
1111111010011110
1111110111111111
1111111100010011
1111111110010000
1111100
1111111110111111
1111111001001000
1111111011101101
1111111011110100
1111111011111110
101100
1111111111110000
1111111111110010
101011010
100001100
1000001
1111111111000011
1111111111101000
100100001
1111111111101111
1111111111011000
1111111111000100
1100001
1111111111011011
1111111110011011
1111111010000111
1111111011110010
1111111101000101
100001
1111111101100100
1001111
1101011
100000111
1111111101100001
1111111011110111
1111111101010111
1111111111001100
1111111010000101
1111111101101101
1111111101111111
1111111111111100
100111010
10
1111111110011101
1111111111011011
1111111111000010
11111001
1111111110110010
11100010
1010001001
1011110000
100001010
1111111101010101
100100101
10001110
101110
101110010
1111111010100011
1111111110010101
1111111101100001
1111111000000010
1111111101100000
110111
1111111001010101
1111111001110000
1101011
