11011101
100100011
11001100
11010110
100000101
101001111
1111111111000111
1111111111100001
1111111110001100
1111111101011110
1111111110111100
1111111010011111
1111110111111000
1111110111010011
1111111010110110
11010110
10110010
1111111111111000
110010
1111111010000011
1111111101001011
1111111001001001
1111111001110100
1111111111101111
100000101
1010010110
1011110001
10001101111
1110
11010111
1001000
101010
100000101
1100111
10111011
1111111110100101
1111111100101001
1000101
1111111101111000
1111111001110000
1111111011010111
1111111001010001
1111110110111001
1111111111001010
11011010
1111111111110001
10010011
1111111110110000
1111111001110000
1111111010101100
1111111001001110
1001100
110110110
1011001001
111101000
1101000100
1101110
1001111
1001010
100011111
1111111111110000
1111111111100101
101010001
11000
1001000
10000011
101000
1111110111010001
1111111011010110
1111111001000110
1111111010100101
10001111
110110001
1010010
1111111101100110
1111111101110001
1111111011101111
1111111111001100
1111111010011100
1111111111101111
110100100
110111111
100111001
1100100010
1111111110011100
1111111110111100
1111111111110101
1000001
1011101
10001001
111111101
1111111110101100
10001100
111000000
10110001
1111111100001011
1111111100100111
1111111000100110
1111110110100001
111111
11100100
100000100
10110111
1111111110001011
1111111011110010
1111111011111111
1111111110001101
1111111111111101
100110011
1000011000
10000100
1001110111
1111111111001011
1110011
1111111110000001
11101110
111000
1111111110101101
1001001111
111101
1101010
1001001001
110101001
1111111010011011
1111111100101001
1111111000111001
1111110011011100
1111111110010000
11100101
111110100
1101000000
1001101011
100100001
1111111111000011
1111111010111001
1111111101000101
1111111111010000
11110010
10100011
10101011
1111111111101110
1111111101110011
1111111111110100
101001
1001111
1111111100010010
1000110001
1111111101101010
111101
1011100011
11000101
1111111100011110
1111111110000000
1111111011100000
1111111001100001
1111111111010011
111101010
100010010
1111111101000000
1010
10001111
1111111100111111
1111111011011001
1111111101111000
1111111000010100
1111111111010111
1100101
100010010
101101
1111111110000010
1111111101110001
10001110
10
1111111100100001
111111110
11001100
100011001
1000011100
1111111101011010
1111111101001001
1111111110000111
1111111101001001
1111111111011100
1111111111000011
100010110
110101101
1111111001100100
10010
11101110
1111111101110000
1111111100001010
1111111100100011
1111110101011000
1111111101000000
1111111111001110
1111111101000100
10000000
1111111100100010
1001
1111101
1000001
1111111100001001
1000111
110000011
1111111110110101
100010011
1111111101111011
111101101
1100100001
1000001111
110101001
110000011
1111111111101101
1111111010011011
1111111100010101
110110101
100111000
1111111000001001
1110111
1111111100101011
1111110001001011
1111111111101001
1111111101101101
110111
100110
1111111110110011
1111111101000111
11100100
1111111110011111
1111111110111000
1111111110010101
10001101
1111111110100101
11101010
1111111101011110
101111000
1101011101
1111111110
1010001101
101100010
11111110
1111111110000010
1111111000001010
1111111110111110
1111111111000000
1111111000001111
1000111
1111111011111011
1111101111010001
1111111010000001
100011
1010000
1111111110111000
1111111110010101
1000101
11100111
1110010
11110
1111111110100100
1111111111000111
1111111111100011
1111111011010110
1111111110000100
100000011
100111100
1001010001
1111111111111010
1111111110011000
1111110101001010
1111110101010001
1111110101110110
1111111001010101
1111110111010010
1111110110111100
1111111101111100
1111111100001001
1111111001010110
1111110110001000
1111111011010100
1110011
110
1111111111010000
1111011
10000101
1111111111001100
1111111111110001
1101111
10101010
0
1111111000110101
1111111110001011
1111111111011001
100
1111111100000100
10100010
1111110110101011
1111110001111101
1111110111011100
1111111010111011
1111111111101000
1111111101000011
1111111000111111
1111111111111001
11001
1111111001000000
1111110110010000
1111111000100111
1111111101101010
1111111111100111
101011
1111111101111110
1100001
1111111101111000
100000001
1111111110001010
100010111
10010111
1111111000111011
1111110111111110
1111111000100100
1111111101000011
1111111010110000
10001100
1111110100011011
1111110010001011
1111111110011111
101001011
110000001
1111111110000100
10000110
1100111101
1100101
1111111100011101
1111110110011101
1111111010011000
1111111111011000
1110110
1111111101000000
11110
1111111101100010
1111111111101101
1001101
1111111100010110
1111111110101010
1111111101001111
1111111000100110
1111111101101000
1111111010100100
1111111100110110
1111111111011110
1111111111001101
1111111101010000
1111110111001110
1111111100010100
101111000
1111111101011001
1111110011000111
11001111
1110100110
1111111101100101
1111111111010111
1111110110100000
1111111101110100
1111111011110011
1111111111000101
1111111110100111
1111111101100000
1111111110000011
100101
1111111110110101
1111111110110011
111110
11011
1100110
101000100
11110
1111111011101101
11000101
1111111110110001
1111111101111101
1111111001010111
10010111
1010
1111111100000001
1111110010111011
110010001
1001110010
110001
1100110
1111111110000111
1110101
11
10011100
1111111110111111
11011
1111111011001100
1111111110111001
1111111111101010
100110
1111111110100010
1111011
11101111
100000001
1001100000
100110000
1111111000000010
1111111001111101
1111111011101110
1111110101101111
1111111001000101
100011
10111
1111111100001111
1100
1000010000
110000110
110010101
1111111110110101
11011101
100001
111010
1111111111010001
1111111101111001
1111111101011111
1111111111101100
10000000
11001011
10010
100001010
110100
110001111
1100110110
111111001
11101110
1111111101101110
1111110111010011
1111111000101000
1111111100011110
100011
1100010110
101000101
1111111010101000
1110000
110000010
110000001
101100101
1010011
10111
1111111111101110
1111111101111010
1111111100010010
1111111011011010
1111111111010011
1111111101001110
10001110
111000
11010110
10010000
1111010101
10011101010
1000101100
1100100100
1111111110001000
1111111000110111
1111111000000111
1111111001110000
1111111110010111
1110111111
111010011
1111111101010101
11000101
110101011
1100101101
1111111101000011
10100111
1111111100101101
1111111011110011
1111111110111100
10011
1111111110111001
1111111101100000
1111111101100111
1111111111111111
101011
1111111100001100
1111111011001111
1100010000
1011110000
100111000
110010101
1000010
1111110111011011
1111101111111100
1111110101011101
1111111011110001
1111111110001001
1111111011011111
11001111
1111111100001011
110000110
10110011
10100001
101100100
1111111001011110
1111111010001101
1111111011001101
1111111101001000
1111111010011001
1111
110
1111111101010000
1111111110100100
1100101
1111111111100010
1001010011
1000000111
10001010
1111111110001001
1111111101100001
1111110111111101
1111110111000000
1111110100010100
1111110000110000
1111111000001110
1111110111110010
10100111
1011110
1101
0
111011010
1111111111100110
1111111110011011
1111110101001111
1111110111100011
1111111001001010
1111110111101111
1111111010001101
1111111010100000
1111111000100000
1111111011110010
11111000
101100
11000101
1101
1111111111010101
101100111
11110111
1111111101111001
1100100
1111111010101000
1111111001100111
1111111010001000
1111111101100010
1101000
1111111110001100
1111111110010000
1001000110
101000010
1111111110010001
10011011
1111111001110110
1111111011110100
1111111011000111
1111111010101101
1111111001011010
1111111100110010
1111111010111010
1111111001000101
1111111111100011
1100111
1111111101110001
1111111100001110
1111111101100101
111111110
100001000
1111111011101100
110011
1111111010110001
1111111100011000
1111111010100011
1111111110110101
11100101
1011
111110111
111100110
1111100
1110101
10110
1111111010000001
1111111101101001
1111111011100000
1111111101110110
1111111011100010
1111111010111010
1111111011111101
1111111011111000
1111111011111000
1111111101100010
1111111111010010
1111110101111110
1111110011101001
1111111110111010
1111111100111100
1111111101000111
1111111111000001
1111111111111001
11001111
101111
10100000
111010000
100001000
1000100110
11000110
100010110
1111111100010001
1111111110101001
1111111001111000
1111111111000000
1001111
1111111111100011
1111111001101101
1111111100110011
1111111011100100
1111111011100111
1111111101110100
1100100
1111111100110111
1111111010110001
1111111010010011
1111111110000011
1111111110101010
1111111010110101
110000001
111101110
1111111111011011
1111111110010011
1001010000
111001011
111110101
110100100
1111000
1111011
1111111010100010
1111111011000100
1111110110010101
1111111100100001
10101001
1110010
1111111111011001
1111111101101011
1111111011100011
1111111111011101
1111111111100100
10110100
1111111010000010
1111111011011010
1111111101001011
100110011
10011100
1111111111010001
101000001
1000111100
111010
100110001
111010100
111100100
110001000
11011100
1111111110100000
1111111111000101
1111111100011110
1111111101100011
1111111011010100
1111111101111011
1111111011101110
1111111111110111
111111
1111111100100001
1111111100011111
1111111010000110
1111111011100100
1111111001001001
1111111000101110
1111111100000101
1111111110101100
1101000
1111111111010010
11011100
11111110
110010001
100100011
100110110
1111111
100010001
1111111001010110
1111111100010000
1111111101000000
1111111110100010
1111111110100100
1111111101101100
1111111101100010
1111111101001111
1111111110000100
101110101
110101000
1000101
1111111010001101
1111111101110101
1111111111000101
1111111100100101
1111110100000111
1111111101011010
1111111110000110
1111111111111010
10000011
11101111
100101
1111111111010001
101101
1111111011100000
1111111111000000
1111111110011100
1111111001111111
1111111011011111
1111111001101000
1111111101110010
1111111101001100
1111111001110011
1111111101110011
1111111011111011
110011
100010110
110000110
100101100
1111111100001111
10110111
100011
1111111101001110
1111111101100111
1111111110100011
1111111111101100
1111111110010000
1111111101010011
11111000
10100101
1001111
100010011
1111111101000010
1111111110100110
1111111111010101
10100000
1111111101110011
1111111110100101
11100010
1111111101110110
1111111010011101
1111111110010110
1111111100111111
1010110
1000011011
10101010
1111111
1111111101101110
111001
1010111
1111111001111011
110011001
1010001101
1100011110
100100010
101101111
10001011011
10011001
0
1111111101100000
1111110110110100
1111111100110111
1000011
1111111011110000
10010001
1111111101110011
1111111010011111
1111111100101100
1111111110110000
