1111111111110000
11100011
11100001
1010100
11111010
1111111100100111
1111111011001110
1101011
10100000
101001001
101111111
1110110
1111111100000111
1111111001110110
1111110110111101
1111110011110001
1111111010111010
1111111100000111
1111111001110011
1111100
1100111
100010110
101111010
101011001
1000101
1111110111001111
1111110111010110
1111111110001111
11010010
100111
1111111111100000
1010111
10110
1111111111111111
1111111101001100
11001010
101010111
1001010101
101111010
1111111110100110
1111111100111000
1111111100000010
1111110111010111
1111111010101011
1111101
100110
1111111111101011
1111111111101101
1000000
11100000
100100101
100101110
1111111111011011
1111111101001101
1111111101000100
1111111101010011
101
1010011
101
10100111
10010011
1111111111010100
1000100
1111111111101000
1010000010
111111111
110100011
110010
100001111
1111111101100010
1111111111010110
10000111
11110100
10010100
110010110
10010001
1011000
110000011
100110101
1111111111101000
0
1111111100101110
1111111111010001
1111111010001100
10111011
10111001
111
0
10001110
1111111011010010
11010101
10000111
1000010000
111000010
111111
1111111110001011
11010010
11111011
100000111
1111111111000111
1110110001
1001000111
11110001
101010010
10110111
10110011
111111110
1111111110001000
1111111111101101
1111111010011111
1111111101010101
1111111110000100
1111111111111011
10001
1111111110100001
100011101
1111111111000011
1111111100111101
1111010
1101010
10100000
1011001011
11011110
10000010
111111101
110
1110100
101100000
1001000001
101100
1111110110011111
1111111101110010
1111111111000011
10100010
0
1111111111111000
1111111011110001
1111111100010011
1111111110001011
1111111010110000
1000101
11000101
1111111111010011
1001101
1111111101001011
1001
10101011
1111111111111010
111111001
1111000001
111011000
1001000110
1111111111110011
100110
1111111111111011
111010111
1111111110010101
1111110111001010
1111101110011010
1111110011101101
1111111010010010
1111111100011011
1111111000000000
1111111100100101
1111111010111010
1111111101011011
100010101
101101
1111111101100010
11000101
1111111100011001
110011
100001
1111111101011001
100111010
11101011
111110000
1111011100
110001111
1010110100
1110001
10101100
1111111101010001
1111111110100000
1111110011001100
1111111000011011
1111110100110101
1111101111110101
1111110111111111
1111111111000000
1111110110110001
1111110100001111
101100
11001111
101001
10000010
1111111110101000
1111111110001001
1111111111010100
1111111110101011
10011011
1011100
1100001100
1110001
1100000
1001011110
111011010
1111111110111101
1111111110101001
1111111110011001
1111111111001001
11111110
1010000
10000000
1111111011011011
1111110100001010
1111111100111100
1111111111001111
1111110111001001
1111110110101010
1111111100010111
11110110
1111111111011010
10110111
1111111110000110
110010
10010
1111111101010010
1101100
100000
1011011111
10011000
1111111110111001
1111111110110100
111010
10110100
1111111101111101
1111111101110011
1111111110101001
111111000
1111111110011100
1111111011101011
1111111101001000
1111110110101110
1111110100111010
1111111010110000
1111111100011100
1111111110101110
1111110111110110
101011
1
11010000
1111111101010110
1111111100100011
1111111110101100
101011
100001
1111111110100110
101000000
11
101101
1111110110001001
1111111101100011
1111111101010110
1111111011110101
1111110100101000
1111110011010111
1111110111101111
1111111110011101
1010000
111
1111111011110110
1111110110010010
1111110111000111
1111110111001101
1111111100101111
101
1111111000011100
1111111100000011
1101000
1111111101001010
1111111100101010
10110
1111010
111100
1111111111011011
1111
11100000
100001010
1111111100001101
1111111000001000
1111111000101100
1111111001000110
1111111101010110
1111111010101011
1111111000110010
1011010111
100001000
1111111101100111
1111111010001010
1111111111011111
1111110000000111
1111110100011100
1111110110111011
1111111101011110
1111111011100011
1111111101100110
1100000
1111111110010000
1111111110010100
1111111101000011
1100011
10101110
100110001
1011101
100000011
1011101
1111111011110110
1111111001100111
1111111101010010
1111111011001011
11111111
1101001101
1100110010
101110001
1010000101
1011101010
10011001
100000111
1111101011100001
1111111010111100
1111110111110100
1000011
1111011
1111111111100101
11001000
1111111101011000
1
1111111111111000
110000101
11001110
1001110110
110100000
110011010
101000100
1111111011100111
1111110100101101
1111111100000010
1111111100000100
1111111101010000
111011101
10001001101
1111111101000111
101011110
100110010
1111111110110101
1111111110010001
1111110110100011
101001101
1111111011110110
1111111101100110
11010
111111
1111111101111101
100110101
11101
110011000
10100101
100101110
1001100110
111101101
1000001000
1111111111010010
1111110111011111
1111110011100001
1111111001111101
1111111100011011
1111111011001101
1111111000110100
1010001000
1111111101010010
1111111011101111
101110100
1111111011101010
1111111111110100
10010000
100111000
1111111010001110
1111111010111100
1111111101001111
1111111011111100
1111111110101111
100111101
100100011
110110100
11111000
100000110
101110110
100011011
11100100
1111111110010101
1111111100101111
1111111101110000
10010011
1111111110110011
1111110110101010
1111111011001011
1111111110110011
1111111000110011
1111111100000101
10111110
100101011
100111
101000010
11010111
100000010
1111111001000011
1111111100101100
1111111111100000
1111111011101111
101010111
1101110
110100011
111111
110001
110000100
101000110
110010010
1111111100110101
1111111110001001
10110011
101100001
1001111101
101111010
1111111011101111
1111111010100111
1111111001010100
1111111010100010
10110011
1011001
1111111010001101
110001000
11110011
1111111100111101
1111110110000010
1111111111010101
1111111111010100
1000111
110101111
11010000
1110000
11000110
10000110
1101100
10011101
110000100
1111111111000001
1111111010100111
10100100
111111101
1110101110
1000011
1111111010010011
1111111111111111
1111111111100001
1111110110110011
10100011
1001000
1111111100100101
101110011
1111111110111110
1111110110110010
1111111111010110
1111111111011011
10010001
100100
101110001
10100100
111001101
10111110
111011
1100
100011
11100
1111111100011011
1111111000111011
10000110
111011010
1010100111
10000101
1111111101011011
100010101
1010111
1111111011001010
11100
1111111101000011
1111111101111000
1111111111011011
1111111110010101
1111111011000111
1111111111101100
1111111100001001
11
1111111101010011
100101011
1111111111111000
10010000
1111111101100100
1111111110001100
1111111101110001
1111111110100111
1111111011010101
1111111011010101
1111111001011011
1010011
100111001
10101111
100010000
1111111111011100
1111111101100010
1111111101110000
1111111000010111
100011100
10110100
110001000
11110010
1111111111010000
1111111110001110
100010100
1111111110111100
1111111110111001
1111111110001010
1111111110001000
1111111110101000
1111111110010101
1111110111000001
1111110110101101
1111111001111100
1111111001001101
1111111000001111
1111111011111011
1111111110000000
10101001
100100010
1010100
1001101
1111111111001111
1111111110100000
1111111101000010
1111111010101001
110000010
101010001
101000001
110110
1111111011101101
1111111101110011
11100100
1111111100010111
1111111111110001
1111111011010101
1111111101001011
100
1111111101011101
1111110101010111
1111110111000101
1111110111110100
1111110111111011
1111110101000001
1111111110010010
1111111010111000
1111111011011100
1111111001010011
1101011
1011110
10001111
1111111100011100
1111111001000001
1111111101001101
101001000
1000010000
101101100
110000010
1111111010100010
110011100
1111111101110010
1111111110011011
100
1111111101111001
1111111111100101
1111111100110001
1111111010010011
1111110111100011
1111110111000011
1111111011001101
1111110100010000
1111110011100110
1111110110110101
1111111011111011
1111111001000100
1111111010001011
1111110110110000
1111111100011100
1111110110010011
1111110101111010
1111110111110000
1111111110001111
11001000
1001010011
11100100
1111111101001110
1101001
101100001
1111111110001101
101011
1111111111111000
1111111011110001
1111111010101111
1111111100011000
1111111100011011
1111110110111101
1111110111011011
1111110101110111
1111110100000000
1111110100111111
1111110101001011
1111110101101001
1111110010001000
1111110101101000
1111110111110101
1111111000100001
1111111001010010
1111111011011100
1111111101000001
1111111110101111
101100111
1111111100000000
1001011
1001110
111111100
1111111111100001
1111111110110101
1111111010010010
1111111101111011
1111111010100000
1111111001101011
1111111110010110
1111111001111100
1111111000010000
1111111010101000
1111111110111100
1111111011010101
1111111000111100
1111111000010000
1111110100111001
1111110010100101
1111110111011110
1111110110001101
1111111100000111
11100001
1111111011001011
1111111110101111
110011111
1000100111
1111111011100110
101000000
101101010
11100001
1100011
1111111011010000
1111111101111011
1111111011001110
1111110111000011
1111111101111010
1111111011000011
1111111001111111
1011000
11000110
101001110
1111111101111111
11
1111111101100100
1111110110110010
1111111001101010
1111111010000011
1111111011110000
101110010
1001000
1111111101010000
1011001
1100000011
1101000
1001100100
111010101
1101111
10110
1101110
10001000
1111010
1111111010101001
1111110101101110
1111111001100010
1111111001110001
1111111111100110
101011011
110001110
110001111
10111111
10110
1111111000111110
1111111001101110
1111111011001111
1111111011101000
1111111010001110
111010110
110111011
1111111101101001
1001110011
1001111011
11100100
101101010
1111111110101110
1111111011101010
10010
111000
10011001
1111111111111101
1111111110000010
1111111011111101
1111110111011100
1111111000011011
1111111110100111
110001111
101101001
101011011
1111111011111011
1111111111000111
1111111110010100
1111111111001010
1111111000001101
1111111001100011
110101
1000110111
101011100
100101101
1011000000
1111111111111100
10011110
1111111100100101
1111110110100111
1111111000110011
1111111001000100
1111111110000111
1111111110000111
1111111011110101
1100010
1111111110001110
1111110101010010
1111110110010101
1111111101110101
10110101
1111111111101111
1001111
1111111001101011
1111111011000101
1111111100001000
1111111011111010
1111111101010100
1111111101101111
10111010
1000001001
11110100
101110001
1110011
1111111111001101
1111111110111000
1111111111000101
1111110111010100
1111110111110111
1111111001111110
1111111111010000
1111111110010001
1111111111110100
101110
111011010
