1111111111100001
1111111001101001
1111111101000011
1111111101101100
1111111101100101
1111111110101001
1001011
1111111110010100
1111111101100011
1111111100000011
1111111101100111
100011110
101111001
1001000111
1001001111
101101101
1111111111101110
1111001
110001000
101101010
11000100
1111111111000110
1111111110010001
1111111101100100
1111111100101100
1111
110011
1111111010001100
101010
1111111101001001
1111111110111101
1111111101111001
1111111110101011
10100001
10100
10011
1111111100010100
1111111100110101
10101011
1111001
1111111111001001
111010011
1001110000
10110000
1111111110000011
1000
10110001
111000011
101010101
1
1111111101000010
1111111000000110
1111111001010000
1111111101110111
1111111111001100
1111111101101110
1111111101010110
1111111010111100
1111111100110010
111010
1111111100011000
1111111111110011
1111111111000111
110111
1111111101110010
1111111110100110
10100010
10110101
1111111111010010
1001011
1111111111011010
1111111110001011
1111110010011110
1111111001001000
101
1111111110111111
1111111111100010
1111111100110100
1111111101011010
1111111111001000
1111111110111111
1111111101001110
1111111101111000
1111111100110011
1111111110011001
1111111101010010
1111111110001011
0
1111111110001011
1111111111110111
1111111111010101
1111111011101101
110000
1111111111100101
1110000
100000000
11101001
100000001
1111111010111000
1111110101110111
1111101111101001
1111110011100000
1111110100100100
1111110110011011
1111111011000011
1111111000000110
1111111001111100
1111111111001000
100011
1111111101111011
1111111100000000
1111111110010110
1111111101011111
1111111110100010
1111101
1111111100101111
1111111111000110
100001101
1111111110011110
101
10000101
1111111010111101
1111111101111010
1111111111111101
11101110
101010011
1111111001101110
1111110101110011
1111101100001111
1111110000000011
1111101010111110
1111110001100011
1111110001111001
1111110111001010
1111110111010000
10101
0
1111111110001010
1111111110001101
1100111
1100000
1111111100001011
1111111111111110
1111111111110100
1111111111111111
1111111111101111
111010
11001000
101100
1111111011011101
10101101
10111001
1010000111
11100101
1111111010111111
1111110101011000
1111101101010011
1111110100011110
1111111000010011
1111101110110010
1111101111101110
1111110100101101
1111111101000110
101000
101010111
1111111110010101
1111111001000011
1111111111011100
1111111111111010
1111111100001100
10100111
10010110
1111111011010100
1100110
101010
1111111110100100
1111111010010100
1111111010100111
101100001
100101100
101011000
1111111100110101
1111111101001110
1111110101000010
1111110111111111
1111111011000000
1111111000100011
1111110110000001
1111110011110111
1111111100100110
11100001
110011000
11011011
1111111101011000
1111111000001101
1111111010111000
1111111101100111
1111111110111000
1001111
1111111111101110
1111111111000101
1001001
1110111
11000100
1010011
10101110
100110110
11100101
1111110111000111
1111101111111011
1111110001101001
1111101100011010
1111110001111110
1111110110001010
1111111100100111
1111111101111010
1111111000000001
100101000
11011001
1000100000
110010011
1111111101100011
1111111101000110
1111110111000111
100011
1111111101000011
1111111101110101
1111111100011100
1111111101100111
11010011
11010
10100100
110000101
110000000
100000000
110010
1111111010010110
1111101010011110
1111110010011001
1111101111010111
1111110011001010
1111111100011000
100000010
1000100111
111100101
111111010
1111111111111111
10001010
1010000111
101101111
100010
1111111011000100
1111111111111100
1111110
1111111110010011
1111111100001111
1111111110000011
1110010
1111111111101111
111100101
11011000
111100100
100001100
101010001
1111111010101001
1111110011011110
1111111100111001
1111111100011001
1111111111110011
1000000111
1101010101
1100100100
10000001100
1011001110
101100010
110100100
1001001101
1010010001
101000011
1111111100010111
1111111110101001
1111111111100101
1111111101010001
1111111011100111
11001110
11111110
1100100
11100001
11001100
110100010
100100101
101011010
1111110100110100
1111110111100011
1111111010111110
11110101
11000001
1011011011
10001111110
1100100111
1010100110
1011100101
1000111110
1000110001
110010001
1001010000
100101111
1111111010010011
1111111100101010
1110010
1111111111101010
1111111110001001
1111111111000111
1111111101101010
1111111110111110
1111111111001001
101111111
1010001101
101001001
1001100
1111111011000111
11001001
1111111110111100
111100
11100110
1010001111
11110010
1001101010
1010110101
1011101011
10100011
110100111
11011010
1101101
110
1111111001001011
1111111110100111
10001100
1111111011101010
1111111001011001
1111111111010101
1111111110110000
1111111110010000
1111111110100100
1001001001
1010001100
111010011
11010110
10101001
101110010
111111100
11010
1011001011
10011111110
1000000100
1011000111
111000011
1001001100
100000100
1000000101
11001
1111111111101001
1111111111010001
1111111111101001
1111111010010100
1111111100101101
1111111010101110
1111111101010010
1111111100100100
1111111011110110
1111111100010010
1111111010100111
1100110
1000100111
100101110
1111111111100010
10101100
101101010
1100000010
110111110
1101010011
1111111000
1000111011
10110111
101101000
1101100
10110101
100001111
1111111111100000
1100100
1111111000110100
11110100
1111111001001111
1111111101101001
1111111001111100
1111111111101010
1111111101000101
1111111010000101
1111111111000001
1111110111011111
1111111100101010
1111111101010111
111000
1111111110110100
1111111100111011
1000010000
1010101110
1001011001
1010011111
1111001000
1011010010
1111111100100100
1111111111110101
101010101
1000110
1000101
11100010
1111111011011100
1111111100010011
1010111
1111111000011000
1111111101110000
1111111100100001
1111111100000001
1111111001100110
1111111010010110
1111111010100110
1111111000110100
1111111110100101
1111111101000101
1111111101111101
1111111101100111
1111111110010110
1111111011010110
11011001
1010111011
1010011111
111000111
11001100
1111110100011110
101
101101110
110110100
1000110100
101000000
1111111100011100
1111111110111111
1011
1111111101011001
1111111110100011
1111111100101010
1111111110000010
1111111110011011
1111111010101100
1111111010100010
1111111001011111
1111111101000001
1111111110100010
1111110101100101
1111111100010100
1111111011111110
1111111111001001
101110001
110011000
101101001
10010000
1111111000111011
1111101100001110
1111111110100111
10011110
110100001
101010000
1111111010101100
1111111110010110
1111111011110111
1111111110100101
1111111101011011
1111111110011110
1111111100110011
1111111111010011
1111111110111100
1111111011110101
1111111010010001
1111111011100011
1111111110001100
1111111111011011
1111110001100001
1111111011111101
1111111110010110
100000111
110100111
1111111111001001
111110111
1111111100101111
1111110100111111
1111110111101100
1111111001110100
1111111101100000
100010110
10001111
1111111011111101
1111111111110000
1111111111110111
1001110
1111111110101100
1111111110000100
101110
1111111101111100
100000
1111111011100000
1111111110000110
1111111111100101
1111111101111001
1111111100100010
1111110101010101
1111110100110001
100000001
111100101
100011110
100110101
1010010010
1111111110110000
1111111000001010
1111111000011010
1111111010101111
1111110110011011
10101011
11011010
1111111111001001
1111111110001000
1111111110000000
11100011
110000111
110010
1011101
1111111111101100
1001101
1111111110101001
1111111111010000
1010
1111111100110011
1111111100010111
1111110011001110
1111110101110100
1111111001100000
1001
1010001
10011110
1111111101010000
1111111011111110
1111110101111000
1111110100100011
1111111101010011
1111111000111111
1111111111010011
1111111111100011
1111111001110101
1111111111011011
1111111111011001
1001
11011011
100110001
100011100
100110110
101100011
110101
1111111110110110
100110000
1111111110110000
1111111010010111
1111110111110110
111010
1111111101010011
1111111011001000
1000110
11111
11011110
1111111101111010
1111110110100010
1111111011001010
1111110110010000
1111111001001010
1111111011111010
1111111000001111
1111111110000010
1000100
1111111111110001
1111111111110110
11100110
10001110
10010101
100011111
101001010
110101
100001
101001100
1111111010110001
1111111001001111
1111111010011110
1111111111011110
100100110
10001100
101110011
10001000
110101100
1111111101011010
1111111011100001
1111111011111000
1111111011010010
1111111101011011
1111111000110111
1111111010001111
1111111100101001
10000
1111
11011001
11101
1111111101001111
1111000
1000010
101101000
10111000
111111
101101
1111111101000111
1111111010010101
1111111110010101
1111111111111001
1111111111111001
1111101
1111111100100011
1111111101001000
1111111101110100
1111111011101011
1111111101000100
11001000
100000
1111111100001110
1111110101011111
1111111000111101
1111111100001110
100001011
100111011
101011001
10000
1111111101001001
1001101
1001010
11000110
1111111101110001
1111111100010100
100010
1111111111000111
1111111101111110
1111111000110100
1111111010101111
1111111010111111
1111111101010111
1111110011000101
1111111100100001
1111111110111110
1111111001010100
1111111101110101
110100101
100111110
1111111110111001
1111111011110000
1111111001100101
100111001
110011000
1000001001
1000011101
10110100
1111111011000000
111111
1010110
1111111111011100
100001
1111111100011110
1111111100011001
1111110110111011
1111110111000011
1111110111011010
1111110110100000
1111111011010001
1111110101010100
1111111010011000
10001111
101110001
1111111011111000
110010110
1000111000
111000001
11111011
10011010
1111111110010111
11101100
11100100
1001101010
1001001000
1010011
100010
0
1111111011110110
1111111101001011
1111111101111111
1111111111110011
1111111010101011
1111110110111001
1111110010100011
1111111010010101
1111110110011100
1111111000001000
1111110111110110
10101
1000110101
1001001010
10100011
111111001
111001000
11011110
101001100
1000
1111111111010100
11101001
10100101
1000011110
1000110110
110111101
1000111001
10101111
1111111100111011
1111111110000110
1111111101101110
10111000
1111111111011011
1111111001111000
1111111010000000
1111111100000111
1111111110110011
1111111100001110
1111111100110001
110010101
1101101100
1010000100
110001001
11110
100100000
1100101001
10001101
11001000
1111111111100111
100100110
111111110
100111111
101110000
100011011
110011110
1111111101111010
1111111110011111
1001111
11000
110011000
101010011
1111111100010010
1111111101100000
1111111110011110
1111111011100111
1111111010011010
1111111111110011
1100001001
1101110000
1011110110
100100
1001110
111101101
1000010000
101010000
11111101
11010100
11001010
11000100
100000111
1100010
