100010000
10010001
11111101
1000001
1111111110111001
1111111100000100
1111111110110000
1111111101101100
1111111111111011
1111111110100100
1111111110000110
1111110100110100
1111110010010011
1111110000000011
1111110001000111
1111110110100101
1111111110011111
1111111100001101
1111111101011001
1111111011010001
1111111111001010
1011011
1111111100111000
1
100101011
101010
1000110
11101101
10
1101001
10101101
100100
1111111111011111
1111111111100010
1111111011100001
1111111101110001
1111000
11100
1111111001010110
1111110111000101
1111110101100110
1111110001110001
1111110000110011
1111110111111111
110100
1111111101011010
1111111110111100
1111111101000100
1111111111000100
1111111101001100
1111111110011010
1010010
110110110
11110
11000
10101011
1111111111110000
100111001
10100010
1011000
1111111101000010
1111111011101000
1000101
1111111111111011
100101110
1101000
1111111010001001
1111110110000110
1111111011011111
1111111000100010
1111111011100011
1111111101010100
100101100
10110111
1001010
1111111111101111
1111111111110000
10101111
1111111101011000
10101110
11011101
100010101
1100000
1011011
100010
1111111111011100
10000001
10010000
1111111101010100
1111111101101101
10011010
1111111110100110
10101010
10011100
1111111010100000
1111111000111100
1111111010101110
1111111001000010
1111111011100110
1011111
1000100011
110100110
110010010
110011111
111110
100100001
10001001
1010010
10100
1111111111111001
1100111
1111111101100101
1101
1111111111110011
1111111100101001
1010011
1111111011110110
1111111101111101
100111001
1111111111011001
1111111111000000
110001100
1111111101011100
1111111011101101
1111111111000100
1111110101000110
1111111010100001
101100110
1110101011
1100001010
1010001101
1001000011
1000011111
101101001
110101
100000
1111111011101001
11111
1110110
1111111101100110
1010000
1111111110000001
1111111100000011
1111111101111000
1111111011010010
1111111010011000
101000001
1111111110100000
1111111101010100
101011010
110110
10001011
1111111011100000
1111110111110001
1111111110100011
100110101
1001000100
10101101
1111111100011011
10111010
1000111111
101010011
1111111011100111
1111111011111100
1111111100100111
11000100
101010101
1111111111001100
1111111111100011
1111111111000011
1111111100010100
1111111110010011
1111111111000010
1111111111100100
111100010
11011010
1111111111111110
111110110
1111111100101000
11110011
1100111
1111111110000101
1111111110001100
1011101
1111111101010100
1111111101111001
1111110111110000
1111111111000011
110100110
1111111111110010
1111110110001111
1111101111000011
1111110101110011
1111111110010001
1100001
1111111111000000
110100
1111111111010100
1111111110000000
1111111101110110
1111111111001001
1111111101010110
110100101
10010011
10101
11110110
1111111110110100
1111111101110000
111110101
110110111
11100010
1100100101
11101011
10010000
1111111011111101
100011100
10111110
1111111001011111
1111111001100111
1111110001101110
1111110001101001
1110110
1010111
101011
1111111110010000
1111111111000100
11011
1111111100001111
1111111111100111
1111111111100101
11000000
1011010
1111111111100110
1111111101001111
11101
1101011
1000011100
1010011100
100101000
1001011111
11100011
1111111010011011
1111111100001010
1111111000101001
1111110110001100
1111110011100000
1111111111010100
1111110111010110
1111101000010000
1111110100100111
1111111100000001
10101111
1111111111100010
1111111111010011
1111111111100101
1111111111111011
1111111111001001
1111111011100011
10010101
1100
101011011
1111111100001111
1111111101100100
1100000
1000110010
110110
1111111011010000
1111111101110011
1111111001010001
1111110101001101
1111110111110001
1111110111111001
1111110001110010
1111110110010110
1111111111111011
1111111010000001
1111110001011011
1111101010011101
1111110110111100
100000
1111111111111001
1111111010001101
1111111011100010
1101111
1111111110001001
1001011
10110010
10010011
110110100
11100010
1111
1111111100001001
100110100
111001
1111111110011000
1111111010100000
1111111101000001
1111110101010101
1111110110010010
1111111111100100
1111111100011000
1111110011100111
1111111011110010
1111110111110101
1111110011001111
1111101000001100
1111101111111101
100110
1111111101010010
1111111001111110
1111111101101101
1111111110000000
1001001
10001010
1111111110001111
1111111110101100
1111111111011000
1111111010101100
1111111111100101
100000001
100110101
1010011
10001010
1111111110011110
1111111010000110
1111111000111110
111
1111111111010001
1111111000000011
1111101011001010
1111111111111100
1111111001111101
1111110111101000
1111110011011101
1111110110000011
1010
1111111101011010
1111111110100011
1111111110000101
100100111
11010101
110001100
1111111111011011
10010110
1111111011001111
1111110111111011
1111111010111111
10001111
100111
1111111111110111
1111110111011110
1100101
1111110010111010
1111110001001111
1111111101111010
1111110011100110
1111110010011000
1111110110010101
1001011000
1111111010111011
1111111000010111
1111111001100011
1111111101011011
1111111111010100
1110
10011010
110
11010010
10110010
110110000
100110010
111100101
1111111010010011
1111111010000100
1111111111010001
1101100
1111111100100001
1111110101111001
1111110000101100
1000110
1111110101011001
1111111010100111
1111011
1111110101101011
1111110000110101
1111111101011111
10000011
1111110111110011
1111111000011000
1111111000110110
110110
101101
11101010
1111111111101110
100011100
1111111111110101
101000100
10000111
10101011
101101
1111111111111001
10010
100011
100001000
1111111110001101
1111110010100110
1111111000110110
1111111101111101
1111111001001010
1111111010111101
11101100
1111111110010110
1111111000111011
1111111010000010
1111111100100101
1111111011011111
1111110110100101
1111111010111100
100010111
1111111110100100
100100110
11011110
100110001
1111111110111000
11110111
1110001
10111100
11000110
1111111111100100
10010
101000000
1000010101
1011000110
11110100
10111
1111111011001000
10011110
1011110
110101
110110101
1111111001011110
1111110101000011
1111110111110011
1111111000011100
1111110110101110
1111111111011100
1111111110111011
1101001
1011110
11011110
111110
1010010
1111111110001011
1111111110100010
1010100
101000101
11111
1111111110000110
1000110010
1101111001
1100000100
1111011
0
10001101
1111111111111101
1111111101010101
11001010
100101010
1111110110000001
1111110100011110
1111110101100101
1111111000010101
10101100
10000
11100
111111
1111111111100100
1011101
100011100
11011010
10100001
1100010
1111111111010110
11110101
110001
1111111011101100
1001100100
100101001
101000010
1001010101
11111011
10111010
1111111110100100
1111111101001110
111
1111111010010001
1111111001011000
1111111100101010
1111111000010101
1111111111000000
1101100
1111111101001101
1100110
1111111110111110
1111111111100001
101011
10110010
1111111111001110
1111111100100001
101011
11001
1111111101101101
1011111
1111111101101000
110010001
101010111
10011001
100000010
1110010
1111111101110011
1111111010111010
1111111011010011
1111111110010011
1111111011000001
1111111011111001
11010110
1111111100101011
1111111111110101
11100101
11101001
10010000
1111111011000111
1111111011100010
1111111111000111
1111111110111101
1111111010011101
1111111101000111
1111111010000001
1111111100011010
1111111101001110
100101010
11100
1000111100
111101001
100111010
1011010000
100001000
110110
11011001
1111111111111100
1111111101111001
1111111101000111
1111111111010111
101010111
1111111100101001
1100010
1001000100
1000100
1111111111010111
1111111010001111
1111111011011010
1111111011111011
10011
1111111111001010
1111111011010010
1111111101111100
1111111111100101
1111111011001110
11110110
10001110
1111111111110000
1111111100000000
100111110
1100000011
101111111
1100100
1111111101101010
10011011
1100
1111111100101001
101001000
101111110
1111111011110001
1011011011
111010011
111110
11010000
1111111111110000
1111111111010111
10010
1111111111011000
1111111111000001
1111111101100011
1111111111001001
110010
1111111111011000
101101011
1001011010
1111111111111000
10011
11110
111100011
10101101
11000
1111
1111111111000100
110101
111001100
1000001010
10001001
101111011
1110100001
10111110
101011001
11010101
1111111111010001
1001111
1111111111110001
1111111111110000
1111111111001011
1111111110100111
110110
1111111110001011
1111111111110010
10110010
1001110
1111111100110010
1111111101100101
1111000
110010101
1100101010
111100010
100000100
1000000
11111011
10100010
11000110
101001111
1101100011
1001011100
101000010
1111111100100101
1111111011110110
1111111001100100
1110
1111111111010011
1101011
1111111101000010
1111111111000001
11100011
100100100
1111111111001000
10101111
1111111111101001
1111111111000101
11001110
11101001
1000010110
10001111111
101101001
101101
111110110
1001011011
100000100
1000010011
1011101101
101010100
11000111
1001
1111111100101001
1111111111100010
1111111100100010
1111111111110100
1000100
1111111010111110
1001101
101001
101101
1011000
1111111111111001
10011000
1111111101001001
1110
101011000
1111111110011111
1010110110
1000110010
1111111111100011
10111101
1101010110
111011000
110100010
1001011001
10010101
1111111111000010
1111111101100101
11001100
1111111111110110
1111111010000111
1111111001000011
1111111010110000
1110010
1111111110100101
1111101
110101011
110010101
1111111001000011
101000
1111111111000011
10100000
1101010
10001010
111001
11010000
101110010
1111111011000011
1010001
111010000
100110110
100001101
100000000
1010100
1111111110100110
1111111
100011010
1111011
1111111110111011
1111111100110001
1111111111001010
1111111000110110
1111111111111110
11100011
100000101
11110101
1111111010000101
1111111101111100
1100111
1111111110111111
1011011
1111111111001001
1000000
10001111
1111111110000100
1111111101111110
1101010
10110001
110100010
1111111101000100
1111111011011111
1000011
100001
10010011
101010000
10100110
1111111111101100
1111111101111110
1111111100010011
1111111011110111
100011110
101011001
1111111110111001
1111100
1111110101100000
1111111010000101
1111111111011110
1111111110110010
1111111111000111
11001101
11110101
10001010
1111111001000101
1111111110101001
1111111010010010
110100
10101100
1111111111011000
1100011
10100000
10010110
110101010
101100111
11101011
10110000
1111111110101111
