0
10011010
100100
1111111101100101
0
1111111101010111
1111111100011110
111110
10101110
101010110
110010010
1111111100111000
1111111001101111
1111110101101111
1111110011111000
1111111000101110
1111111100100110
1111111010000111
1111111000010010
1111111010111111
1111111010010111
1111111111101010
10000101
100001110
110110
1111111100100000
1111111111111111
10010111
1111110
1110101
1111111110000111
11001
101110
1111111110101001
1111111001111101
1111101
101001010
101001000
1001010
1111111101001101
1111111110000111
1111110111101111
1111110011111100
1111111100001100
11010
1111111101010010
1111111011011101
1111111000010101
1111111011101101
1111111101111000
11
10101000
10000000
1111111111010100
1111111110110110
101100
1111111101011111
1101
100
1111111100101011
1111111111011011
1111111101001011
1111111110000001
1111111111101110
111101101
11101110
100101
1111111111010100
1111111110011011
1111111100011001
1111111100111100
1111111101000111
111010111
11001011
1111111110001110
1111111100100000
1111111111000000
11111
0
1111111100111010
1111111111010110
1111111101111001
100101
1111111110010111
1111111111100110
10110010
11
1111111101111110
1111111100101101
1111111100100001
100000
10100100
11110010
100110110
11000011
1111111110001111
1111111111100011
1111111001011011
10100010
100011011
10001011111
1011010000
10000111
10110
1111111101000000
11000010
11001011
1111111011001101
1111111110011011
1111111111010111
1111111111101001
1111
100010
1001001
1111111110001011
1010001
1111111101110000
1111111100011101
1110000
100001100
10
100111000
10101011
1001000
1111111111110010
1111111001000001
11100010
1011001011
1111010111
1001011011
1010110111
100110010
110001000
110011111
11100
1111111100001111
1111111011101111
1111111010101111
1111111111101000
1111111110011100
110101
111111
1111111111011101
1111111110110011
1111111111111110
100011
1100010
1111111111001000
11110
1010100101
101101010
1111110
1111111010110001
1111111100001110
1111111111011001
1000111001
111000011
1110001
1111111100010011
100000000
1001100001
100011111
1111111101111100
1111111110000111
1111111010101011
1111111101101001
101100011
1111111111010000
1111111111100011
1111111110111000
1111111010111111
1111111111110101
110110
1111111100110111
1010010
101110
10011000
1010110010
1000101
100010110
1111111010011101
1111111101010110
10101101
100000
11101
1111111111110010
1111111100101011
1111111111100111
110101001
100110100
1111111010101011
1111110011011000
1111111100011001
11010001
11100110
10011111
1111111101001000
1011001
1111111101100001
1010000
1111111111110000
1111111111101010
101011101
1
1010000
10100110
1111111110110000
1111111100000111
110111
111110111
101000111
1001000100
110010111
111100010
1011001
1111111110110001
1000001000
10010
1111110111101100
1111111000111011
1111111000000011
1111111
1111111110111100
11000110
1111111110111011
110010
1111111101111100
1100100
110011
1111111100111111
11101100
1111111100010000
1111111001111101
1111111100100110
1111111101100100
1000011
10000101
1001000011
100110110
1100101111
100011000
11000010
1111111110111101
1111111100001100
1111111011110111
1111110101101010
1111111011011010
1111111101000110
1111110100100110
1111111010001101
1111111101111101
100011010
1111111101100010
1111111111100010
1111111100101000
1111111101110111
1000101
1111111010100111
11011000
1111111001111011
1111111010001100
1111110110001101
1111111010111001
1111111100011110
1001000
1111111101110000
1111111011111111
0
11000
1111111101011111
1111111000110111
1111110111011100
1111111001001100
1111110100100000
1111111000011001
1111111001001100
1111111000001010
1111110110011011
1111111001011100
1111111111001010
1111111111001111
1111111101100110
1111111100110100
1111111110101010
1111111101000101
1111111111011000
1111111111111100
111111
100
1111111001011011
1111111000111101
1111111001101110
10000
11010011
1111111111000100
1111111011011011
11000010
1111111110011010
1111110101111100
1111111000101001
1111111101101100
1111110000011010
1111110010111011
1111111000101100
1111110110010001
1111110101011110
1111110101111100
1111111110101110
1111111110011111
1111111010101011
1111111101001100
110010
101101
111100
1111111110101111
110100
1111111010011111
1111110110101000
1111110101000001
1111111010100010
1111111110000001
100111001
1000000010
10010001
11010101
0
10001001
1111111101110111
1111110111110111
1111110001001011
1111110110111010
1111110110100000
1111111110100111
1111111010110110
1111111010000101
10001101
1111111111110110
1111111100110110
100001111
11100000
101110111
111001001
10101000
11111
1111111100110111
1111110010011111
1111110011000101
1111111111110011
1111111011101110
1111111100110101
1111111110010001
11010001
1111111001000101
1111110100101101
1111111100000110
1111110110110111
1111110100000010
1111110100000111
1010011
1111111010001000
101011
1111111110010101
1110011
10000110
10010100
1111111111110010
101001000
10011001
11011110
111011101
100010011
11110111
1111111101001111
1111110110011011
1111111000001110
1111111101100111
1111111101001101
1111111001011100
1111111000110011
100000001
1111110111001001
1111111000111010
1111111110100011
1111111110100101
1111111011001001
1000001
1111111111111010
1111111100111100
1111111010001010
1111111100111111
1001001
1111111100011000
1001001011
11111001
101100011
11000110
111000000
110011111
11010111
10110000
1111111100000001
1111111111010011
1111111101001011
1111111101110101
111001
1111111000011101
1111110111110010
1111111011111100
1111110101010110
1111111000111010
1111111101010010
10001011
10110
10000
100011100
1100
1111111011101010
100000111
100001000
1111111110111111
101001000
11011111
110000010
10011011
10010010
101100111
100100111
100001100
101110
1111111001010100
1111111111010000
1111111110111010
101101111
1000010101
1111111100101011
1111111000110000
1111110110010000
1111111001110000
1111111111001100
101111100
1001110
1111111100010101
1111111111101000
1111111100101110
1111111001011010
100010000
1111111011101010
1011
101001111
11011001
100100001
110101
100011000
101000001
1111000
110010001
1111111111111000
1111111010111101
10101101
11010010
100000001
1111101
1111111100001001
1111111110001011
1111111001110110
1111111001100000
11010111
1100110001
1011110
11010000
1111111100110010
1111111010001010
100000001
1100011
111100
1111111101100011
100101100
101000011
10001011
10000100
1001010
10110111
1000101
100001010
1111111110111100
1111111010101010
10101100
1111111110010011
10010000
1111111110000000
1111111110100010
1011101
1111111001101100
1111111011101011
11110101
10110011
11110010
10010110
1111111111011111
10101101
10011001
10000
1111111111000001
1111111101000011
1100010
10111111
1010110
1111111110101010
1111111111010010
1111111101111111
1111111110110110
1111111011111000
1111111101000011
1111111001101010
1000
100111110
1111111010011111
1111111100101111
1111111000101011
1111110110101101
1111110101110010
1111111011111100
100101011
1111011
100111010
101001101
100011100
1111111101001110
1001111
1010110
1111111111010101
1111111100000100
1111111100101111
110011
1111111101011101
1111111101100001
1111110111011101
1111111101101110
1111111011110110
1111111010110010
1111111101000011
1111111110011001
1100001
1101101
1111111110110011
1111111101011100
1111111001010111
1111111010101001
1111111110111111
100
101010010
101000100
110010111
1000000110
1111111110010110
1111111110110111
101111
1111111100110111
1111111110010110
1111111001101101
1111111010000000
1111111110000101
1111111101100100
1111111011000001
1111111010110001
1111111101000101
1111111100101100
1111111001100111
10011
1111111110011100
1000100
1111111001011110
11
101000001
10011011
1111111101011110
1111111001010010
1111111011101101
11010110
1011110
101110110
1010010011
10001110
101110011
11111
1111111111010001
1111111110110011
1111111000100101
1111111011000111
1111111101111011
1111111010001101
1111111001110110
1111111010001110
1111111100011111
1111111011100101
1111111000101011
1010001
10111001
1001000
1111111000111101
1111111010010000
1111111100010011
1111111000110011
1111111100001100
1111111001111110
1111111000101100
111110
100010010
101010001
10010000
10101110
1001000000
1011100
1010110
11111
1111111001100000
101101
1011
1111111100011100
1111111010101101
1111110111101110
1111111001010111
1111111000100011
1111111011100110
1111111111000000
1111111100011110
1111111011001001
1111110111010000
1111111010011001
1111111011001001
1111111110010100
1110111
1111111111110101
1111111100010101
100001011
1111111111000100
1000101
10101010
111110001
11010010
11001
1111110111011101
1111111100100110
1111111001100001
100110
1111111111010101
1111111001011101
1111111000000111
1111111010011100
1000001
1001111
1111111110101001
1111111001110010
1111111011110101
1111111111011000
1111111100011101
1111111100100001
101010
1001100001
110001
1111111101000010
1111110
1000010001
1111111100001100
1111111111110110
11101011
1111111110110010
1111010
1111111010101010
1111111100001010
1111110111010110
1111111001001100
1111111111010110
1111011
1111111101010001
1111111101011011
1111111111011010
1110
11010110
110001
11101010
1110
11001100
101010110
1111111111011001
111101110
111011001
1111111011101000
1111111110101001
1000011101
1111111111000011
1111111111100000
100110111
1111111011011011
1111111101000001
1100111
1111111101011010
1111111101011001
1111110100111010
1111110000011110
1111111011011110
1111111100100101
1111111110111011
10101001
101101000
111010000
100101110
10010011
100100111
1001001101
11100100
1000001
110000100
1100011010
1001011001
1111111100110001
1111000
100011110
10001000
11100000
1000011
1111111100101111
1111111101100110
1111111110111001
101000
1010
1111111100000101
1111111100110101
1111110110110010
1111111010100101
1110001
101110011
111111100
101100100
10
100000
101011101
111100001
100010
110101
101110111
111010111
100010000
1111111011010111
1011100
11110000
11010101
1111111011111000
1111110110000100
1111111010000001
1111111100111101
1111111110111000
101010
1111111101100010
1111111100010101
110010
1111110110111110
1111111000000000
10100100
11000010
1100011
100110
1111111100010111
1111111110101101
1
111100
100011010
101010101
1001011000
111011001
1111111100101111
1111111111100111
1111111110000111
111000000
101100110
1111111100001100
1111111000001110
1111111100010000
1111111100100000
1111111111111011
101010101
1111111111111111
1111111110010000
100100
