1111101001110000
1010101100
100001110
1111110111010111
10111001
11100
1000000000
1111111010001101
110011100
1110110110
101011101
1000111000
100000100
1111111101111000
1111111001011010
101011110
110001101
1111110010110101
101001110
1111111110
1101001110
110011110
101011011
1111110100011110
1111110111110110
100110011
1111111111110010
1111111000000100
100101000
1101101000
101010000
1111110110011110
1111110100101010
1010000100
1111111010000110
1111111001100110
11000010000
11000101
101110111
1111111110111111
1010101111
1000111111
11010010
1000001001
1111110100011100
1111111010101100
1111111110000111
101111110
1111101010111001
101111000
1001010011
10010011
1100110010
1111111011101001
1111111010110111
1110
1011010110
1111110100001111
1111111001110000
101010111
1111111011110100
1010111110
1111010111
1111111000010001
110011
100100011
10011011
1111110110001110
1111110111000000
1111110101100111
100010110
1111111101111000
1111111001011000
1111110111100001
1111110001010000
1111110001101100
10000101011
101100
100100000
10001111010
1111110100010101
1111111110111001
1111111110010011
10000001101
11
10000000000
1111110100100011
1001001100
111010001
1111111101100110
1000001110
1111101000101100
1111111100010100
1111101110101111
1100101
1111110010001100
1111110010000100
1111110111110101
1111111101101000
1111110100110000
1010110101
100011011
1010101011
101000110
111111110
10000100
11111
100101101
1111110100011000
1110001111
1010100110
1010010011
111011001
1001101001
1001101010
1110110110
1111101110010000
1010100010
111101100
1111101110111011
1001111010
1111111110001011
11110001100
11010111
1111111110011101
1111111110101011
1000010101
11001011
