1111101101011001
1110101
110110111
1111110100011110
100111100
1111111100100011
11111101
1111110110011111
1011001
10100011001
100011011
1010001000
11010010
1111111111010010
1111111100101000
1011010110
101000011
1111110111011010
1001011000
110100111
1000110101
101100010
100110000
1111111010010111
1111110110010111
10010111
11100110
1111111001110100
100101000
1000100101
11000000
1111111101011110
1111111000011000
110001100
1111110011001100
1111111011110000
1111010101
11
11101110
100
111100111
111100000
10111011
1111111110000000
1111110100000000
1111111010000100
1111111111000101
100000
1111110111000000
100101000
101000
1111111010000101
11111111
111001110
1111111110000111
1101010
1111
1111111101110100
100011
101101000
11
110001110
1000100100
1111111011000010
1010111010
10011101
1000011011
1111110010110100
1111110111111101
1111110111011001
1011010
1111111111110001
10000101
1111110111010000
1111110010101100
1111110101111000
1101010010
10100100
1111111101010000
1111101111
1111110111111110
1111111111110010
10100011
1110100000
101010010
1100101010
1111111001111011
1100100010
1001001111
1111111111111100
11010011
1111100100011011
1111111111101001
1111110001011101
11101010
1111110100000011
1111111010011001
1111111100000010
1111111101111000
1111111011010101
11010110
1111111010011100
101100011
10011010
1110111
10110110
1111111101000011
10110011
1111110111011101
101011000
1110
1100011010
1111111111001100
1010101011
111101100
1011010001
1111111001111110
1111100100
1001000000
1111110010111011
10000010
11110001
1111011100
1111111110101010
1010010
1111111001101001
1111111011100101
101011000
