1111110000110101
1111111011100001
1111111110101110
1110011110
10110010001
1111110111010000
1111111100111110
1111111100000000
1111111111100011
1111011011010011
1111101001010000
10111011110
1011101110
1101
1111101110000010
100101001
1111110000100111
1111111010000011
1111111110000000
1111111000101010
1111000111
1111111100101000
11100011000
1111110100110110
1111111101001001
10000000010
1111110011100011
1111111011111010
1111111110101001
1111111001001011
1111101111011101
1111110111101001
1111110010110011
1010011
1111111010111111
1100001110
10111001000
110011100
1111111100101010
1010001000
1111110010000001
10100001
1111111100010010
10111100110
1111110101011011
1111100100011111
1111101111001111
1011101
100010000
1011110
1111111111011010
1111111101001111
11010100000
100011010101
11100011
1111111010101001
1111111100101111
1111110100000111
1111111100010001
1111111010001000
111
1110000110
11011011111
1111101111010110
101111010
1100
11000011
1111101100
1100010101
1111111110011100
1111111000101100
1111101011110101
1111101011011111
100111011
101010010
1000111001
1111111110100011
1111101010110011
1111111000110001
1111100101001010
1111101100000111
1111110101001110
1111101111111111
10110001101
100001000
1100100000
1011101
11000110100
1111101101101000
1100101101
1111111000101111
1111100100000011
1010001
1111111111000100
1111111011110110
1111011110111101
1101111011
1111110111111011
1011001001
101100000
1111110110010101
1111110011110111
1111110001001001
1111110011111010
1111110010011110
1111101111001000
10010
111011101
1111111010101001
10000111
100000
1111101000100110
1110011001
1111111011011100
1111101110110000
1111110110100111
1111101000011001
1111100010001011
1111111111000010
1111111111101111
1001100000
101000110
10010100011
1111101110101000
1011100100
1011111111
1111110001111000
1111111011010101
