1111111101100010
1111100010110010
100100101011
1111110100011100
101001100011
100000101001
100011010
10101000
10111011
1000010010
1111111000011001
1111111001100111
1111110010111000
100
1111110111110101
1010010111
1111101101001100
11110110001
1000110011
1010101001
10110001000
100110001111
1111101100011000
11011101101
1111110000110000
1111111100111100
1111111011001011
1111110000100110
11010111
1111110011101001
1111100110110100
1111110101101000
1000010100
1111111000111100
1111110011010010
1000010000
100101111
1111110010110111
1111110010010001
1111110101001000
1000111000
11111100
1111110010010101
1111011111001001
1111100001100111
10010000011
1111111010000100
11111001
1011110100
11010100000
11001011001
1111111011100000
1111011010
1111100110011111
10011010011
1111111001100101
1111110100100111
1111110101111000
10001110100
1111100100110101
10001010111
1100000101
1001100
100000001
