11100100
100011001
110011
11001110
11010010
110111
1111111110001010
1111111110000101
1111111000111100
1111111001000000
1111110111111101
1111110011011101
1111101111111011
1111110010000001
1111110010101100
1111111101010011
1111101
1111111110010110
100010000
110010
110111
10001011
1111111101010110
1111111110110011
100000010
111001001
110011111
1011110100
10001010
100011010
10101110
101111
11111000
1000001
1111111110110101
1111111100100100
1111111011100001
1111111000110011
1111110110100101
1111110110010100
1111110011111001
1111110100110011
1111110100000110
1111111011010000
1111111111000001
1111111100110101
101001
11001011
1100101
1111111111011001
1111111100111101
1111111111001100
111110000
1000000101
101101000
1000010001
10111
1111111111110000
1111111111010100
110101
1111111110000110
1111111111110111
100100011
1111111001000110
1111111111100000
1100011
1111110111000011
1111110110001001
1111110111010110
1111111000011000
1111111001111110
1111111011001011
10000010
1111111100000110
1111111101010100
10000010
1011000
10000
1111111101111001
10000010
101010101
110101101
1111111
110001011
10001010
1111111111001100
1100010
10111011
1111111111100000
1111111100110100
1001110100
1111111101001110
11001011
11100010
11
1111110100000111
1111111101001001
1111110011001000
1111110100110110
1111111111111110
1111111110000000
11000111
11111000
101100001
1110110
1111111111011101
1111111111101111
1111111101010100
1111110
100110101
11011011
10100111
1111111110010000
1111111111100011
100000
10001000
1111111010110001
1111111011110111
110100100
1111111110101110
11111
100111011
1111111110001101
1111111001100000
10110110
1111110110011011
1111110001000101
1011110
1111111111111011
110001000
1001100101
111001100
111010001
1111111100110011
1111111001110000
11000
1111111101100000
101000000
11010010
1111111100101000
1111111110000001
1111111111110000
1111111100111101
11110111
1111111101010010
1111111101110101
1000111101
1111111010110010
1111111111111001
111101001
11011000
1111111110001010
1111111100011101
1111111001001101
1111111001110010
10110
101111111
10000001
1111111010101111
10101101
101000110
1111111101111000
1111111000110101
1111111110001100
1111111101100101
1111111111001101
1001001
1111111101011010
1111111100100000
1111111101001001
1111111111000010
1111111101101111
1000011
1111111110010011
1001100100
111001
1110011
101010000
1111111101110111
1001100
10001001
1111111011101011
1111111101000000
1111111011000101
1111111010011101
1111111110010010
1111111000000000
1111111111111011
100000010
1111111001111111
1111111010110101
1111110011001101
1111110011100101
1111111100111000
11011
1111111100111100
1111111110101000
1111111110001001
1111111101001010
1111111111110001
10011101
1111111111001100
110100100
11010111
1111111111000011
1000011111
1111111110100101
101010111
1100000011
1010100100
100000011
100110001
1111111011111110
1111111001111110
1111111010011100
101000001
100000001
1111110111000101
0
1111110001101000
1111101101000111
1011101
1111111100101000
1111111101110100
1111111011111001
1111111010101001
1111111011100110
10011111
1111111101100101
1111111100101010
111100
111101110
1111111110011110
101110
100010
100010100
1101101101
1100110111
101110010
10110010
1111111101110111
1111111011001010
1111111001101001
11100
1111111001000011
1111110100011011
111110
1111111000110000
1111101010100111
1111110111000100
1111111110110101
1101110
1111111110000011
1111111101001101
1111111100111100
101100
100100
1111111101001000
11000000
100001000
100011000
1111111101011100
10001001
1001000
111011100
10111000
1111111100010100
1111111100001100
1111110110010111
1111110001110110
1111111110001000
1111111011100010
1111111000100101
1111110110010011
1111111111111010
1111111111111000
1111110001111101
1111101111011110
1111110110110001
1001101
10101
1111111011001101
1111111111011101
111010
1111111100010110
11010
11100001
100111010
110010100
1111111110111011
10110001
100100001
111011
1111111011010111
10011110
1111111000101010
1111110011011110
1111110101110011
1111111110011011
100101001
1111111110101101
1111111000000101
101100110
111001
1111110101000101
1111101011000000
1111110010001100
1000010
1111111111110010
1111111011101110
1111111110011010
1111111101101111
1111111
11010111
1111111100101101
11010000
110101
1111111100001000
111110
111
10001100
1111111101010011
10001110
1111110111010001
1111101110110111
1111110111111111
101010110
110000001
1111111101101100
1111110111010010
1110000100
110001
1111111011010011
1111110000111011
1111110100101100
111011
1111111110011101
1111111100011010
1111111111010011
1101010
10110111
1111001
1111111101110111
100111
1111111110011000
1111111101100000
111011
1111111111000001
111100
1111111110010110
1111110111101110
1111111010101011
1111101111111011
1111111001101000
1111111111011110
1111111001100100
1111110001001000
1110000
10010101001
1111111101100101
1111111101000010
1111110001111000
1111111111010110
1010110
100110
1111111101010001
1111111110001010
1111111010110001
100000
1100010
1011
10101010
1111111100100001
1111111111100110
11100000
1111111
1111111101110001
1111111000110001
1111110111111001
10001100
1111110111110101
1100000
10111010
1111110010100100
1111101010100001
10000111
100101100
1111111001001000
1111111110000010
1111111001100100
110
1111111100011011
1111111111110010
1111111101001011
1111111111100000
1111111011111110
1110
11101101
11001101
111001
10111001
10111110
10111111
1000011010
1111111110010101
1111101101111111
1111111011000101
1111111111110111
1111111000011001
1111111101001001
1000011100
1111111101100010
1111110101001101
1111111101100011
10001110
11101110
1111111110101010
1111111101010011
10100110
110
1111111100100101
1111111111100101
1111111111001011
1111111011101011
1111111110101101
100100001
100011000
10101101
1001111
1000010
111111111
1110001111
111110110
10101111
1111111011010100
1111110111000000
10011100
1000101001
101000010
111000001
1111111111000101
1111110100110111
1111111110011011
10010001
1111111101010011
11101101
10001011
1111111111111000
1111111011100100
1010000
1011
1111111110001000
1111111100110000
1111111011100110
10000000
110011000
10011
1111111101011000
1101000110
10010111110
1100000000
111001101
1111111010110111
1000110
1010101
1000000
10011011
1000100100
1111111100011000
1111110101111011
1111111101011001
11000010
1000011001
1000011
11000010
10110
1111111111001110
1111111110011110
1000100
1111111111010000
10000
100010
1111111111000101
1001100
1111111100010110
1111111011010100
1001100101
1011011110
11001011
110010100
110111000
10011010
1111111010111011
1111111001011110
1111111011111001
1111111101011111
1111110100111011
1011100
1111111000111101
1111111111101011
10010001
110110
100111100
1111111111011010
1111111010000111
1111111100111110
1111111111001111
1111111100000001
10010
1111111011010001
1111111111010101
10000000
111
1111111111110111
110111111
11111001
1111110
100001100
100001011
1111111110100000
1
1111111001110111
1111110010011010
1111110100101111
1111110111001110
1110000
1111111100010000
1111111101011011
100111111
1000001100
1011011
10011011
1111111011000001
1111111011000010
1111111110000001
1111111000101000
1111111010001110
1111111011011011
1111111011001000
1111111101111111
100100010
11110010
101000100
101010
11110111
1011111011
1101010111
10110110
110111111
10001
1111111101101110
1111110110100001
100010
1110010
1111111010100100
1000010
1011110110
101100000
10011101
1000101
1111111011001101
1111111111111000
1111111111010100
1111111010000000
1111111011000011
1111111101111100
1111111101110001
1111111100111010
11000000
101100100
101
1111111101001000
1001111
1101110010
1011101111
1000010
1000011011
100001000
10100100
1111111110100001
101011101
11110110
1111111101001111
1100010000
111100001
1100101
1111111111101010
100111
1111111100011000
1111111111101100
1111111101011101
1111111011011000
1111111100101100
1111111111011010
1111111100110100
1111111101000100
10011010
101110010
1111111110010011
1111111010100101
1111111010110010
111110000
1000111100
111011011
1001110000
101101101
11001010
10110110
100010110
1010
11110010
1010010111
110010000
100110010
1111111111110001
100010
1111111011101110
1111111101011011
100001
11101
1111111110000010
1111111111010011
1000
10100101
1001111
10110
1111111011110111
1111111111110001
10001110
1000110000
1010111011
110000101
1101001110
1011011011
11100011
1111111111000010
1010110100
11110011
1100101110
110111001
100001000
100011001
1111111110000110
1111111011010101
1111111100000110
10110011
1101110
110001
1111111111010010
100000000
10010
1111111110010011
11010000
1010100
1111111110100011
1111111111101000
110001011
1011101000
1110001110
100100010
111110110
1000000111
11111111
1001100011
111000111
111111101
101011010
1111111111000000
1111111111011001
11
1111111100010011
1101001
1111111111011110
10111010
1111111101101110
11100010
110101110
100001110
1111111100001011
1111111111101000
1111111111111110
1111111100111010
1111111000101001
10111111
0
111011001
100110101
101001010
111110100
1010010011
10010000
1001111001
100110100
1000100100
1111111101010010
1111111001001111
1111111111111010
1111111111100110
1111111111011111
1111111101111010
1111111101010010
10101011
1111111011111001
11010100
1000000101
11011000
1111111001011110
1111111100111100
1111111110001011
1111111000110001
1111111100110100
1111111111000110
1111111010110100
1010
10110100
10011111
10100001
1000010
100011010
1111111111101010
1111111111101110
10111
1111111100010110
100
1111111011001100
1111111110100111
10001
1111111100101100
100010
1111111010011111
1111111100110100
10011001
101010111
100100111
1111111000010101
1110011
1000010
1111111101001010
1110100
1
1111111110010000
1100110
110000
100101011
11001110
1111111111110101
1111111111010100
1111111101001010
1111111101000101
11110001
1011
1101101
11100101
11011010
10111110
1111111100111110
1111111111100000
1111111100100110
11011100
110101110
101000000
1100010
1111111011001001
101
1101111
1111111010101100
11111100
111101101
1011011110
1010011001
10011111
1010101101
1111111001111000
1111111011000110
1111111110001101
1111111011101000
1111111111101111
11100000
101010
11011011
100110000
1111111110001010
1111111100011101
1111111011111010
