11100100
1111111110010010
1111111101000000
1111111110111111
1111111110011111
100001000
1111111111011010
1111111110110111
1111110111111011
1111111010100111
1111111001111001
1111110110110100
1111110111111101
1111110111001000
1111111110010000
11000100
1000011101
11011
101000000
1111111100010110
1111111011000111
1111111000001110
1111110100110111
1111111010100101
1011111
1101001010
1100110011
10101110010
1111001
1111111111110000
100011
1111111111101001
1111111101110011
1101001
10010000
1111111011101000
1111111010000110
1111110111111101
1111111001011111
1111110111000111
1111110110011001
1111111011000111
1111111001011010
1111111111100110
10101001
1111111010110100
11010
1111111111011101
1111111000001010
1111111100010101
1111110101100000
1111111001100001
110000
1000101011
1001111110
1101111001
1111111101010001
1111111110110000
101100
1111111111010001
1111111101101000
10100000
11100
1111111000111110
1111111011101001
1111111010100111
1111111000111111
1111110110001111
1111111000000000
1111111001100111
1111111010001111
1111111100111011
1111111111001110
1111111101000011
1111110111110100
1111111100101101
1111111101000111
1111111000110001
1111110011111101
1111111000100100
1110011
101100101
11101001
1100011111
1111111100000010
1111111110100101
1111111100110101
1111111111100111
1111111111000100
1011
101001111
1111111011011111
1111111101011011
1100101
1111111110111010
1111110101111010
1111110110001011
1111110001111000
1111110110100010
111111
1111111000110100
1111111101010101
11111
1111111110110101
1111111110000001
1111111100101000
1111110101101011
1111110111000110
1001011
1101001
1000101
1010110001
1111111011101000
1111111100100110
1111111111100111
101011
1111111011101101
1111111100101110
11101010
1111111110010100
1111111101110000
11101110
101011
1111111001011110
1111111010111001
1111110101101000
1111110000000100
1111111011110000
1111111100111110
11110011
1010101000
101100010
110100
1111111100000001
1111110111000000
1111110111011101
1111111110110110
10111010
100000100
100010101
1111111100111100
1111111101101100
1111111101111111
11
1111111111100011
1111111101010011
11110001
1111111111000111
1111111111001011
1111111111000000
1111111100011001
1111110101111000
1111110111101111
1111110110011110
1111111010111011
1111111100101100
10010001
101011010
1000111
1000001010
100010010
1111111111000011
1111111001000100
1111111100101000
1111111000000001
1010101
1001110
1
1111111111100011
1111111101000110
1111111100111010
1111111110001100
1111111101010000
1111111010111001
100001101
10101111
1111111110010100
1111111111000110
1111110101101110
1111111000111110
1111111110101001
1111110110010101
1111111101010000
10111
110010001
10110011
101100
110010011
11010011
1111111011101000
1111
1111111001110010
1111110010110000
1111111110111001
10000
1111111101010011
111000
1111111100100100
1111111111001001
101011
1111111111100101
1111111010111100
1111111101010010
10111101
1111111110010111
10101001
1111111010010111
100010101
1001101000
1000101101
11011010
1111111110000000
1111111111111010
1111110111011101
1111111011011010
1010100101
11111110
1111110101101010
1101
1111111010010101
1111110010100010
1111111000011011
1111111101001010
1111111101010100
0
1111111100101110
1111111110010110
1101011
1111111110001111
1111111010111111
1111110111110001
1111111111111111
1111111111011011
101111011
1111111100101001
100010010
1110010111
10101100101
1010001000
1111111110110001
110111
1111111101011101
1111111010000001
100101110
11110
1111111000010011
1110101
1111111100100001
1111101101100010
1111110011110010
1111111101000100
1111111110100010
1111111110110010
1111111100010110
10111
1011110
1111111101010101
110011
1111111011011110
1111111110011011
1111111111101110
1111111111100001
11000011
100011101
1011101110
1101100100
1010001110
10111100
1111110110011000
1111110011001110
1111111001110000
1111110111011101
1111110111001011
1111111100111111
1101110
1101011
1111110101010101
1111110110000110
1111111000010011
1111111111001100
1101101
1111111011101101
1000100
1100000
1111111100111101
1111111110000001
1111000
1111111111100000
1111111111101010
1111111110001110
1111111111110111
110010011
101001110
1111111110110001
110111000
11001001
1111101101110100
1111110000011100
1111111010010110
1111111111000000
1111111011011110
10011001
100111011
101110110
1111111001001101
1111110100011110
1111110100111110
1111111111010101
10000011
1111111101000011
10010101
111001
1111111010010110
1111111111100101
1111111011100000
1111111111111101
1111111101010110
1111111010011011
1111111110011110
1101100
10011101
1111110111111001
1111111101000101
1111110011101101
1111101110110110
1111101111110101
1111110111110010
1111100
1111110101110110
100010001
1101100110
110000010
1111111001100001
1111110100001101
1111110111001110
1111111101110011
1111111110001010
1111111110110110
1111111110111101
1111111100110000
1111111011001101
1111111101001100
1111111101110111
1111111110101001
1111111001100000
1111110110010000
101111
1111111111001010
10000110
10000000
1111111001001000
1111110010001101
1111101111011100
1111110010000010
1111111111111001
1111111010001101
1111110000111001
100100110
1100010100
1111111110000110
1111111100000101
1111110011100011
1111111111100101
1111111101010111
1111111011110110
1111111100110111
1111111110110010
1111111000000000
1100111
1111111100010001
1111111100110111
1111111010110011
1111111100110010
10100110
101110010
11001101
1111111110110100
1111111101111111
1111111110111011
1111110110110011
1111110111100110
100000000
1111111111110010
1111111001100000
1111101110011011
1111111110010011
10001100
1111111101011100
1111111110100101
1111111111011011
1011100
1111111011011111
1111111101111100
1111111101111000
1111111100110011
1111111011111010
1111111110110111
1111111110111001
1111111101011001
1111111111010000
101000100
111011100
10001001
11101110
1111111101111001
1111110110000001
1111100
1111111111001011
1111111011001110
1111111101010111
101100001
1111111101000000
1111111100011010
1111111010111110
1111111110111110
1000011
101010100
11001
101001001
1000101
1111111101101010
100111
1111111110110100
1111111101001101
10100
1111111101000010
1111111110000101
1111111101101110
10111001
11111101
11100010
11110010
1111111110011010
100110
10110
1111111001101000
111111
101010101
1001000000
1011010101
100000100
1111110101100001
1111111101011011
11111000
1001100110
100111001
10101011
1111111111110111
1111111010101001
10111
1111111111001011
1111111101101011
1111111110111001
1111111110100000
1100111
1100000
1111111111111000
1111111111011010
1001110111
110111111
1111111111110100
1010110001
1111111101011100
1111111010100111
100101101
1011011010
101000110
1100110101
1000100001
1111110111100011
101111
111011000
1100101111
100000110
10011011
1111111100011001
1111111000010110
1111111110111101
1111111100100000
1111111011001101
1111111101101111
1111111101110010
1111111110110001
11100011
1111111100000101
101100
1000100111
1000101101
1111111101010001
1101110
1101
1111111010011100
1111110101101101
1111111010110011
1111111110111111
11101111
1111111100011011
1110101
1000010
110111011
101001011
111001011
110101010
1111111011011110
1111111010001110
1111111011110110
1111111101011000
1111111011110111
110110
1000001
1111111101010110
1011111
11001
11011101
110100001
100101100
1111111100101001
11000
1111111111011101
1111111110001000
1111111010010110
1111111010010101
1111110011000100
1111110111010111
1111111000110000
110000000
101101011
10111000
10001001
1000011100
10011010
1111111110000011
1111110110111101
1111111011110011
1111111101100101
1111111101111110
1111111100100001
1111111110110110
1111111100111010
1111111111100011
101000110
101100000
11100110
101011
1111111110111000
100010011
10001101
10001111
11000101
1111111100101000
1111111000111001
1111111010110010
1111111111111010
11010110
100011111
110100011
1011110100
110011100
1010000
1110110
1111111011111010
1111111101110100
1111111101001111
1111111110001110
1111111011001110
1111111101111010
1111111100101100
1111111101010000
11110111
10001011
11110100
1111011
100100
1010111110
10011010
1111111111110101
111110101
1001100
11100001
1111111101100110
1000100
110010110
101110100
1010110111
1100011110
1000000010
1111010
100111101
1111111011101100
1111111110100000
1111111101110000
1111111100101111
1111111100001011
1111111101000111
10000
1111111110001111
10011110
101000000
11
1111111100001011
1111111100010001
11111000
100000111
101011010
101110001
110000001
111110111
1011010
101101100
1001101100
100010101
1011011010
1001001100
111101001
111
1111111110110100
1111111100010000
10011011
111011
1111111110011110
1111111101111011
1010011
111101
11000111
100010011
110000100
10011110
11000111
110011011
11110001
100010111
11000010
1001101110
110011000
1100010
100010
1110011011
110000001
1100000110
1101010110
101100000
11110100
1111111101111101
11100000
1111111110010010
110001101
101001010
1100100
1111111111000011
10111110
10010001
110001
100010011
110111111
100100011
11101001
101101001
100001111
11011110
11011111
110010111
101010100
1001101
1010000011
111111000
1001101010
1000110011
110110100
10111000
1111111111111100
1111111111010000
110001110
1011110
100010011
100001
11111110
110010010
1111111111110000
1111111111001101
1111111101001100
1010011
11010110
1111111111001000
100000111
10101000
10011010
111010
110110010
1001101000
1111111110100101
1001100
10011110
1111111110110010
110110011
1111111110101110
1111111111010110
1111111110011001
10000010
11000
111001
100010110
1000010111
1111111110100110
100101110
110110110
1101010
1111111011001100
1111111001000101
100000111
1111111111000110
1000100
111010010
11100010
1111111111100110
1111111011111011
101110101
1111111110000111
1111111010100000
10111001
1111111101111010
100100010
101001000
1111111111011001
1111111111001100
1111111100111000
1111111111100011
10111000
11110000
11111111
1111111111001110
100100101
101110110
111101100
1111010
1111111010010011
110010
11011011
1001010
111001011
1000001101
101111
1111111111000010
1111111100110001
11010101
1111111011001101
1111111111100101
1100011
1111111111010000
1000010011
1010111101
1000011111
10000100
101001001
101101001
11000010
1111111101101001
11111001
1000000
110101100
111111010
101011001
1111111111001011
1111111111011100
110110110
101111010
101100011
1101110110
1011100000
1110100101
100110110
11111010
1010101001
1111111100101111
1111111101011110
100001101
1111111111110011
100011010
1010001111
11000100
111111101
10100011
1111111111101100
1111111011001001
1111111011111011
