1111111110011111
1111111001001011
1111111101100101
1111111101110001
1111111101001100
1111111111100111
1101010
1111111100010000
1111111100101110
1111111000010000
1111111010101010
1111111011111111
1110100
10000100
1011011
10101011
1111001
11000100
110100100
1000000111
100000001
10010000
1111111100111001
1111111100010001
1111111001000010
1000101
1001000
11101
1111111100111110
1111111101000101
1111111100000011
1111111111100101
1111111011010001
1111111111110111
1110111
1111111110001001
1111111011011001
1111111010010000
1111111001011101
1111111110100011
1111111010001111
110100
1100101
1111111011110011
1111110111100111
1111111100110110
10110110
110010010
10000011
1111111111000111
1111111010101000
1111111000110000
1111111101010011
1111111101110100
1010110
1111111110111111
1111111110110001
1111111010101001
1111111111101101
1111111110111111
1111111110101100
101000
101010
1111111101011100
1111111001010001
1111111010001010
1111111001111101
1111111110110100
1111111100001001
1111111110111001
1111111100110110
1111111110010110
1111110011101000
1111110110000010
1111111110000010
1111111110011100
10100100
1111111110110000
1111111010110001
1111111100111010
1111111111010011
1111111101010111
1100
1111111111001000
1111111100111100
1111111101110000
11010
110
11111
1111111111000011
1111111110000110
1111111000011100
1111111011011011
1111111010010110
1111111100110101
1111111110101101
1111111100010001
1111111110110010
1111110110000011
1111111000110001
1111101101100011
1111110010110011
1111111001001001
1111111000001100
1101011
1111111011001101
1111111000010001
1001011
1111111111101010
1111111110110011
1000111
1111111110000111
1111111111011110
1111111100000010
10010
1111111100110100
1111111111110101
1111111110010101
1111111110010111
1111111100110110
1111111100100100
1111111001110000
1111111011111101
1111111110010111
11001000
1010000
1111110101101000
1111110110011000
1111101011000100
1111110010010101
1111110011110111
1111110100011111
1111110111011011
1111110110110010
1111111010010110
1111111110001111
11100001
1111111110101011
1001000
111000
1111111111001000
1111111011101110
1111111101110100
1000000
0
1010111
1111111100001100
1111111110101010
1111111110011010
1111110101111110
1111111100100000
1111111100001111
11011100
1111111111100001
1111111001100001
1111111000001000
1111110100010011
1111111011010001
1111111011010111
1111111010010001
1111110001100110
1111111001100110
1111111110101101
1111111110101010
100110001
1111111101100011
1111111010000110
1111111010111101
1111111101111000
1111111110000110
100011
1101010
1111111101011111
1111111111011111
1111111011110010
1111111111000011
1111110111010010
1111110101110011
1111111111011011
1111111110011100
1111111110101101
1111111100000101
1111111101001111
1111110111110010
1111111011100110
1111111000100101
1111111111010110
1111111111001101
1111111001010010
1111111101101001
10111110
100101111
11110001
1111111011100000
1111111101000100
1111111111011101
1111111010111011
1111111100101100
1111100
1111111011100110
1111111011100110
1111111110001110
1111111110110101
1111111101000110
1111111101010001
1111111110100011
1111111111000100
111111
1111111000011001
1111110010111001
1111110111100101
1111110010011101
1111110110111100
1111110111011110
1111111110110111
10011011
1111111010110011
1100011
110011000
100111001
1111000
1111111101011010
1111111100011100
1111111101011010
1111111111001011
1111111111011111
1111111100100101
1111111011011101
1111111111000110
1111111111100111
1111111101011010
11110100
101001010
101000000
10101010
1000
1111111110101011
1111110011100110
1111110111000110
1111110010000011
1111110111110101
1111111101011110
1110011
110010001
110111000
101100101
1111111111011110
11110011
110010110
111110
10011111
1111111101010110
1111111011010001
1111111100110011
1111111110000101
1111111101010111
1111111101001100
1111111111100000
1111111111010101
110000010
10100010
100001111
1000111
1111111111100101
1111111100100110
1111111101001111
1111111111101110
1111111111011110
1111111111101000
10001101
1000000001
111100110
1000111010
111011011
100011011
101111001
110111011
110101101
100111001
1111111011001100
1111111110010000
1001100
1111111101001111
1111111001110111
1101000
1111111111010100
1111111111001001
110101
10001110
1000100001
101010101
10010001
1111111001000100
1111111000110100
1111111001011110
1111111111101110
1111111010011111
110111
1010111000
1000100010
10110101
1010101110
1001000000
1000011101
101000110
1000011010
100110011
1111111111000010
1111111110101101
1111111110101101
1111111100001100
1111111110000011
1111111110000100
1111111110011001
1111111011011100
1111111111100100
10010111
1011101110
1000011110
10011100
1111111110000110
100100
1111111100000100
1111111010110011
1111111010101101
1101
1111111010011000
101001110
111000100
1100001111
101100101
111100101
1111101
1111111111110111
11001111
1111111100111000
1111111011101100
1111111101000011
1111111001011110
1111111010011001
1111111111000000
1111111100100101
1111111110010001
1111111010101110
11000111
1011001001
1000010001
100001111
10101001
110010011
10
1111111101100111
10011010
111011001
10101
1111111111100100
11010010
110011011
10110000
101111011
1000111
1111111110010110
1101
1111111111010101
1111111000111010
1111111010011011
1111111000001011
1111111011010011
1111111011111000
1111111001110111
1111111110000001
1111110110010101
1101110
111110110
101011001
11000111
101110111
11101011
1000001001
1100111
100000100
110010100
10010100
1111111100110100
1111111101111100
1111111110110001
1111111110111100
100000111
100011010
1111111111100100
1111111110101100
1111111110011111
1111111001111000
1111111010101010
1111111001110001
1111111100100010
1111111010010000
1111111100000100
1111111010000001
1111111010110000
11
11011100
11111111
110011
100010
10111100
111001000
11100100
111100100
1000000100
100101
1111110110001111
1111111001111011
1001111
1111111111011110
10101101
11111101
1111111101000110
1111111101111011
1100
1111111010000011
1111111001111111
1111111001101001
1111111100010100
1111111011101111
1111111010011100
1111111100001110
1111111001010100
1000000
11011110
1111111110110001
1111111111111000
1111111000101011
1111111000111001
11010111
1010011101
110011001
100101011
1111110
1111110011011100
1111111001001110
1000001
10010110
111101110
11000111
1111111111111001
1000010
1111111011001111
1111111000111011
1111111101101000
1111111110010101
1111111111011000
1111111110111100
1111111011001010
1111111100010010
1111111010110010
1111111111010111
11110
1111111100100111
1111111010000110
1111111101000000
1111111110011001
101101001
101100110
111001001
111000001
1111111011100100
1111101100100011
1111111010011110
1111111111011110
1000100011
111011100
1001110
1111111110001110
1111111110100000
1111111100001100
1111111011010010
1111111111110011
1111111011111111
1111111011000101
1111111011001110
1111111110010111
1111111101011110
1111111010011000
1101011
10010101
1111110101001110
1111111011010000
1111111111010110
1110
100000101
1111111100111010
101101101
1111111111010011
1111111000000000
1111111001101100
1111111001101011
1111111101110100
11100001
101001010
1111111111001101
1001110
1111111101010111
1101111
1111111101001001
1111111011001100
1111111100111011
1111111110110101
1000
1111111111101000
1111111111110111
100001
1111
100001
1111110101110110
1111111010101010
1010011
100011100
111110110
110000101
1010010100
11111100
1111111010011111
1111111001100011
1111111000100000
1111111000010000
1111111111010001
11110111
1111111110100100
1111111110000010
1111111111101101
1111111111011000
10101100
11110
1111111111010100
1111111111011000
10110101
1101101
10111110
1010100
1111111111101110
111
1111111010001011
1111111000010010
1111111110001111
111110
111011
11101111
10000001
1100110
1111111010100101
1111111000110100
1111111010010011
1111111000001011
101000001
100010
1111111101110001
1111111111000100
1111111011010101
10000110
1011101
1111111111001101
1100100
1100101
101001011
100000111
10011100
101101010
1110010
1111111010110111
1111111010000010
1011011
1111111101111111
10111
1111
1011100
1001101011
1000001101
1111111100111100
1111111011101111
1111110111011010
1111111001010011
1111111111101101
1111111011011011
1111111110100011
10110
1111111101000100
1111111111101110
100000
100000011
10000000
110100111
10110010
11010100
11011000
101001010
1111111101111011
1111111010101010
1111111011111111
100011011
1100111
11000110
110000110
110101000
1000111100
100001000
110001
1111111100100110
1111111011001001
1111111100111110
1111111011111110
1111111011000010
1111111110111111
1111111110110000
1111111110100010
10000011
10101011
1111111110000010
1111111111110001
10001100
11100100
11100100
100100110
110111001
10100111
1111111101110000
10011101
100110011
11100111
110111000
10110100
11000010
1010101
100110000
1111111101110111
1110111
1111111110011011
1111111010011011
1111110111110011
1111111000101000
1111111111011001
111111
100110011
110001010
1101001
1111111101001110
1000010
1010110
100000001
1111111111100110
1111111010111001
1110011
101110
1011010
1111111101111101
11010001
111110
100001111
1111111001010010
10110101
110011101
1111111111111110
1111111010111100
11110011
1111001
1111111100001001
1111111110010001
1111111011101110
1111111111011111
1111110
11100000
101101101
1111111111111100
1111111110000010
11000101
110110
1100110
1111111110001100
1111111011001001
1111111111100101
1111111101110011
1111111101101101
100110
1111111101001011
111100
1111111101111111
1111111010101000
11101110
111110101
1111111011000111
1101110
1000110
1010011
1111111110110111
1111111011100010
1111111001111011
1111111110111010
10
1000011100
1000000110
10100100
1111111110001001
1010000
1111111001100111
1111111010011010
1111111011111110
1111111111010111
1111111011101011
1111111011011111
1111110110011100
1111111110000111
1111111110000111
1111111101101111
1111111101101011
1111111110101011
101111010
11010110
1111111101111001
100011001
1101101
100101
10001
1111111011110000
1111111001010101
1111111110000001
11
100011000
1100011
110100010
11010111
110011
1111111001111010
1111111001100011
1111111001011111
11010101
1000
1111111011111111
1111111001000101
10011111
1111111110110001
1010100
1111111111110101
11011011
100001010
1111111110010101
1111111110101110
1111111110000111
11011111
101100011
10011111
1111111100101001
1111111010100111
1111111101100011
1111111110101011
101101
1001
101010001
100100001
1111111111000010
1111111011101110
1111111110101110
1111111111011100
10111001
1011001
1111111111101011
100110
101000
11110
1111111100110010
1111111110110100
11110111
11001111
10010010
1111111011100111
1111111010001101
1111000
110011
10000100
1100
1111111011000111
1111111010000110
1111111110011011
1111111101110111
1111111100100000
