10010101
11101
11001111
101000
1011100
1000111
1111111110101110
1111111011100010
1111111101011111
1111111110110111
1100100
1111111110000001
1111111001010010
1111111001111111
1111111010110010
1111111111111011
1000101
1101000
1111111010010110
1111111010101110
1111111011100001
1111111110000001
100011
10111010
101101110
100011010
110010000
1011110100
1111111111100100
11101001
101
1100000
1010010
1111111100100101
1111111101010110
1111111011110110
1111111111101100
1111111110101101
1111111101010110
1111111101001010
1111111111100111
1111111100000110
1111110111000001
111010
11001110
1000000
1111111010100001
1111111101100010
1111111101011110
1111111110110100
10001000
110101111
110111110
10000000
111101011
110100110
1010001
1111111111011100
111
1111111110111011
1111111101110100
1111111100011011
11000
1111111011111111
1111111101111101
10011
1111111100110000
1111111110110010
1111111111001111
1111111110101010
1011111
11011010
1000111111
101101001
1111111111001000
1111111111000110
101000
11010001
1111111111101000
101010
10101010
11011010
11110000
1001000101
10110
1111111111011010
1111111101111011
1111111111100010
110
1111111111100010
10010
1111111110011000
1111111111100110
100000110
1110101
1111111100011101
1111111101100000
1111111100010111
100001101
1001010000
1100101010
1000001111
1010010100
100100011
10010000
101011000
10111100
1101111
1111111111110101
10001100
11001100
101100000
1111111111010001
10110001
1111111100101011
1111111111010101
1110011
1111111110000110
101100
1111111101010011
1111111110110011
110111101
1111111111000110
1111111110010100
1111111101110000
1111111110101001
1111111111111100
1001000101
1111011101
1101011100
1111110001
1111010100
1100000111
101110011
11011010
1110
11000
1111111111110111
10101010
1110110
1111111110010100
1111111110101000
1111111111110100
1110
10110011
1111111111010100
11001000
1111111010101001
1111111101000000
100100101
10101111
1111111011101111
1111111000110001
1111111110101011
1111111110101110
101111111
1110100101
1010010000
110111110
1001011010
1101110011
1001010100
11101110
1111111111111011
1111111010000010
10001
11111000
11101100
1111111111010011
1111111101011001
1111111110001000
1111111101111110
1101111
1111111110010010
11001001
1111111110010100
100001
101101011
1111111100001101
1111111100011111
1111111100101010
10101
101011
1001001010
1000000000
110110011
100010001
111101101
1100101101
100101011
1111111100111101
1111111001110001
1111111100011101
10100010
11000010
11101001
10
100111
1111111101011101
11001100
1100100
1111111110001010
1111111100111111
1111111110111111
1111111101110011
1111111100111100
1111111001110001
1111111110110101
1010110101
1111000110
1101010101
1101111011
1000011101
100100011
10010111
101111011
1001101011
1111111100000001
1111111010111111
1111111010110001
1111111000011110
101010000
11001000
111010010
10111111
1111111110110101
10001101
11001110
1000
1111111100010001
1111111100010001
1111111101010111
1111110101110000
1111110111001000
1111111011100101
1111111111000111
1000010011
10011111111
1100001010
1011010010
111011010
101110100
1111111010110111
1111111100010000
1111111000000011
1111110111000111
1000010
1111111101000101
1111110010011110
1111111011000101
1010000
101001001
10000011
1111111101011010
1010001
10110001
1111111101110001
1111111101100100
101010
1111111010000110
1111111001110111
1111110110010100
1111111001100001
1111111101100111
110010101
1111101100
1100010
1110000
1111111100011000
1111110101001010
1111110110110100
1111110001011010
1111110001001010
1111110011000010
1111111001010111
1111111011000101
1111111001011110
1111111001101011
1111111100111100
100101101
10000010
1111111101010101
1111111111101111
10011001
1111111101001010
1111111101110010
1111111111010010
1111111101110100
1111111011100110
1111110010011011
1111111011001010
1111111100011110
100011001
110110110
100001100
1111111100000101
1111111100111100
1111110011010100
1111110011011101
1111110111011011
1111110110111010
1111111000011100
1111110110011111
1111111011010101
1111111001101010
1111111001010111
1111110111110010
1000
101110
1111111100100000
10111111
11101111
1111111100011100
1010001
1111111111011100
1111111111110111
1111111001100110
1111110000001111
1111110101110000
1111111011000111
11011011
1111111111001000
101001111
1111111101111110
1111111011010110
1111110100011100
1111111111001001
1111111010011101
1111110100000110
1111111000110000
1111111111000100
1111111001011100
1111111101111100
1111111101011011
1111111011001011
11111100
10001001
1111111101101011
11110000
1110010
101110
11111100
101010
100010110
1111111001001101
1111110010111111
1111110101100001
1111111000100100
1111111100011010
1111111010001010
1111111010010011
1111111101101010
1111110110001010
1111101110111011
1111111100000010
1111110111101000
1111110100001010
1111111010100011
1100111
1111111010100001
111011
1111111101110011
101010
1111111111100111
100000011
11100000
10010100
1011010
11101001
110000000
11000
111100000
1101001
1111111010110011
1111111110110010
1111111011110010
1111111000010010
1111111010010111
1111111001000010
1111111010011000
1111110011000100
1111110111001101
1111111011111000
1111111100111001
1111111001000011
111
11101111
1111111111010011
10111
1111111101011011
111111100
1111111101101100
11100000
1111111111011011
100011
1010110
100101000
101110111
1111111111110111
111000000
10111010
111111
1111111110111011
1111111011111111
1111111100101101
1111111001010001
1111111010101110
1111111011111001
1111110100100101
1111110011110000
1111110111110011
101011011
1000001
1111111110011111
1111111111010010
11010101
1111111100011111
100110
101001011
1111111111110100
10000101
1111111111010010
1011110
10110011
100111001
101010001
100111000
110100101
11011100
101011000
1010000
1111111111111101
100100110
111000100
1111111011011111
1111110111001010
1111111010100010
1111111000110010
1011
1101111100
11100101
1111110111001011
1111111111010110
1111111010001001
1111111111111111
11111110
100001100
1111111111000001
10100100
1011110
10011010
10000
111
1100101
111000001
1100010110
110000111
10010011
1000001110
110011100
1111111111111111
10110011
1111111110011100
1111111100011001
1111111011000111
10111001
111010110
10011100100
1000000011
1001
1111111110011001
1111111100100011
100001110
11110011
10101110
1111111110000101
110110
1111100
1111111111010001
1001001
100011000
101000000
110011101
1000011111
11001101
11111000
1110110010
111010011
1111111100101010
1111111010101000
1111111101000100
1111111101000001
1111111010000100
11110000
1011001111
1010100000
11001011
101011100
1111111110100000
1011010
10011101
10011010
100001001
1111111100000101
1111111110111011
1111111111001000
1111111110100100
1100101
11000111
10000011
1010010
100110110
100000011
100001010
1011111111
111001010
1111111110001110
1111111000000010
1111110111011110
1111111001110100
1111110111010110
101000
111000000
100010001
11101110
111100010
10110001
1111111011111110
10101001
100001100
1111111111010100
1111111110001100
1111111001110111
1111111110000011
1111111110010001
1111111100001100
1111111100101001
10101111
1100101
1111111110101001
101110010
101001111
1110111001
101001100
1101110
1111111110101110
1111111100011100
1111111100000100
10101101
101000101
1001001011
1011000111
110000101
1000000001
0
1111111111010110
101000101
11010100
11001001
1111111011110011
1111111100110000
1111111101111011
1111111100101000
1111111100110000
1111111101001110
11110
1110111
1111111100000001
100000101
100101101
1000000001
111001
1111111111011011
100110101
1111111111001110
111110
1111111101011110
10100101
111000101
100110000
101110000
101110110
100101001
111100110
1000110
1111111101001110
10001010
1111111110111000
1111111110011111
1111111101011100
1111111111001101
1111111011100010
1111111011001111
10000
10111
1111111111100010
110100111
111010110
110111110
1111111010101001
1111111101100001
1111111011001010
1111111001110001
1001010
1111111100110111
10101101
111110011
11100110
110010010
10001001
101001011
1001011100
110101
1001011
1111111111011011
1111111100101111
1000000
1110010
10010110
101
1111111110011101
1111101
10011001
1111111101101110
10011110
100001010
100100001
1111111100000100
10011100
1111111011101100
1111001
11100110
100101001
111101010
100010000
1111111011101011
11010111
1111000
110101101
110110110
110111
1111111010101011
1111111000111001
1111111010101010
1111111111101100
100000111
110011100
1110010
1111111101011001
11100111
10110100
11000010
100010110
100100101
111011100
111010
10110110
100111010
1011111111
111000101
1111111111101001
111011011
1111111111010001
1111111011101010
1111111100101100
11100
100111000
11101000
1111111110001000
1111111100000001
1111111011111110
1111111011101001
1111111110110101
110010001
1111111111100001
10010011
1111111111111011
10000101
101010101
11000111
111011100
110000100
101011101
111011101
110000001
1001110011
101111101
1111111111011111
1111111110100110
101111010
1111111000100101
1111111000100101
1111111101100010
1111111100010000
1111111101001010
1111111111001110
1111111010111100
1111111101000011
1111111000000001
1111110111011001
11011100
101100100
1110100
110000000
1010001111
11111111
10110001
10000000
1010011101
1010011101
11111010
1000011010
11111011
1000000001
1111111111000001
1111111001100000
1111110111111000
1111111010011101
1111110110011101
1111111000100010
1111111010101110
1111111110011100
1111111100110100
1111111110110110
1111111110100110
1111111010101011
1111111011010011
1111111011001010
1111111110000110
1111111101100010
10101001
11000010
111010000
10111110
1111111111010011
10111
110011000
1001011010
101001001
11100001
11001111
11111
1111111010111111
1111110100000101
1111110111101000
1111111000110100
1111111010001010
1111111010110101
1111111001010101
1111111011101000
1001
1111111111100001
1111111110000010
1111111011011010
1111111011011001
1111111011111101
1111111011011000
1111111110001111
110100011
100101000
1100010
1
1111111100010100
1111111111111100
100110111
1001110
1000000010
1011000100
111100011
1010010
1111111000001101
1111110111010011
1111110101001000
1111111011100001
1111111101010001
1111111101001010
1111111011001011
1111111100011100
1111111101001100
1111111101111000
11010
1111111001101000
1111111010011011
1111111100000110
