1111111101011100
1111111101001000
1111111101001110
1111111011011011
1111111010110001
1111111101111101
1111111101000010
1111111010000000
1111111000001010
1111110100001110
1111110101111101
1111111000010101
1111111001101001
1111111100100101
1111111111011101
1010001111
111100110
10011110
100001000
1111111011011100
1111111001000011
1111110111011000
1111110111011011
1111111100001111
1101
1001111111
1001001011
1110011111
1111111111001100
1111111100100000
1111111010101100
1111111100110000
1111111010001011
11010
1111111101011111
1111111000111000
1111110110011101
1111110010111010
1111110100010011
1111111000100110
1111111001011101
1111111100000011
1111111011100011
100010100
10110100
1111111010010101
1111111110000011
1111111010000001
1111110011111101
1111110110110100
1111110100101001
1111111100111010
100
110011000
101100010
1001111000
1111111011001111
1111111110101100
1111111011010011
1111111001011111
1111111101001111
1111111111101000
1111111101011110
1111111010000000
1111110111000000
1111111001010101
1111110110011000
1111110111100010
1111110101011010
1111111000011000
1111111101001000
1110000
1111111111001101
1111111011001001
1111110011001111
1111110110100010
1111110100000111
1111110111111100
1111110100011011
1111111100011000
1100001
100011
11101010
1010011001
1111111101100110
1111111101111101
1111111101110011
1111111100100101
1111111011010101
1111111111000011
1111111110001011
1111111010110001
1111110110111001
1111111011111110
1111111011001000
1111110110001011
1111110101110110
1111110000101110
1111110110001101
11001101
1111111011000010
1111111101111100
1111111010010100
1111111001010001
1111111000011110
1111111000100110
1111110101100011
1111111001111011
11100011
100010
100011
111010100
1111111001101101
1111111101000001
1111111110011100
1111111010100110
1111111011001001
1111111011010110
1100
1111111011101100
1111111000010101
1111111101000011
1111111010101011
1111110011100100
1111110110000011
1111110101101110
1111110100100110
1111111011000101
1111111010111110
101101100
1110011100
1001110001
1001111
1111111100110000
1111110111111011
1111111011011110
1111111111000100
10100101
1111111111110011
1111111111010110
1111111001100001
1111111000010011
1111111110011001
1111111111011000
1111111101010001
1111111100011010
1110010
1111111011000000
1111110110110101
1111110110100001
1111110101100100
1111101111011110
1111110111110100
1111111010010000
1111111101101000
1111111001011101
100110001
110101111
1010110110
10000100000
1010000111
1111111111100100
1111111110010001
1111111110100011
1111111100011111
101000
1111111110100010
1111111001110010
1111111011001100
1111111010000100
1111111100100011
1111111111000011
1111111000011101
1111111011101100
1111111111110011
1111111011111100
1111110111011100
1111110110000000
1111110100010001
1111110011010111
1111111111100000
1111111010110010
101101011
10100
110110001
101100101
110100000
1010010101
1111101100
1111111101110010
101101101
101010
1111110110011110
1111111001011001
1111111101000011
1111111001100001
1001101
1111111001001011
1111111011011100
1111111101110001
1111111010000000
1111111011010000
1111110101011110
10011100
1111111010101001
1111111100011110
1111110111101110
1100111
10000000001
1101011101
111001010
1111111110001011
1111111100000100
1111111000111101
1111111011101000
10010010000
1101011111
1111111001111110
11010100
1111111111111110
1111110011001100
1111110100100011
1111111010011111
1111111111000010
1110111
1111111010010110
1111111100110111
1111111110010011
1111111101010011
1111111011100001
1111110011010000
1111111100011010
1100
11001110
1111111101110111
11010011
1111011111
10110111111
1100110110
1111111111010100
100111001
10101010
1111111101011110
1011001001
1111010001
1111111110010101
100001001
1111111101100001
1111110000011111
1111110011001111
1111111010111010
1111111110101000
1111111111101111
1111111101001100
1111111100011000
1111111011010010
1111111101000110
1111111101110110
1111111011100111
1111111011111101
1111111011000011
10101110
1111111111111111
1001110001
1101101110
10101011110
10010000011
1100101001
1111111101001101
1111110110101000
1111111110000110
11101100
110101
1111111111101001
10101100
1111111110110000
1111110100010010
1111110011011101
1111111000011110
1111111100001011
101
1111111100101010
1111111111001000
1111111010110011
1111111011010110
1111111111100000
1111101
1111111111000010
1111111100110001
1111111101010001
101
1000011101
1001001000
110000001
1010001101
110001011
1111110011000110
1111110001000001
1111111011101111
1000001100
1001001
1000101000
110001100
10110010
1111111000000101
1111110010011101
1111111000001111
1111111110010100
1111111110111100
1111111100001111
110100
1111111101010001
1111111000001110
1111111100111001
1111111100111100
1111111111011101
111011
1111111110010110
1111111100001110
1111111111100010
110011110
1111111001101110
1111111000100000
1111101110100010
1111101111000111
1111101111011111
1111111011100001
1100110
1111110111010111
1010100011
1011001001
101000000
1111110110011101
1111110001110101
1111111010010100
1111111011110001
1110111
1111111101110011
1111111110010001
1111111011100011
1111110111111101
1111111011111111
1111111011011100
1111111110111011
1111111100110101
1111111010011100
110111000
11101100
10000000
1111111111101110
1111110011111101
1111101011001111
1111110100100010
1111110010101000
1111111110001100
1111111001010101
1111101111110100
1000100
11100100
1111111110101001
1111111011111100
1111111000001000
1111111111100000
1111111011010011
1111111101101101
1111111111101100
1111111011011010
1111111000111011
1111111011100110
1111111001100001
1111110111101000
1111111001110001
1111111111100101
111001100
1001010111
1001010101
1111111101010111
1100000
11000111
1111110100010010
1111111000110110
111101100
100110111
1111111011010001
1111110000000011
1111111011111001
111000
1111111101000111
1111111101111101
1111111100001001
110011100
1111111110001011
1111111011010111
1111111100000110
1111111101010011
1111111010010000
1111111101011101
1111111010001010
1111111100101011
1111111101100010
110101001
1001110011
100000111
111000
1111111111100010
1111111101001100
1111
10100001
1111111110011000
1100000
111000111
101001
1111111000001001
1111110111000111
1111111010100011
1111111100101111
100111010
10011
111010101
1100
1111111100010110
1111111101101111
1100
1111111111011100
1111111111010011
1111111100011010
1111111100010000
1111111100111010
10111111
1010110
100100100
1111111101100111
1111111100100101
11001001
1000010
1111111101101101
1111111111110101
1001110000
111010010
1000011110
10011100
1111101101001010
1111111010101010
1111111111110001
1010110010
11011001
10101110
1101110
1111111010110001
1111111110000111
1111111100010011
1010101
110110
1111111011101100
1111111101001000
10101011
10011010
11111110
1000010101
10100011
1111110111001001
1000010110
10101111
1111111001101111
1101000
1011111011
10010011
1101111110
11000011
1111110101100010
1100110
1000110100
1010001010
100000010
100010000
1111111110010100
1111111001100010
1111111100000110
1111111111101110
1111111110011101
1010001
1111111111100011
1111111110011010
11110011
1000101
1110101
101101110
1110110
1111111001110011
111111
1111111101011001
1111111010101100
1111111010011110
1110010
1111111101100000
11101100
1111111010001101
100
1111111111111111
1100101100
100110111
101101100
110011101
10000110
1111111001100100
101111
1111111100100001
1111111111000111
11101101
1111111110111001
11010110
11000001
101010100
100110110
101001111
1000000
1111111101000111
1111111010101011
1111111111000101
1111111100000110
1111111000111110
1111111001001010
1111110000000111
1111110011111110
1111110011000100
111010
110110001
101010110
100010010
1011110110
110000110
10011101
1111111100101001
1111111110010010
1111111111010011
1111111111010010
11101101
10010001
100010111
11011011
111001110
111110111
110110001
1111111111011110
1100
101001011
10001110
1111111101011010
11110
1111111010011110
1111110110110010
1111110100011111
1111111100010000
10001100
1000111010
1000001011
1010100110
1000111001
101011100
101001011
1111111101101010
1100010
1101100
100110000
110010110
10101010
100110000
11100111
110000110
100110010
110100110
10111110
101011
111110100
1100
1100110
10110100
1111111011100100
1111110111111001
1111110011010100
1111111011111010
10101011
1101011010
111001110
1100001101
1101001100
1000001001
110010010
1111111110010101
1000111
11100110
10001100
111010111
111100100
110000001
1000000010
101011000
1001110010
111011010
110111101
1001010
1100001
1111111111101111
101100110
10110110
1111111101111100
1111111001010001
1111110011101101
11111111
1100111001
1001000111
1010001100
1011100011
111110100
10111001
1111111111101000
101101
11011101
110001110
110011111
110010101
1001011001
1011000111
1001101001
1100100000
1010000111
1010100100
1000010010
110100000
11111111
1111111110101000
1111111101001110
1111111110100101
1111111011011101
1111110110111111
11000
1101010001
111001111
110111001
1010011001
110001101
1000101111
1100101
10100001
1110011
1000001011
111011100
101001011
110000000
1111010
1000101111
111001100
110010110
1100001011
111111110
110011101
111110111
10000011
1111111111011100
1111111101011101
10100111
1111111011101101
1111111001100000
111101000
101011001
1000100101
11101100
11011101
10111111
100100001
101011101
101100001
10000111
101010011
11111001
11010100
100101001
1111111101000110
1111111111101110
1111111110000000
110111
1000000000
100011100
11100011
1101011
1111110101101111
1111110011101111
1111111110000111
10101011
1111111000101011
11111101
1111111110111010
10011111
101000010
1000111
11011
1111111100101111
110111
11111101
100011110
110111010
1000011111
101001110
110100011
111110011
100001100
1111010
1111111001001000
10011111
10001110
10001001
110111001
1111111111111001
1111110110101010
1111110011110100
1111111110101101
1111111001001111
1111111110001111
11001010
1111111011111111
100011011
100110001
10111101
1001110
1111111011010000
11001
1011011
1010101
111011111
1111001
10000000
101001010
10101101
1111111110110010
1111111110000001
1111111110001011
1111111110101101
1111111101111001
1011001
101011010
1111111110001110
1111111011101010
1111110111110100
1111111100011011
1111111010111101
110011010
111100001
10010111
1010101100
1101001101
111111001
101000100
101111011
1000010010
100101001
100000
101001010
111001100
11011001
1110010
1111111111100110
1111111110010010
1111111101001001
1111111101010101
1111111110001010
1111111101011010
110100110
1010001101
1000101100
1011011
1001111
100000001
101011
10000011
1010001110
110100
111100110
1000111101
11011011
10101110
10011011
101
1111111111110011
1111111101111010
