1111111010111001
1111111010111101
1111111010111111
1111111100100011
1111111011010000
1111111111110001
1101110
1111111010001001
1111110101001011
1111110010010011
1111110011110000
1111111110000011
101010001
111111000
1101011011
10000010011
110100000
111110010
1001001010
11010000
1111111100001100
1111111000000110
1111111001111010
1111111001000001
1111111010101001
111100010
1001010001
101101001
1111111100111000
1111111010100011
1111111100010011
1111111101000100
1111111100000000
10001010
1111111110010000
1111111000110011
1111110011011010
1111101111100110
1111110101101010
1111111110011101
110110
1001001111
1001001111
1000000101
10110111
10101010
1000001
1110011
1111111001100001
1111111001110110
1111110111101010
1111111000000111
1111111110111001
1111111111101011
10000001
110001010
1111111101111101
1111111010110000
1111111111000010
1111111011111110
1111111111110111
1111111110101001
1111111100101111
1111111001010110
1111110001010110
1111110000000110
1111110101110011
1111111110010111
1111111110000101
11100101
11110101
1001001
1111111010111000
1111111100001010
1111111101100101
1111111111000101
1111111001001110
1111110110101111
1111111000110101
1111111100010111
1111111111000000
1111111101011111
1111111110110101
10000000
1111111100100101
1111111001101011
1111111100110001
1111111101000110
1011010
1111111111000001
1111111001101010
1111110110101110
1111110100011101
1111110001000111
1111111000101011
1111111010110110
1111111110110110
1111111111000000
1110
111011100
1111111001100110
1111111010011001
1111111100010000
1111111101100101
1111111100100010
1111110111101001
1111111001110111
1111111001111100
1111111110111011
11100010
1111111110100111
10010100
1111111111001000
1111111011111111
1010010
1111111101001110
10100111
1111111111000000
1111111100101111
1111110111100000
1111110111011101
1111110100001101
1111111001000011
1111111011011111
1111111011001100
101110110
10101
1111111110110001
1111111000100011
1111111111001110
100111101
10100001
11010
1111111011111011
1111111011111001
1111111010010101
10001101
111011
1100000
1110001
1111111111111110
1111111011110100
1111111111110010
1111111111110000
10101110
1111111100011001
1111111100100011
1111111100000010
1111110101011100
1111110001100110
1111110101110011
1111110110101100
101011001
110101101
100100001
10110110
10100101
1010111000
10010000010
1101001000
110100110
1111111111010011
100101100
1111111111100001
1101111
10010101
1111111010000010
1111111100001101
1010110
1111111110001110
1000101
1111111110111010
11000
1111111100110101
1111110101100001
1111110111100000
1111110110001000
1111110001000001
1111111000110011
1111111001110110
10110111
1010000001
1101111101
1101001101
10000100010
1101110111
10001000100
1110100010
1000100101
100111
110001001
111010111
1111111101001110
1111111101010000
1111111100110000
1111111100010100
11010010
1111111110010101
10001100
10100000
1111111011110010
1111111101110101
1111110010001010
1111111000010111
1111111000010010
1111110111010100
1111111010110110
111000010
1011010011
1001010010
110111111
10
100011010
1111111111111011
10000010
111000101
110010
110010
101001110
110011011
11111001
1111111001110111
1111111100101100
1111111101001011
1111111111100011
1111111110111011
100111
1111111111110110
1111
1111000
1111110110000000
1111111100111010
1111111101000011
10000001
1011100
100100110
1001101000
10011100011
1110100001
1111111011100001
100001001
10001111
1010111
11010111
1010101001
1010000011
100010100
1000111
110010101
11000100
10000001
1111111111000000
1111001
1111111110110111
10111010
10011110
1111111100000011
10001111
1111111000011001
1111111100010011
1111111001111000
1001001001
111011010
111010101
111000011
10011111001
10101110001
1011001101
1111111111001111
1111111101110101
10000100
100110101
101111100
1010001100
101101110
1001101000
10000100
110011011
110011100
1111111110110011
101010010
1111111110110011
11011
101011
1
10001010
1111111111010100
1111111011110000
1111111010101011
1111111110110011
1000101010
1001110100
101100101
10011001
1010001111
1101100011
1111110011100101
1111110110110100
101100011
101101011
1100111
10011011100
1010100100
1100111101
111000110
100101110
11011111
1111111101000110
100000011
1111111111101110
10000
1111111011100111
1111111011110000
1111111100111000
1111111100011101
101000
111101
11001010
10000011
101000110
100111110
1111110110110001
1111110100000101
1111110101100010
1111110111100000
1111110100010111
1111110100111010
1111111110010010
1111111110101100
10101011111
111100000
1110111001
100011100
1111111111100010
11000111
1111111100110011
1111111110110011
1111111111111110
1111111100000111
1111111100001100
1111110111110100
1111110111001000
1111111011010101
1111111010101101
1111111101010110
101100
110111100
1111111110101101
1011
1111111111011010
1111110101111110
1111101011010001
1111111101110010
1111111001100000
1111111000110110
1111111101101101
1111111110100110
111110011
1110111
101110110
10110111
1001111
10000010
1111111110101000
1111111101011010
1111111110001110
1111111010010101
1111111000010011
1111111001000111
1111110101010001
1111111000110100
1111110110011100
100001111
1001000000
1000000101
10100001
1111110111110010
1011
1111100
1111101010001000
1111111101000111
101000111
1111111101010111
1111111101011010
1111111101010110
1111111100110001
1111111100101000
111001111
111011010
111001000
10100100
10010100
1111110111101111
1111111100011001
1111111001000110
1111111010010111
1111111001110000
1111110110110011
1111111001100001
1111111011011100
111110001
1001010110
100000010
1111111010110001
1111110101011111
1111111110100100
1111111101011111
1111110101101101
11000
11101111
1111111101010010
1111111011011000
1111111111001101
1111110111101110
1111111010111110
10100110
1010011111
1111
100001
111000
1111110110001100
1111111000000101
1111111100001110
1111111011001010
1111111010000001
1111111010011110
1111111011001110
1111111110010010
110100000
1000110100
10000101
1111110110110001
1111101110001100
1111110011110110
1111110111011100
1111111010010110
1111111011000010
1111111110011110
1111111101001101
1111111011100100
1000001
1111111000010000
1111111111101100
111101101
1111000100
11
1111111110101011
1111111110001101
1111110101110011
1111111100100101
1111111001011101
1111111010000101
1111111100100011
1111111101110000
1111111010111011
11110
100001100
1000011001
1000011
1111110001010011
1111101010011001
1111111010101110
1111110101100111
1111110000000100
1111111000100110
11110011
1111111010100000
1111111101100010
1010001
1111111110000011
1001000001
1110011101
10111010
101101
1101101
1111111101110000
1111110110100111
1111111100101000
1111110111100000
1111111100011111
1111111101000001
100100
1111111111100000
1111100
110001111
1100101100
1111111110101111
1111110111111000
1111101111001110
1111101110100111
1111110000101101
1111101100110111
1111110111010100
11001
1111111011100010
110000111
1001010
1101011
100101011
111011001
1000001
1001011001
111111
101011100
1111111011001000
1111111010100100
1111111011010110
101101
1111111111111101
10111010
100111101
110000110
1010011011
1100101000
111100
1111110111111000
1111110111011000
1111110010011001
1111110110010001
1111111011011000
1111111001101011
1111111110110011
1111110101011110
1111111100111000
1111111100111000
101111100
100101000
110110011
1111111111110011
100111101
100111000
11101101
1111111111110101
1111111110111000
1111111101101010
101101111
11100101
101110000
101111011
1010100000
111110101
1001101110
10000
1111111101001100
1111110101101101
1111110111011100
1111110111000110
1111111010101001
1111111111001010
1111111110011101
1111111100110000
1111111000001001
1111111110001100
11101000
110000010
11110011
10111110
100000111
11011101
1000010100
11001
10100100
10110000
11001000
1000011110
11101100
111011100
1100001011
111101100
101001100
101000111
11111
1111111000110111
1111111000000100
1111110110111010
1111111011100000
110010000
100000011
1111111111100010
1111111001110100
1111111110010010
1000111
1001000001
1111111011101101
101001001
1001100011
101100101
100001111
1101101
1100
1101
110011110
111001110
1000111110
1001001010
1001011111
1000001010
1000010011
100110110
11110010
1111111111111010
1111111101110100
10111001
101111101
111111001
10010011
1111111111111101
1111111000001001
100000
1101000
1111111111101100
1111111110010000
100010100
10100010
1111111100110100
111011
11100010
111011001
1001001000
1010001111
1001011011
1010110101
10000001101
1010111111
1011011010
1000110010
1011110100
1001111111
110001101
101000101
1110001
1010100
111010100
11110101
1111111010101100
1111111111101100
1101001
10011001
1111111010000110
1111111111010111
1101001
110111000
11110001
110010001
101000010
110100101
111110001
111100001
100011101
1010
100111100
111010100
111011101
1010010110
1011111011
1000000011
1001001111
1111111110100101
1111111011111111
11010010
101011100
1111110111100100
1111110011111000
1111111110010011
1111111010111100
1111111000001011
1111111011101010
1001
1111111111111011
1000011
10011001
111101011
110000111
10111011
110100111
100110011
1111111101110100
1111111011101000
1111111110011010
1111111111110110
10001111
1001001110
101101100
11011111
11101010
1111110100001101
1111110101001001
1111111111111111
1011
1111110000010011
1111110100001000
1111110011111010
1111110101110100
1111111101111011
1111111100010101
1111111011100001
1111110100111101
1111111000101001
10110100
1001010110
1000010011
101111100
1011000
1101001
1111111101000000
1111111011010000
1111111110101111
1111111001111101
110000111
1000101111
101001010
111010001
11100010
1111110001000100
1111101111010101
101101
1111110011100110
1111101101101011
1111110100010000
1111110000011100
1111111010000011
10000111
1111111010100010
1111110101000100
1111110110101101
1111111001011000
110001
1010111
111101010
1001101110
100001
1111111110100010
1111111101101001
1111111110011000
1111111111101101
1111111110100110
100001110
1001101
1010001
11101
1111111100001110
1111110010110111
1111110010011011
1111111010110110
1111101111011000
1111110110011011
1111110100011100
1111111110111101
1001110111
1101100
1111111110101101
1111111010110110
1111111101011110
1111111111010010
1111111110011100
1111111100001100
1001111001
1100010010
100000001
1111111110110110
1111111101110001
1000111
101011001
110010010
110111010
11111100
1111111101011010
1111111101011101
1111110110000011
1111110000110010
1111110110010110
1111110011101111
1111110111100011
1111110111111110
1111111001001010
1111111011001010
1110111
101010
1111111010111101
1111110111110010
1111110110000101
1111111000101011
1111111000101101
1111110101011000
