100101010
101010100
1100110
101111111
10010101
110001001
1000110
10101
100100
110010000
110001001
1111111111100110
1111111111010000
1111111101100001
1111111011111111
11101111
100110110
1100110
10010101
1111111000110110
1111110101001101
1111110100010011
1111111001001011
1111111011100110
100010111
1100010110
1100000101
1101011001
100010001
100100111
11101001
100100100
1101011
101001100
1010
10101111
10000001
110000110
110111001
1111101
1010101
1111111100010001
1111111100001101
11110110
111110100
1111111110010100
111100
1111111001100010
1111110110000101
1111111001110000
1111111000011111
1111111101111011
111001
1011001011
101101001
1010000011
1110011
100000100
10101110
11110110
10000101
100011
11111001
1111111111011110
100010100
1000100001
111000010
1111111111101011
1100010
1111111101110010
1111111010101010
1010110
110010101
1111111101110110
1111111011000000
1111111010011001
1111111000110001
1111111100000111
1111111011000111
1111111010110011
101010101
101111100
11100111
111100110
11111111
1010011
10111010
10000100
10100011
10101
1000011100
11001010
100010010
1101100000
1010010011
1111111100010011
1110001
1111111011010110
1111111001110011
1000011
101110011
10110111
10000111
1
1111111000011111
1111111111001111
1111111101110010
1111111001011101
100101001
100000110
100111101
1000000101
1111111111011010
1111111111000010
1111111111100111
11101111
11000111
11010100
1010100000
1010001
101000000
1100011111
1000010111
1111001
10011
1111111100001110
1111111010101001
1110110
1001110
110011000
111000011
100011010
1111111011000001
1111111100111011
1111111010111111
1001101
1111111110000100
1111111111100101
11111001
111010
11100
1111111111001011
10001100
11100011
1111111110010010
1101110
111011111
10100011
11010101
1111111100
101011011
1111111110101101
1111111100000110
1111111001110100
1111111110010001
1111111110100011
10000100
10011000
1111111010110011
1111111100011100
1111111111011010
1111110110110111
1111110111111100
11011100
1111111010011100
1111111011000011
11011001
110001000
1111111110011001
1111111111100110
1100011
100011000
1001
1111111101100110
110101110
101010010
111010010
1110000010
1111111101111101
1111111101011111
1010100
1111111011011010
1111111101111010
10100
1111111110001011
110110
1111111001000000
1111110111101111
1111111101111010
1111111010000000
1111111111100101
1111111111000011
1111111001001100
1111111110111000
1111111110011011
1111111011101100
1111111111010100
1111111100111010
1111111100111100
110011
1111111101011000
10000
101111100
101010000
1111111111000001
110110000
1111111100100001
111011111
1100000111
1000010110
1001001000
100010011
1111111101010000
1111111011111010
1111111110011011
1111111111001111
10110111
1111111010001000
1000011
1111111111011111
1111110110000111
11100000
1011011
110111
1111111101110010
1111111111001011
1111111111000101
10011000
10010000
1111111101111010
1111111110000010
101000011
1111111111010011
1011100
1111111010110110
101101100
101011001
1001110001
1001010111
10011100
1111111101001101
1101000
1111111101010001
1111111110101001
1111111011100011
1111110110110111
1111111010101000
1111111011101100
1111110110011111
1111111101000111
11111101
1111111110111110
1100100
1111111111101010
1111111111000000
100010000
111101
1100111
1000001
110110
1111111011110011
1111111000111111
1111111010101010
111011
100
111011
1111111110111000
1111111011100111
1111110110001010
1111111000101101
1111111001001101
1111110110001110
1111111000111010
1111110110101111
1111110110010110
1111111011111001
1111111010100001
1111111101010110
1111111011110111
111110
1111111111000001
1010111
1001000
100000100
1111111110111100
1111111111001001
10101111
1100000
1111111100011010
1111110010110111
1111111010000101
1111111101001001
1111110111010100
1111111101111001
1111111111000001
1111110101100010
1111111001011110
110001010
1111111111001000
1110011
1011010
1111111110110111
1111111110011010
1111111110111101
1111111011100101
1111111010110101
1111111101000010
1111111110001001
1100
1111111111101011
1011001
1111111111110000
1111111111010101
100010100
1111111101001100
110010
1111111111001101
1111110011110001
1111110010111001
1111110101100001
1111110101110011
1111111101011110
100000001
1111110110111011
1111111001011001
1010000110
1101110010
1011000010
111010
100100010
1001101110
1111111111110111
1100010
1111111110001111
1111111010110001
111110
100000100
1111111110110011
11001000
1111111110110010
1010001
1111100
1111111101010010
11010011
1111111101001000
1111110111010011
1111110101010011
1111110100010001
1111110101001100
11110
101101011
10001101
1111111110011000
100111010
10000110101
110010111
1111111011011110
1001111011
1111000001
100010101
100010110
1000100
1111111111111000
1111111110101111
11000010
1100010
10110010
1111111111010010
10110100
1111111111000110
1111111110110000
10000010
1111111110001110
1111111011111110
10001001
1111111111110011
1111111100010001
11101111
1011000101
101001001
1111111111101011
100001101
1100101
1111111111111101
1111111101011110
1111010100
10001011011
1001111110
111001001
1111111101100100
1101001
1111111110111001
0
1111111101110111
11110
1111111011011111
10001
110100
1010
10010011
10000100
11111
111000
110011011
1011010001
1111111111000100
1111111110010110
1111111110100101
1111110111001101
1111110011110000
1111111111001110
101111001
110101111
1000111000
1110100001
1111010010
1001010100
10100111
10001111
10100010
101100
110001
1111111111111010
1111111100000001
1111111111001000
1111111110101101
11111
100100101
100110100
101110000
1001010000
1101111101
10000111000
1011011011
1111111010101100
1111110100101010
1111110101000110
1111110101000101
1111111101111100
1010110000
1110000010
110110011
1001111000
1000000010
1010001000
10010010
100010111
100010010
11110
1110101
11000
1111111001101000
1111111110101111
1111111110101110
10100111
10001111
11111101
10111111
1110011010
10011111110
1111110100
1101111010
1111111011000001
1111110111010100
1111110001001010
1111110100011100
1111111010010111
1100101101
1100000110
111101100
110100011
1000001100
1101101011
1111111100001010
111010
1111111110010010
1111111100100111
1111111101110111
1111111101001101
1111111100010110
101100
1111111111001100
1111111110000011
1111111101101110
1111111001100111
1111111010101011
1000101101
10000110000
111001110
100111100
1011110
1111111000001111
1111101111011100
1111110000011100
1111111011101110
11010111
1111111110011011
111101111
1110100
101100001
10101011
1111111011011000
10100
1111111000110010
1111111000111101
1111111101000100
1111111100111000
1111111001001011
1111111101100000
1111111111100000
1111111010000001
1111111010000000
1111111111101001
1111111111001110
11101101
101001001
1101110
1111111011000011
1111111000010010
1111111000110011
1111110100111010
1111110100000011
1111110011100011
1111111010001001
1011100
100111011
100101
1111111011101110
1111111011011101
11010
1111111100110000
10000
1111110011101101
1111110111100101
1111111000100111
1111110110100011
1111111010011100
1111111010111011
1111110110101101
1111110100111101
101
1001110
101000110
11001000
1111111100011000
11101
10001111
1111111100111101
11
1111111001110101
1111111010110101
1111111011100101
110001
11111110
0
1111111100000001
1111111111011100
1011101
1111111111000011
1111111111010111
1111111000001101
1111111100101101
1111111101001111
1111110101001000
1111110110010101
1111111010000010
1111110100010011
1111110110000100
1111111110101010
100100
1111111110011101
1111111101000011
1111111011111110
10000100
1111111100111110
1111111010110110
1111111000101100
1111110100110011
1111111011110001
10010
1101100
10010100
1011111
110101110
1110001
100010
1111111110101000
1111111101101100
1111111001101011
1111111111100001
1111111010011000
1111111010010000
1111111000111000
1111111010100111
1111111001011100
1111110111000111
1111111101000100
1111111101000110
1111111000011111
1111110000001011
1111101111110000
1111110111000011
1111110110101110
1111111010110011
1111111001011100
1111111000110101
101110000
10000101
1110000
111001100
100101110
1110101
1111111110110010
10110010
1111111100011100
1111111000111000
1111110111100001
1111111011100111
1111111100000010
1111111100100110
1111111001000110
1111111010100100
1111111000100000
1111111010000101
1111111101111110
1111111110001100
1111111011010111
1111110010101011
1111110110110100
1111111010010001
1111110110111111
1111110100110011
100111001
100010100
1111111011011101
1111111101101100
1001010011
1000010
1000000
10011100
1111111111111101
1010
1111111001110011
1111111011010111
1111110100011010
1111111010010100
1111111101101010
10001101
0
1111111101011001
1111111101100110
1111111100100011
111010
1111111101010110
1111111000101110
1111110000111100
1111111000010100
1111111101111011
1011111
1111111100001000
101100111
1001000100
1111111011110100
110001110
101000010
100010101
10
1011100
1111111000110101
1111111100111010
1111111100111111
1111111001100101
1111110110011110
1111111001001001
1111111001110000
1111111101110111
11100011
1111111011011010
1111111101001100
1111111110011000
1111111100100110
1111110111111011
1111110000101100
1111110011111011
1111111011011111
1111111111110101
11000010
110011111
101011011
1010000010
101001110
1100111
1111111110110010
1110
1111111010001011
1111111101101111
1111111011000010
1111111110010011
1111111111001111
1111111000111100
1111111101011100
1111111100000001
1111111100011000
101101101
111010111
100111101
1001000
1001010
1111111011110110
1111110110100111
1111101111101110
1111111010010001
1111111100101011
1111111100110100
10001011
10110100
11111000
1111111
10110101
1111111110000100
1111111111100001
1111111101001110
1111111100001001
1111111101000101
1111111001000101
1111111100111000
1111111100011001
1111111000111101
1111111110001100
1111111011110001
1111111111011101
1010010000
1000011111
110100110
1100101
101101110
1111111111111000
1111111001100011
1111111100000110
1111111110000010
1111111111100100
100101001
1110000
110101100
111011010
1110001
11000011
1111110
110110
1111111101001001
1111111110110110
1111111111101101
1111111011010000
1111111101011101
1111000
1111111111111000
1111111100010101
1111111010001011
10000010
110001001
110011110
101010100
10110
10100110
10010110
1111111001101001
10101101
1100001100
10011011010
1011101000
1000111000
10011001001
1010001000
1110111
101110011
1111111011110101
1111111110111010
1111111011010011
1111110111101101
1111111110100010
1111111111010110
1111110110010001
1111111011011101
101100100
