111000111
101101001
1010000
11001110
101000001
110110110
101001001
1101110
11000110
1000100101
111001101
100111
1111111111101101
1111111111001111
1001011
100101000
1001010011
100010011
100110
1111111001101100
1111110001100100
1111110101011001
1111111001001011
1111111100010010
1111011
1010101101
1100011110
10001101011
100111011
100000110
10001000
101000010
11011101
110010101
100110000
1111111111011011
110001011
100111101
111111110
101001101
10010111
1111111101111100
1111111100010001
101011110
110100110
1100010
11010
1111111010100000
1111110101111010
1111111010110001
1111111101011101
11111
1000011
1001100111
111100110
1010000110
10111001
11001001
100011011
1011101
110001
1010100
1110010
10010011
11110001
1001011010
101011001
1000000
1111111111010001
1111111100101100
1111111110100101
10011101
1001100001
10110100
1111111010110101
1111111011111000
1111111001110010
1111111010100110
1111111011000001
1111111101001011
100001101
110000111
111110001
1010110000
10111
11101000
11010001
1101011
100000101
1
110011110
10001001
101001110
1100010011
1001110101
11001100
1011100
1111111100101001
101110
111000100
11110111
10101101
11101001
10000001
1111111001100010
1111111110010110
1111111010100010
1111111100001111
1111
101000001
101110101
1010010000
10100110
1101111
100011100
11111011
1111010
11111100
1000011010
1100111
100000010
1010010111
1010111100
110011
1111111111010000
1111111100000000
1111111101010011
111000
1010110
1000101101
1100000000
101111101
10001
1111111011001010
1111111110001110
111
1111111110001000
11111
1001000011
100101000
1000
10011110
1111111111010000
10111101
1100100
1111111111000100
100110111
1111111111111011
10100100
1001101010
111111111
1111111010110100
1111111011111011
1111111101011010
1111111101001111
11010010
101011110
1000100101
110101000
101111111
10001011
1111111011001001
1111111101000101
100000101
1111111011011011
1111111011111011
100011100
100010001
1111111111010111
1111111101000101
1111111111010110
11110101
10001101
1010101
101000110
101110001
111111111
1011010011
1111111111110110
1111111110111100
11
1111111011010100
1100001
110111000
1000100001
1001011101
10011111
11011100
1101010
1111111100010100
100100101
100011000
1111111000000101
1111111100001010
1111111101101010
1111111110110110
11010010
1111111101011001
1111111101101111
11111000
1110111
101001
1111111111110000
100010111
1100101
10110000
1111111100011101
111000101
1100010010
1010000100
1001100000
1010001110
10011111
1111111111101001
1100101
110101011
100011000
1111111101011101
11001011
100000001
1111111000111110
1
1100010
1111111111100111
1110001
11011
1111111110101101
11110110
111
1111111100011011
1111111100101011
1000010
1111111111011111
1111111111000111
1111111110110011
1000010010
101110101
1110110000
1100010100
11100000
10110001
10000101
1111111000100000
1111111100100000
1111111010011010
1111111001110000
1111111110011101
1111111101100101
1111110110110010
1111111011010000
10111101
100001100
1111010
1111111101010001
10111110
100010100
1111111111100100
1111111110001001
1101110
1111111111111001
1111111011110100
1111111011000011
1111111110001001
100001111
10011110
111111000
10101000
10110000
1111111000101111
1111111000010100
1111110100010011
1111110001110110
1111111000001011
1111111000001010
1111111001010100
1111111100000001
1111111011100101
1111111101001101
100
10100110
100110011
10100111
11101101
11011011
10011
1111111110100100
10010110
10010000
1111111011110011
1111110001010110
1111111010100010
110011
1111111100010111
1111111110100101
0
1111111001101111
1111110111100000
1111111100101010
1111111001111011
1111111100011001
1111111101000111
1100010
1111111101000100
11010
1111111101101101
1111111101111110
1111111111000110
1111111111110010
1011011
1111111111111111
100101111
10111111
1111111010000111
1111111110011011
10001110
1111111111101111
1111111101010000
1111110100000011
1111110001001000
1111110111001000
1111110111000100
1111110110111000
1111111100000000
1111110101011001
1111111101010000
11001100
11101000
11111010
1111111110000101
1000001110
1011010101
10110110
1111111111010110
1111111111110110
1111111111011011
10001111
100010101
1111111111010100
1100
1111111101101111
1111111110111000
1110011
1111111011110100
110010
1111110111110000
1111111000000000
1111110101111000
1111110100100101
1111110011111000
1111111110001101
1111111101100000
1111111101000011
1111111111100011
1111111100101111
111001100
110101
1111111100011111
1001101111
1011100111
100110101
101110111
1110110
10110101
1111110
10001001
10001110
110100
1111111011101011
1111111110111001
1111111111101000
1111111111011001
11100
11100
1111111100001000
1111111111011100
1111111100001101
1111110111010011
11010011
11100110
1111111101101010
1111111100000000
1111111101001111
1111111111101101
10110001
101100101
1101111011
1101000001
111110111
1101111100
10101110
11000011
1111111110001101
100011
1111111111100101
1111111101000100
1111111101001110
1111111111111111
11001
1111111110100001
0
1111111111100011
1111011
1111111101011011
10100
110101100
1111111101001010
1111111111100100
1111111010001001
1111110110010011
1111110100101111
1111110111100101
100001000
1010110110
1010001110
1000010010
1000100111
1000001011
11000011
101000010
11011
101
1111111100100100
1111111101011011
1111111101111011
1111111110100001
1111111111101011
101110
111010
10000010
0
100011000
111100000
111010101
101100111
1111111010000100
1111110100101001
1111110100100110
1111110100111100
1111111000100101
1010110000
10000100101
11010011
111000000
111101011
1000110101
100000000
111110
11000110
1111111101110111
1111111101010000
1111111100010110
1111111011110100
1101
1111111110001100
110101
1111111111011011
1111111111010011
1111000
1011110000
1100010111
1000000111
1011100110
1111111010101010
1111111000111000
1111110010000001
1111110101110000
1111111110100010
10101100001
10001011001
111010001
110010001
101010110
1011010011
1111111100111111
1111111110001001
1111111000010001
1111111010111100
1111111110010101
1111111110111100
1111111010110111
1010001
11001101
1111111110100110
1111111101101010
1111111000111001
1111111101010001
111001011
1011111010
10100001
1010111
1111111111001111
1111110111100010
1111110000100111
1111110111011100
1111111110110101
111011000
110011000
111010101
1111111110100101
101101010
1111111101100100
1111111011110101
1111111101111001
1111110100110000
1111110111010001
1111111010010101
1111111001110111
1111111101110011
110110
1111111101111101
1111111101011010
1111111101000001
1111111110011100
1100100
11011100
101011111
1111111110010111
1111110111101111
1111111001010011
1111110100100101
1111110100101001
1111110111000111
1111111000101000
1111111100110110
1010100
1000001010
1111111101101111
1111111010110100
1111111100110101
1111111111010101
1111111110000111
1111111100001101
1111110010000011
1111110101111111
1111111011000011
1111111100001111
1111111011011100
1111111010110101
1111111011000100
1111111010010011
100100
0
1010011
1111111111001111
1111111010110000
1111111001000101
1111111101110011
1111110101100000
1111111110111010
1111111101110001
1111111110100000
1111111111000101
1010011
101001011
1010
1111111110010000
1111111101011000
1011011
1111111111110001
1111111111110000
1111110110101101
1111111011110101
1111111010110110
1111111001001100
1111111011001001
1111111000001010
1111111000010001
1111110100010010
1111111101001100
1111111111100100
10100
1111111011100111
1111111011001110
1111111010001010
1111111010011001
1111110110000001
1111111001110111
1111110100001100
1111111100011010
1111111
1111111111111101
11100
1111111111111010
1111001
11000
1111111101110011
1111111110011010
1111111101111111
1111111001111001
1111111011001101
1111111100001111
1111111010110011
1111110111101011
1111111010011000
1111111011101101
1111111000100101
1111111010011010
1111111011011000
1111111010010111
1111110001001111
1111110000000010
1111110101110110
1111110111001110
1111110110000111
1111110111011001
1111111000110101
100111110
1000011
100010001
100011110
1011101
1111111111101111
10011
10111101
1111110110010110
1111110110101001
1111111000001101
1111111110011111
1111111101011111
1111111101001111
1111111100110110
1111111011000110
1111111001011111
1111111000101010
10000
1111111101101111
1111111100011001
1111110110001000
1111110111101110
1111111010011011
1111110110001111
1111110100001011
1100100
111011000
1111111101010011
1111111110011001
111101001
11000011
1111111110111011
100010
1110
1111111110000011
1111111000001000
1111110111000010
1111110101101010
1111111100100000
1111111101000100
1111111111110010
1111111101011100
1111111100100010
1111111110001000
1111111011100010
10100110
1111011
1111111011100100
1111110111010111
1111111011100100
1111111010111100
1111111111101101
1111111101001110
10111101
10010000
1111111001111011
1111111110001010
1111111110001100
1111111111011011
1111111101111100
1111111111011100
1111111000001011
1111111000110100
1111111001111110
1111111011011101
1111110111100011
1111111000001100
1111111011001001
1111111100001110
1111111000110101
1111110111100111
1111111110000001
1111111011010111
1111111100110101
1111111111101110
1111110110011100
1111110111110011
1111111101111101
1110100
11010111
11110010
1111111101001110
1111111111110101
1111111100101010
1111111000010001
1111110111110111
1111111010101111
1111111101000110
1111111010101100
1111110101110010
1111110110110010
1111111100100011
1111111011100011
1111111101111000
1111111011011011
1111111010011011
1011101
1111111110100110
1111111100000111
1111111101011010
1111111111110101
1111111111001001
1111111101111100
1111110010011110
1111111100000100
110110
1011
1111111101101110
1111
1111111100100111
1111111011110100
1111111111001001
1111110111101111
1111110111111110
1111111011111100
1111111100010000
1111111001001011
1111110101011010
1111110111010111
1111111101000010
1111111010010001
11000101
1111111010111001
0
11101000
101111
11000101
100110
11110101
1111111111111111
1111111110101010
1111111110000101
1111111111110010
1100100
1111111101011100
1111111001011101
1111111100110000
1111111110101001
1111111101101011
10011011
1111111101011101
1010101
1111111101000100
1111111110001010
1111111001111000
1111111101100110
1111111010111000
1111111101111100
1111111010001101
1111111110100010
1111111101111101
1111111111010111
100010001
1111111111010000
1111111101010100
101111
11010100
10101
1111111110101001
110001100
1010110010
1111000011
100011010
1111111011011111
1010100011
11000100
1110010
1101100
1111110101110011
1111111011101100
1111110110110000
1111110111111101
1111111010001110
1111111011001111
1111110111110011
1111111010001111
1111111110100111
