1111000
110101
100000010
1101101
100000111
1001011
1111111111001000
10010000
11100101
101100011
101100111
10100000
1111111010110001
1111111000011101
1111111011010101
10010
1111111101101011
1111111110110110
1111110111011101
1111110110000100
1111110110010011
1111111000101011
1111111110001011
1111111111110001
10100011
1111111110000010
100011010
1000011101
1111111110110101
11001010
1111111111101111
10001110
1111111110110111
1110111
1101110
1111111111010101
101111001
101010100
111011000
100010001
1000
1111111000011011
1111111000111010
1111111110100101
100100010
1111111110110100
1111110110110101
1111111001000111
1111110110010111
1111110111010010
1111111011011001
1111111111110110
1111111110100111
101000
1000111100
1000000110
10000001
11000
111100
1111111110110000
1111111110100010
1111111101011000
1100110
1011101
11110000
110010100
10010110
1000110
10001100
1111111100010111
1111111011111001
11010011
1001110111
110001001
1111111000100010
1111111010010100
1111110110001100
1111111111100011
1111111000010010
1111111011111010
1111111111000011
1111111101010001
110111110
1010111101
10001001
11000000
10110
1111111110111011
1111111111101010
1001000
101100000
101000001
100010110
1001010111
110001110
1000000
1000000
1111111011110011
11101100
101111100
1100101110
111011001
1010011
1111111100110001
1111111001111111
11100011
1111111011000111
1111111001000110
1111111110101010
1111111100111000
110101001
110011010
1111111110011110
1011011
1111111110000000
111100
100100
1111111110000010
11110010
11111011
10000100
1000010100
101011010
101111
1111111111000101
1111111100010010
1001101
110101110
1110000011
1001000000
1001100101
100110111
101011
1111111111001111
1111111100001100
1111111001101000
1111111011101110
1111111010011110
11000011
101101110
1111111111101110
0
1000100
1111111111010111
10001000
1101011
10010110
101101010
11110000
1010111101
101001000
1111111111001010
1111111101000011
1111111011001000
11110111
110010001
110111010
10111111
100011111
10000100
110100001
1000100
1111111111100011
101110
1111110100010000
1111111111100111
101111000
11011101
1011110
11010
10000
1000100
10001111
1111111101001001
100011001
101000100
111100010
1001110001
11
1111111110101101
1111111100011000
1111111100100001
10100010
1100100
1111111111101100
10110001
1111111110100000
0
101100000
11000110
1111111001101011
1111111001001111
1111110101101000
1111111101101001
111010010
101101101
1000001
1111111111100111
1111111111001111
101100
0
1111111110011001
1001011
111101
1111111111011110
101100001
1111111010001010
10101011
10010000
101000011
101111110
111010010
10101001
110101010
1011011
110111
101011011
1111111011011010
1111111000100011
1111110111111111
1111111010111100
10011
1111111110101101
111010000
10011100
1111111111111010
1010110
11111010
1111111110110000
1111111101001011
1111111110100101
1111111101010001
1111111000100101
1111111110110001
1111111101100100
100000101
111110111
111111110
110111001
1000010010
111010011
110110001
1110100
1111111101111111
1111111101000011
1111110110000110
1111111100010011
1111111101101010
1111111001011010
1111111101101001
1111111110001001
1111001
1010110
11001
1111111111010010
11110101
1111111110101010
1111111101111010
1111111110100001
1111111010001101
1111111001101110
1111110101101000
1111111101101000
11110101
10101110
1011011
1111111101010111
1110110
1111111110011000
1111111100111110
1111111011001101
1111111010100000
1111111000111111
1111110101101011
1111110110000010
1111111010010100
1111111001111010
1111111000110011
1111111010100011
1111111110110110
1111111111101001
1111111100101001
1111111110101011
11101
1111111111100010
1111111111010110
1111111110010000
1111111101000011
1111111010011011
1111110001001111
1111110101011010
1111111100000111
1111111111110111
11011010
1111111111011011
11111
10001110
1111111010111101
1111111000011100
1111110111101110
1111111011000011
1111111001000100
1111110010010101
1111111001111100
1111111010101110
1111111011001000
1111111100101001
10001101
110
100110
1111111111001111
1111111111110001
10100
10000011
1111111110111001
1111111101011000
1111110111111101
1111101101101110
1111110100100100
1111111000001101
1111111010110000
1111111110000100
110011000
1111111111111100
11001111
1011010
11110110
1111111101001000
1111110101101100
1111110111100000
1111111111001011
1111111100001001
1111111111000001
1111111110100110
1111111101010110
100110001
1111111110110100
1111111101011110
11110001
11010010
101101
11111
1111111100011000
10010100
1111110110100111
1111101100110110
1111110001001001
1111111001101100
1111111001011101
1111111011010110
10110000
1111111110010010
1111111011000110
1111110011101001
11101
1111111101000001
1111110111100110
1111111010011010
11111010
11
100100111
11011010
111100
1111111101101110
101011111
10000100
110000000
11111
11011010
1001000
1111111110011011
10100010
1111111100100011
1111110111100011
1111110011110100
1111110110000010
1111111011100011
1101011
1111111111001010
1111111111111011
1111111010010010
1111110110110110
1111111100111000
1111111101111010
1111111100110101
10001001
11101101
10000101
10101010
1001010
110001010
1111111100010110
110010001
100101000
1110110
11111
11010110
101010011
1111111110111010
1111111111000100
1111111011100101
1111111110000100
1111111001111100
1111111010101111
110010000
1111111110111100
1111111100001101
1111111100111001
1111110100111100
1111111000101101
1111111110001110
1000000111
110110001
110111110
101111000
111001001
11100001
110011111
111101
1111111100010001
110000101
100010110
111011
101111
10111010
11010000
10101011
1111111111000111
1111111100110000
1111111010010100
1111111001100001
1111111100101100
101001000
1000011010
1111111100110110
1111110101110100
1111110101111001
1111111000010110
10100001
1110001101
1001000110
11000101
101110001
1111111110110111
101111000
11111110
1111111011111111
1111111100001010
110001001
101101000
11011001
111101
1111111111111000
110110
11001011
11110110
1111111101111000
1111111000011010
1111111111001001
1111111111011010
110000
1010001
1111111001100110
1111111000111111
1111111001011010
1111111100011001
100101010
10000101110
1111011110
101000010
100100010
100111000
1011010001
101011110
1111111100011001
1111111001000111
10111100
11100001
1010110
11000010
10100110
11010
11100111
110011
1111111001000011
1111110110011111
1111111111000010
1111111101111010
100110
1111111100000111
1111111000000111
1111111001110110
1111111001001101
1111111111010110
11001100
1011101011
1110011000
111111011
1100101
101101001
110000101
1111111100111010
1111111010000000
1111110111110000
10010100
10110100
1001011
1111111100010101
1111111100101100
1011010
1111111111101000
1111111011110100
1111111011011111
1111111000101000
1111111111001010
11000010
1111111010101100
1111110001011101
1111110010001001
1111110001111101
1111110011011011
1111111010111011
100101000
1000111000
1100100111
1010110000
110111001
100100100
1111111111101101
1111111100010100
1111111011110100
1111111010010010
1111111100110100
1111111110111111
1111111111100001
1111111011110111
1111111000000000
1111111010101111
1111110111010110
1111110110000110
1111111011011101
1111111011001100
1111111100110100
1111111111100100
1111111110010100
1111111001111110
1111110100000111
1111111001100011
100010
1111111111010101
110111111
111110010
101001000
1010011101
111010101
1111111101010111
1111111000101010
1111111010101110
1001101
1111111000110010
1111111000000111
1111111100100001
1111111000110110
1111111001001101
1111111000101000
1111111100001101
1111111001101011
1111110110101101
1111111011101001
1111111100100100
1111111100001001
1111110110110010
1111111100011110
1111111011100101
1111111010100100
1111111100111011
1111111001110101
1111111000011100
101010110
100000110
1000010100
1011111001
100010000
1111111111111110
1111111110011010
1111111101011000
110110
1111110111111101
1111111001101111
1111111011011000
1111111010000111
1111110111111001
1111110111101101
1111111001100100
1111110111011101
1111111001101011
1111111100011101
1111111100010011
1111111101110110
1111110011001110
1111111000000101
1111110101100000
1111110011101001
1111111010000100
1111111010010000
1111111100110110
1010010
1111111111111110
11001010
11100010
10101110
11011101
100100001
1111111110001000
110
1111111100111101
1111111100000100
1111111110101001
1111111011001110
1111111001000000
1111110110100100
1111111001000110
1111111000101101
1111111000110101
1111111000010000
1111111100010110
1111110110101111
1111110100101000
1111111000101010
1111110111100011
1111110111110110
1111111100110110
1111111101110101
1111111101100001
10100011
1111111010000100
1111111110011000
1111010
11110111
1111111111111001
1111111111000010
1111110111101000
1111111011011110
1111111001101110
1111111100111000
1111111111001011
1111111001000101
1111110101110000
1111111010110110
1111111011010010
1111111100011011
1111111100100010
1111111010101001
1111111101101110
1110011
1111111110001110
1111111101101111
1111111110101000
100010011
1111111111101100
1011101
11000101
101100000
1111111001111100
1
1010010
1110110
10011001
1111111001011011
1111111100101100
1111111001110001
1111111001011001
1111111010111101
1111111010101110
1111111001001011
1111111100001001
1111111100010100
10111100
100111001
11111101
100101000
101011010
11111101
11010010
1110100
100000000
111111100
10111100
1001111
101111101
1111111110011101
1111111000100100
1111111100000001
1111111000011100
1111111100110100
1100100
1111111010001100
1111111010000110
1111110000110011
1111110001111110
1111111110000011
1111111011101011
10101
100110010
1010111010
1000101011
1011001110
1010011001
1100111011
1011100101
101010011
1001000111
1000001010
1100100110
1001001011
1001101
111
111000101
1111111101101001
1111111110100110
1111111110101011
1111111001111101
1111111101000001
10001110
1111111101110010
1111111011010010
1111110101111111
1111110111010100
1111110111000010
1111111000110000
10100001
1010010100
1101001011
1000111001
101111111
1001000100
1101011101
1101000100
110001000
1011010001
1000000001
1011010100
1001110010
1111111111111101
101101101
10101111
100000
1111111110100001
1111110100110011
1111111011101110
1111111
1111111100001011
1111111010110001
1111111001000000
1111111011111111
1111111011100100
1111111010010011
1111111010000111
110101010
1011110001
110010111
110111000
10111010
10011111
1101011110
1000101101
1011101011
1100100011
10010011010
1111001011
1000001100
100100010
11101100
11111010
10011001
1111111001110110
1111111000011110
1111111000010100
1111111000000010
1111111111000000
1101110
1111111100010111
1111111100100001
1111111110110111
