1111111100101111
1111111110010010
1111111101101100
1011010
1111111110101110
1
11110000
11001011
1111111110110000
1111111110101010
1111111111001011
110110100
1001001101
1011010110
110111000
10000110
110101
1111111110101010
100101111
110100111
1111000
1111111111100000
1111111110011011
1111111100000100
1111111010010100
1111111011111010
1111111011000110
1111110110100010
1111111110101010
1111111111011110
100111
110011
1111111101001110
11111
1110111
10110010
1111111110110001
1111101
1011100
110101111
110001101
1010011110
1010000011
11001110
1111111101000001
1011011
100000111
101110110
101001001
10110001
1111111110011010
1111111001100100
1111111010110110
1111111010000001
1111111000111110
1111110100100010
1111111111101100
1111111100011110
1111111100110101
1111111110010000
1111001
1111111111100001
10000001
1111101
1111111101011100
1111111111110010
111111010
110000000
10010111
101111010
11100000
1010100
1111111001100010
1111111001001010
1111011
1111111100001001
11
1111111111001011
11110110
1111111110001111
1111111010001101
1111111010100001
1111111011101001
1111110111010110
111111
1111111110110001
111101
1101011
1100111
1100
100110
1110010
1111111111111100
1111111111001010
101000
101000100
101111100
1011101001
1111111110100101
1111111101011010
1111110110011111
1111110110000000
1111111001110110
1111111001100110
1111111011110101
1111111001010000
1111111100001110
1111111111100111
1111111001100011
1111111101110000
1111111001000011
1111111011000101
11000000
1111111110000111
1111111110101011
1100011
1111111110000001
100110
1111111110111001
11000000
110101111
1111111100111001
10000000
10001110
110111111
1000011000
100111010
1111110110010000
1111110011010000
1111110001010011
1111101010000110
1111101110110110
1111110111001111
1111110111011100
1111111101011010
1111111110111011
1101
1111111011111111
1111111110001001
1111111110000110
1000001
1111111101111100
10011001
1111111110110010
1111111111011111
100110010
111000
100100111
100001110
1111111010010100
10111000
111001010
1110100000
1010001111
10111011
1111111100001000
1111110000001100
1111110100101101
1111110001010001
1111101110011011
1111101111111010
1111110100110010
1111111011100110
1110101
11110000
1111111111001010
1111111001000100
1111111100100001
1101
1111111101110101
1111111110110100
10011001
110111
11101101
10010011
1010101
1111111111100010
1111111011100110
100111010
101010010
100111000
101010001
1111111111111101
1111111100010101
1111111000111000
1111111011101001
1111111100100001
1111110111011110
1111110000010101
1111111101111001
11111101
111100100
110000101
1111111011111000
1111111001111011
1111111101010000
1101111
10111111
10100001
1000011
1111111101010110
1111111111111000
111010111
1101001
1111111110110001
1111111111111011
1000111000
111011111
1111111001000011
1111110101010110
1111111000111101
1111110010001110
1111110101101100
1111111010110010
1111111011101101
1111110110001001
1111110011011011
110000100
110001000
101011011
101011011
1111111100010100
1111111100111111
1111110111101111
1111111110001111
1001110
1111111110101101
1111111100100011
10011
11101100
110111111
110011001
1000010010
101111000
10111100
11110110
1111111011000011
1111110000111011
1111110110010100
1111110100010011
1111110101011001
1111110111000111
11111100
100111
110111011
101110101
1111111110100000
1101110
1011000011
1011010
1111111101101110
1111111000100100
1111111111111110
11110100
1111111
1111111100011101
1111111101111010
1001100
110001010
101010100
100000011
11111101
10110111
1111010
1111111001001100
1111110111010001
1111111011001100
1111111111011111
1001100
111011101
1100001010
1100110010
1100110001
100010001
11110001
101111110
1010000111
1011000011
100100000
1111111011110101
1111111111011111
11011000
1111111111000101
1111111100000000
10010111
1111111111111111
1101001
1111101
11010111
11101001
100011010
10010111
1111110001010101
1111111000011000
1111111010001111
1001010
11010110
1100110000
1111011111
110111110
111101001
111001001
100011110
100100110
1000101111
1011110101
100111110
1111111010000100
1111111
11000111
100010
1111111011100110
1101110
1111111111101000
1111
1100100
111111111
1001111010
110101100
1111111110010010
1111110100101010
1111111110010110
1001011
100100011
100011010
1111100011
111001101
1000110000
1100011010
1000101111
1111111111101011
101100000
10110011
101001000
1011110
1111111001110111
1111111101000111
1111111111000010
1111111111001000
1111111100101000
1111111110101100
1111111110011100
1111111111001101
10101
110101111
1011010101
100111011
1111111111111111
1111111100110110
111
111000111
1011
1101010101
11010100101
1111101011
1101010001
1101011001
1000000001
1000001
100100011
1111111100110100
1111111111000000
1111111100010000
10001
1111111010101011
1111111110010001
1111111101111100
1111111100001001
1111111101111000
1111111010000100
1111111101000110
1111111001011000
1111001
11010011
11
1111111011000001
1111111101111010
1111111111011011
101111110
101110110
1100001010
10000100111
1010001100
1000100110
1011000010
11001100
111010
1101101
1111111100011111
1111111101110110
1111111001000001
1101110
1111111100111100
1111111100001001
1111111110010101
100110
1111111011110010
1111111001101000
1111111101000000
1111111001001111
1111111101000100
1111111010000000
1111111010010011
1111111110011010
1111111011011000
100000010
100100000
100010100
111010011
1001010000
1010011100
1111111111000010
11000001
11010000
1111111111011100
1111111101100001
1001111
1111110111001101
1111111000110101
1111111110111011
1111111011100110
1111111110101101
1111111100111100
1111111111010000
1111111101001111
1111111101100001
1111111110011011
1111110110100000
1111111010101010
1111111110001001
1111111110101110
1111111110001001
1111111001110011
1111110110000011
1011011
110111010
11011001
101011010
1011000
1111110101001101
1111111111110011
1001110110
11100110
100001100
1111111100010100
1111111101010001
1001010
1111111111010011
1111111111010010
1111111111010111
1111111100101101
1111111100100101
1111111111011100
1111111101001001
1111111001000011
1111110111011000
1111111011001101
101110
1111111001010101
1111111101100010
101100
1111111101001000
1110111
10010001
10011000
11101
1111110100111011
1111101011001111
1111111110001011
100110111
10101000
1111111111111100
1111111000101110
1111111011001110
1001011
10010111
1111111110001101
1111111101100000
1111111110001100
1111111100100001
1111111110000011
1111111010000010
1111111001100100
1111111001111111
1111111100011111
1111111110011110
1111110100011110
1111111110110101
10010000
10010
1110101
1111111111100110
111100010
1111111100010001
1111110101110001
1111110111100000
1111111101101101
1111111111000010
1101010
1111111010101010
1111111111011011
1111111100101010
1111111101110100
110001101
1000110
1111111110011000
11001
1111111111110101
1111111011110101
1111111100001011
1111111000111111
1111111010000110
1111111011101000
1111111111010110
1111110101111100
1111110111010100
11011110
101100010
110011111
11000001
11100000
1111111101101010
1111111000011110
1111111110000001
1111111101011100
1111111000111011
1111111011101011
111111
110001
1111111101000100
1111111111101101
101010110
1111011
100111
110010
11000
11100
1010000
1111111011101101
1111111100100100
1111111101010111
1111111001100101
1111110100111011
1111111000110001
1111111011011101
1111111100100010
1101
1111111011101110
1111110111110110
1111111011000001
1111111001111111
1111111010100110
1111111011000100
1111110101110000
110010
1111111101011010
110
1111110
111
10100111
100000100
1111111111101011
10001111
1000001
10010011
10000110
1111111011100011
1011010
1111111110000100
1111111101000001
1111111010001100
1111111111011000
1111111011000000
1111110111110101
1111111010100000
1111111011100010
1111111100000100
1111111100011100
1111111000110011
1111111100010010
1111110110010110
1111111000010010
1111111011101001
1111111001010000
101001
11001011
1111111111011000
10010011
1100100
11111011
10010011
10001001
1101101
1010101
1111111101100100
1001110
1111111011000110
1111110110100111
1111110111101110
10001110
1111111110011000
1111111110100011
1111111101001001
1111111110111100
101001
1111111011000000
1111111001011010
1111111100001111
1111111000101111
1111111101011101
1111111100101101
1111111010011000
1111111100101011
10
100010110
10110000
1111111110111010
1111111101001001
1111111100000001
10010100
1000111
1001111
1111111100111111
1111111101001100
1111110111110010
1111110111000101
1111111100001111
1111111100101010
1111111011111100
1111111111001010
1111110110000110
1111111001101101
1111111000101110
1111111101111100
1111111111000011
100011111
1111111101111010
1111111011000111
1111111001110101
1111111011101010
1111111111001011
101101001
110100011
111110100
1111111011111101
1111111010111010
1111111101100001
11101010
100010101
1111111111011111
1111111010101001
1111111101101110
1111111011101001
1111111011111100
1111111010010010
1111111011110110
1111110111000111
1111110111000111
1111110000100111
1111111010011000
1111111111011100
1111111001000100
1111111100100100
11011000
10000001
1111111101100000
1111111011100011
1111111001111001
101111000
101010110
111001011
110001111
1101111
1111111010100010
1111111111101001
100100
11110
10010011
1111111110001001
1111111101010101
1111110101011011
1111110111100000
1111110110001111
1111110011110101
1111110111111001
1111110111001101
1111111000011100
1111111101110010
1001001
1111111101001101
1001001010
1010010011
1101011
1110100
100110010
100111001
100101011
111100100
1110100000
1100001110
1111111111110111
1111111100110110
1111111110100101
1111111101101101
1111111011111000
1111111101100000
1111111101100101
1111111010110111
1111110011001011
1111110011011000
1111111001011110
1111110011110000
1111111011000011
1111111000011001
1111111110010010
101000010
1001000101
111000101
1000000111
1001010001
100111011
10001101
100111001
101110110
11100110
1000010010
1010000100
101111111
10001010
11011111
11001000
1111111101110111
1111111011110011
1111111100111101
100010001
110110
1111111010111100
1111110111000110
1111111011110110
1111110111110100
1111111111100001
1111111100110111
110111111
1111001011
1111110011
111011101
1111111110110110
100000100
110100101
11111001
11101101
110000101
110100100
110001100
1010011000
1001100011
110100110
1111101
1111111101001101
1111111100001011
11101001
1011010
100010100
11111001
1111111101100001
1111111110101111
1111111011101001
1111111000100000
1111111010100001
10000101
1011111000
1100100011
1101100111
11101010
1111111110110110
110110111
101101010
111000110
111001011
11000000
10011011
100110000
110101110
101111100
