1111111111001000
1111111111100110
1111111110001001
1111111111111010
1001101
1000000
1111111101101000
1111111100101110
1111111111010101
1011101
10001101
1111111011100001
1111111001111011
1111110110011011
1111110111110110
1111111110001110
1000110
101011
1111110110110110
1111110101110110
1111111000000111
1111111000110110
1111111111001101
11001110
111000101
110000001
111001111
1000001100
11000
1111111110110101
1111111110000111
1111111100001011
1111111111000000
1001
1111111011100010
1111111101110101
1111111
10000
1111111110011001
1111111110111001
1111111011000101
1111111000100011
1111110110011110
1111111111100010
110011101
1111111111011110
1111111001011000
1111111001001011
1111110111001110
1111111000010101
1111111010110010
11111001
110001110
11010101
10111000
1001110111
1111111100110100
1111111110010110
1111111111011000
10100
1111111100001011
101010
1111111101010011
1111111111000000
1111111111111000
10000010
1111111100101011
1111111101111101
1111111110011000
1111111010011110
1111111110000111
1000100
111000100
11101110
1111111011110001
1111111010001101
1111111000001100
1111111100010100
1111111000101010
1111111110101101
11101111
11111111
10000001
111111111
1111111111011010
1111111110100100
1111111110001100
10011
1111111110000111
1111111011000000
11100010
1111111111000010
1111111111011001
100011011
1111101
1111111110001001
1111110111111110
1111110110011011
1111111110101001
110110010
1011110111
1001000000
10101110
1111111110101001
1111111011011110
101010010
1111111101000100
1111111010111110
100101011
101101
1111111111111001
11111111
1111111111000010
1111111111001111
1111111100111110
10101
1111111111100111
1111111010011010
100000
10000000
1111111110110010
1111101
101101
1111111111000110
1111111000101100
1111111001110110
101101
100011001
1110010110
1010101111
10011010101
1100100000
1001001011
1000000000
1111111110100100
1111111110000110
1111111111111100
10111000
1111111110011000
1111111111100111
1111111100100100
100101
1111111110101111
1111111100100001
1111111110001011
1111111010101100
10101101
1111111111011001
11000
11011101
1001011
1111111010010000
1111110011111011
1111111001111111
1000000
11100111
1101111111
1011010010
1001011100
1110111010
10001100100
1000011100
100010001
1111111100101010
1111111001000010
11010001
110010001
110010
1111111111111110
101101
1111111011100110
1111111011111010
1010010
1111111111000111
1111111111010011
11001000
10110101
11000010
1111111000100000
1111111011111100
1111111000011111
1111111011010101
110000
110111011
101001001
1000000011
100100111
111100000
1100001000
100110010
1111111100110010
1111111011110101
1111111000010100
110111
11111011
1110011
1001100
11111
1111111110010000
1111111110100001
1111111111101011
1111111110011010
1111111110101110
1110001
1111111111010001
1111111110101000
1111111001011001
1111111101100111
110101110
1001111000
1001111000
1001010101
111110010
11001000
10000101
1001011110
1010010000
1111111010111100
1111111101001011
1111111100001010
1111111000010000
11000010
110001
111000110
1111111111000100
1111111011110011
1111111110101110
10111
1111111111111110
1111111110001000
1111111101001101
1111111001010001
1111111000110010
1111111010101110
1111111010100111
11
100110001
10010010111
1000011010
111110101
1000110011
101101000
1111111101111011
1111111111010100
1111111110100100
1111111100001110
10111
1111111101011110
1111110011100010
1111111010110100
1
101111
1111111101001111
1111111011100010
1111111100111010
1111111111010000
10101
1111111101111001
1111111101001110
1111111001011101
1111111001100110
1111110111111010
1111111111101110
11101010
111101101
110100110
11010010
101101010
1111111100001101
1111110110100100
1111110111001100
1111110111101000
1111110110100000
1111111001011100
1111111111010010
1111111010101110
1111110011000100
1111110100001100
1111111001001101
1010100
1111111111010011
1111111101100110
1111111111110110
1111111111111110
1111111011010010
1111111100001010
10110000
1111111101011001
1111111100111011
1111110110100101
1111111011010011
1111111111001010
111101000
1000010101
111111011
10000101
1111111100011110
1111110110100011
1111110110101111
1111111011010000
1111111010111000
1111111001110100
1111111000110011
1111110111110010
1111110011111001
1111110010001111
1111111010011111
100010001
1111111111001110
1111111011110001
1001110
1111111111011011
1111111111000110
10000000
1111111111010100
100000
1111111000011001
1111110010011011
1111110111001010
1000001
101100110
1011111
101100100
1111111101110000
1111111101001001
1111110101000011
1111111011010010
1111111010100010
1111101111101111
1111110110010100
1111111110101000
1111111011011100
1111111101000111
1111110111110110
1111111011110011
10011011
1001101
1111111101111000
100000100
101100
1111111101111011
10000100
1111
11100000
1111110111001100
1111110100000100
1111111010100001
1111111111011011
10011100
11101
1111111010101011
1111111110111001
1111110111111001
1111101100110110
1111110110011111
1111110101000000
1111101111001011
1111110101100100
1111111110011100
1111111011010110
1111111101000101
1111111101110100
10100010
1111111110100100
101001010
1110100
101101010
1010
10100101
100010000
1111111111000111
101101000
1111111110101110
1111111001011100
1111111111110011
1111111111100010
1111111101111111
1101011
1111111010011001
1111111101101110
1111110101010110
1111111000000011
1111111100111101
1111111010100000
1111110110011101
1111111110101010
1111111111001100
1111111011010001
1011100
1111111111001110
110110100
1111111111000000
101000001
1111100
10001010
11010001
10110110
1010011
10011110
100011011
1101010
11101
1111111100111110
1111111111110001
101011001
1111111101000010
1111111100110011
1111111011001010
1111111001110000
1111110110001111
1111111000111100
10010100
1111111101100111
1100100
111000
1111111110001100
101
100111000
11111001
1111111100110000
101110111
100000
100101010
11111000
10001010
1110010
1111111111100110
110000011
1111111111111010
1111111111110110
1111111111101101
1111111110101101
100010000
100100111
1111111101011001
1111111000000110
1111111010010110
1111111000100000
1111111111010011
1010010000
11100000
1111111001011110
1111111100101011
1111111000110111
10011010
101110101
1111111111000011
1111111111011001
1000000
11001011
10111011
10100001
10101101
11000010
101000010
111110001
11010001
1111111101010011
10011111
11001
1111111111000101
100000001
1111111100000110
1111110110011101
1111110111100010
1111111110100110
110010111
10010110000
1011011001
11000
1111111111010001
101001
101110000
11010
1111111111100110
1111111110001101
101011
11011101
1111100
11001110
100010011
10010001
101001110
101000001
110
1111111110101100
111011111
1111111111100111
1111111101111001
1111111100110100
1111111000010100
1111111101100001
1111110100110001
1110001
101111001
1000110101
101111011
111000010
1111111110101001
10101110
1111111111001100
11000010
1111111110011110
1111110111100101
10110000
11111100
1111111111100111
10100111
10011
10111100
1000101
10100100
1111111110111000
1111111111110100
11111001
1100011
1111111010010010
1111110100011101
1111110110100001
1111110111100100
1111110101001001
1111111001110010
10100001
101001010
110011101
1011011000
1010000
1111111110100001
1111111110010011
1100110
1111111110010111
1111111101000011
1111111101000000
1001101
1111111111011010
1111111100011010
1111111110111011
1111111110111000
1111111100100111
1000110
1000101
1111111110101110
1000000110
11101111
1010001
1111111110110000
1111111011100011
1111111010111011
1111111110011111
1111111111101000
100100100
1000110100
101000101
1000111111
1111111111111001
1111111101000010
10000010
10110000
10101100
1111111001010001
1111111010111101
1111111110101101
1111111100110101
1111111101110010
1111111110010111
101011
1111111110111000
1111111110010011
1111111110001011
10110011
110001001
1111111101011010
11100010
1101100
1111111011111001
1111111110100100
1111111101100001
1111111011000100
10011111
1010001
110011011
1000101011
101011011
1001010
1011000
1011100
110000
1111111100000001
1111111010011111
1011
1111111100111010
1111111100100000
1111111011010111
1111111101100111
110001
1111111110100011
11011000
101101000
11010100
1111111110001001
1010
1111111110010011
1111111011100101
1111111111011010
1111111100101110
1111111110001111
1111111110101000
1111111110011001
10000110
100000110
1000110
110101000
100011000
1111111111000001
1111111101100100
1111111010000111
1111111111010100
1111111111010101
1011000
1111111100101010
1111111011101111
1111111100011001
10110110
1111111110001001
101011111
11100100
1111111111110100
1111111100101010
11101111
1111111111001111
1111111111001001
100011011
1111111110000111
1111111100000111
1111111101011011
1111111100110110
100010
10101110
100000110
100011101
10001011
1111111000101100
1111110111111111
1111110101100100
10100111
101010111
1111111110011010
1111111011101100
1111111001111000
1000
101010001
1111111101000001
1111111110000110
101011111
1001010
1001010
101011001
10001011
1010100111
111000
1111111100011001
1110000
10100100
1111111110010001
1111111100100011
10000101
10000010
110001
1111111100111010
1111111000001001
1111110111010111
1111111010001101
1111111111100101
100110010
1111111110100110
1111111011000001
1111111101001110
1001
100011111
1111111101000000
101110001
1001010010
1000110011
110011011
100000100
100100000
10010001
1111111110010011
1111111100101010
1111111110110101
1111111011011100
1111111001000000
1111111010010101
1111111001000101
1111111010111000
1111111110101101
1111111010011111
1111111010110010
1111110101110100
1111110010010110
10100001
101101000
1111111111000111
100001
101011100
10000001
111000
1111111110110100
1000110101
1010110110
101111101
101101101
101111100
111110101
1100100
1111111001001000
1111111000010010
10001
1111111001110010
1111111011101000
1111111100110001
1111111011101110
110010
1111111110010001
1111111011110100
1111111101011010
1111110100100011
1111110111101101
1111111101000010
1111111100000110
1111111101100110
1110100
11111001
11011010
1111111101010100
1111111100000100
100000111
110000100
1010001
100111111
11110011
1011101
1111111001100101
1111110111000010
1111110110100101
1111111100111010
100010001
1111111111010100
1111110110100101
110010
1111111101110110
1111111111110110
1111111010110100
1111111110110011
1111111010100001
1111111010011000
1111111100011000
1111111010101100
10110110
1100100
101110
1111111111101111
1111110111111100
1111111010001110
101110
1001010
11011001
111101011
110101100
10011
1111111000101010
1111110111111011
1111111001010001
100110100
110110010
1111111100101010
1111111101111011
1111111010001000
1111111101010110
1111111110001101
1111111110011111
1111111101010111
1111111011010000
1111111011011000
