1111111111100110
1111111110111101
1111111111010000
1111111101111000
101
10011101
100000110
1111111101010110
1111111011000001
1111110110010100
1111110110111001
1111111101111111
1111111110001011
11101101
111100111
1111111111000010
1111111110111011
101110011
1010000110
1001101110
1001100111
101001101
1111111111110011
1111111101110000
1111111101101100
1010101
10110
1111111010111110
1111111110101000
1111111110110111
1111111111010110
1111111111010010
100010
1110011
111010
11100
1111111100010001
1111111001100001
1111111000111010
1111111010101010
1111111010010101
1100010
110001011
10011
1111111011010001
1111111111110000
110010110
1001001101
1000010100
101010111
11100110
1111111011110101
1111111100010111
110
1111111101001101
1111111100111100
1111111110111010
1111111111110101
1111111111010100
111011
1001010
11100110
1111111110010011
1111111100110100
1111111011100110
1111110100110000
1111111100100110
1111111011100101
1111111100111100
111
1111111111100001
1111111100111110
1111110010100001
1111111101110110
111100100
101000110
110101000
1111111110011100
1111111111111010
10010100
1111111110111000
10001111
1111111111010100
1111111011011000
100010
110100
1111111110100110
110010
1111111110100000
1011111
1111111110001010
1111111101011000
1111111001110101
1111110111001111
1111111001100111
0
1111111101111010
1001011
1111111001110001
1111111101101100
1111110001111000
1111111000000100
1111111100001001
1111111111100001
11000100
1111111010001111
1111111110111110
10010011
1111
1111111111011000
1111111110101000
1111111111110010
100110
1111111110100000
1
101110
10001
1001011
1111111001101000
1111111010000110
1111111100001001
1111110011001100
1111111000101110
1111111110101111
11010010
11111
1111111011100101
1111111000001110
1111110011000010
1111110100111110
1111110111101100
1111111011010010
1111111100101100
1111111010010100
1111111111010101
1111111110000100
11000100
1111111111001001
1111111110111001
1000001
100011
1111111100101111
10101
1111111101110001
1111111111110100
11000
1111111101011110
1111111111100010
1111111101101001
1111110010111101
1111111010110101
1111111100001000
110010111
1011001
1111111101001110
1111111011001101
1111110110110011
1111111110010100
1111110
1111111111101001
1111110101101010
1111111010000011
1111010
1111111101011001
111001111
1000000
1111111100111011
1111111100100111
1111111111111011
1111111101010110
10000100
111011
1111111101100100
1111111111000011
1111111100000011
1111111010101010
1111111000011000
1111110111010011
1111111101011111
1111111111011001
10001101
11
1111111011101000
1111111101010111
1111111111011111
1111111111111000
101010111
1011001
1111111010001011
1111111100011001
1000000
11101011
100001100
1111111111001111
1111111011011011
1111111100111000
1111111111011010
110000
1111111111001011
1111111101100110
1111111110011111
1111111110111001
1111111100100100
1000001
1111111110011010
1111111100111111
10010000
1111111101101100
1111111101111011
1111111011100111
1111111000100110
1111111001010000
1111111010110000
1111111001000111
1111111110100100
1111111110011000
1111110011010100
1111111111101101
101010001
11010001
100011010
1111111111010011
1001
1111111101011010
1111111101011011
1111111111111000
101001
1111111101011000
1111111110101001
11110101
1111111100111100
10001010
1001011111
101001000
10011010
1111111110000111
1111111110011111
1111110111011010
1111111011100000
1111110110100100
1111111000111111
1111111010100100
1111111111011101
111011
110100
11101100
1101100
11010101
1010011011
100100001
11001011
1111111100101010
1111111111111110
10111111
1111111101100010
1111111111010110
10000100
1111
1111111011100001
100110110
111001110
1010010000
101111000
1111111111101011
100000110
1111111110100111
11010110
11100000
1111111111110001
101100
10100001
11100001
100101110
1001001101
100110111
11110011
101011110
111111110
101001110
110000
1000111
1100001
100110
1111111110110110
10010110
1111111111100000
1111111001111011
1111111111010010
111000010
1100100110
1000101111
110011011
1001000
1111111001001110
1111111111111000
10011111
1111111000011101
1111111001000011
101100010
101001
1111111011100100
101001101
1101001000
111010101
11111011
110110101
111010011
11010
10010110
11101011
1111111111011110
1111111110010101
1111111110001010
1111111111100110
1111111010011010
1111111110100100
110110110
1101111101
1110011110
1001001100
101000011
1001
1111110011111000
1111111100101111
1111110111111011
1111110110001011
1111110000110101
1111111011101111
100100001
1000100101
11001111
1000001111
11101101
11001101
11110010
1111111111100001
1111111101110000
1001001
1111111010100011
1111111010111100
1111111100011000
1111111100000100
1111111111010100
1111110111100011
11010010
1111110000
10000001010
1000011101
111101111
1101101
1111111000111101
1111111010100101
111000
11001
1111110100110011
1111111101100110
110010000
1000100000
1111111101100100
110000111
100101
1111101
1111111111001111
1111010
1111111011010100
1111111100001111
1111111001011110
1111111011111110
1111111001010100
1111111100110011
1111111101111010
1111110111101010
10010
1000000101
1000000001
1001110011
11010100
11111
1111010
1111110111001100
1111111111101001
10110
1111111000010000
1111111111000101
1111111111010001
1111111011110101
1111111001101110
11010
1111111111011000
101000000
1111111100110101
1111111111111110
1111111000001101
1111111101011101
1111111011010100
1111111011100100
1111111001100100
1111111011101101
1111111100101101
1111111011000111
1111111110000101
1111111111010101
11101001
11010110
1111111100111100
11111010
111000110
110
100111100
101011110
1111111110101010
1111110101110011
1111111010011001
1111111011011111
1111111011001001
1111111011000001
1111111111100000
1111111011000100
1111111101011000
1111111110001001
1111110111110010
1111111101011100
1111111001001010
1111111111110011
1111111100110110
1111111010010101
1111111010100011
1111111010010101
1111111101001111
11010000
11011101
1111111101010011
1111111000001010
1111110110110011
110000011
110011011
111110000
101101011
1010001
1111110010100000
1111111001001001
1111111111011111
1111111101010000
111010
1001111
1111111011100110
1111111110001111
1111111010100010
1111111001101000
1111111100100101
1111111011000010
1111111111110100
1111111100110000
1111111011000111
1111111101011100
1111111001000011
1111111111000100
1100110
1111111011110010
1111111010101000
1111111100000010
1111111011100100
110101101
10111001
1001000111
111011011
1111111100100011
1111101101000011
1111110111011111
1111111001001101
1111111110010110
1111111111101010
1111111011110010
100000
1111111101001001
1111111100010111
1111111010100010
1111111101101000
1111111101101011
1111111111001110
1111111100001011
1111111010111010
1111111101011010
1111111110110100
11011101
101101101
1111111000000011
1111111111100100
11
1100
100010101
1111111111010110
1000010001
1111000
1111111101111000
1111111000010010
1111110101010101
1111110101010001
1101001
1111111101111000
1111111111000010
100111101
1111111111100110
10110100
1111111101111000
1111111111011111
1111111100001110
1111111110011110
1000111
1111111111111000
100001
100011101
1110011
11101111
1111111100000101
1111111001010011
100100100
1011101111
1011101110
111001000
1001111101
1000000110
1111111001011001
1111111001101010
1111110110100101
1111110100001110
1111111001010111
1111100
100011101
1111111111011101
1111111101000111
111001
10111001
1000001
10010101
110100001
101000000
1101100
11110111
110010011
1111111111010001
1101010
1111111011111000
1111111010111100
1111111101011010
10001110
1000001001
11100010
100100001
111000101
1111111001101001
1111110110011110
1111111100011001
1111111001011000
1111111100000111
100101111
1000101
1111111100101110
1111111001111101
1110
10011111
11110
11110101
10110011
11101011
10100110
100100000
1001010111
10000110
1011
1111111110010101
1110100
1111111101101111
1111111110001110
1010001
100110001
1000100010
1011011101
110010
1111111011111110
1111111001101000
1111111010111011
1111111111011011
1111111011100001
10110010
1111111110110101
1111111100111110
10100
1110001
10000100
101011101
100100110
101100110
1001010
111011111
1000001110
1111111111100010
1111111011101110
1101111
1000001100
1000101100
100001101
1010100100
110000101
1100101100
1100111110
101011101
1100
1111111010111101
1111111110001100
1111111011000110
1111111010101001
1111111011010101
1111111101010001
1111111111011000
11110111
0
11010101
1100010
110001010
101100100
1000101
111111011
101001000
1101010
1111111110100001
1111010
1001010000
101101001
1010100100
101111100
100000101
11101101
100110101
101100100
100001000
1111111100111001
1111111101110101
1111111101011010
1111111001110000
1111111101111101
10011011
11011110
100011110
100
1111111111100010
1011100
101011111
11010110
1111111101111010
1011000
10111010
100010111
11110000
11100111
111000011
1000111
11110010
1111111100000110
11000101
100101100
1111111111111011
1111111110111011
11101010
1101110
1111111101000010
1111111101101100
1111111000101110
11110
11000000
11110011
111010010
1001001
1111111110111011
10111010
1111111110001011
1111111101100111
1111111110011101
1111111111101101
1111111111100110
1000011
1111111100010101
1111111111011001
1000110
1011110
1111111010011010
1111111011111001
111001
10010001
1111111000000101
1111111110100111
100000110
1000011
101110011
1110110
1111111011101111
1111111101000010
100011001
1000011100
1100110101
1111111111001010
1111111110110100
1111111100110010
1111111010010010
1111110101010001
1111110111011000
1111111110010101
1111111101111000
1111111110000001
1111111100010110
11111010
1011101
1010110
1111111010001011
1111111011000100
0
1111111101110110
1111110110010100
10100101
1111111111110101
1101000
101101100
1111111111000010
1111111000011100
1111111111001100
10010010
110100110
1101011
1011010
100110101
1111111100101000
1111111010011111
1111110111001101
1111111001010011
100011101
1111111101110010
1111111011001000
1111111111110011
101001011
1000011
1111111111000100
1111110110111010
1111111011101000
1111001
1111110111111110
1111111101101110
1111111011100101
1111111101101011
111111111
10011001
1111111100111011
1111111101010010
10111
1111111111110000
1000000
10101
101001101
100000110
1010011
1111111001101011
1111111100100110
11101
11000110
101101000
1111111111101101
101
0
1111111001110110
1111110011100010
1111110110110110
1111111011001111
1111111000001110
1111111010010100
1111111010000001
1111110101111000
1110000
11101011
11101100
11100011
1111111101110010
1111111101000100
100
1001001
1111111010010010
