1111111010001111
1111101111111001
10000001
1001001110
1111110011001101
1001111111
1111111000001101
1010010111
1111111010100010
1111110001001010
1111110110101111
1111110101111000
1010001001
1100100
10111000
1111111001001101
1111110100001011
111110101
1111111011101000
1111110110101001
1111110110
1111110100000010
1111111010110110
111110010
11011100
110101001
1111110111111101
101101011
110111101
1111101010111111
1111111011111011
1100011010
1011000001
1111110111001011
10110011
1000000101
1111110110000100
1111110111011100
10000001110
1111111001011011
1111111010001110
1111111111000001
1111111011011100
10000000101
1111111000011000
1000010000
1111110101010100
1111111101110100
101111011
1111111001011000
1111110110000101
1000101110
1111111010111001
1000001000
1000111000
1111110011011101
1111111100000000
1111111001000011
110101110
101001001
1101101001
1111111110010001
1111110100001011
1111110101011100
1111111111001111
1111111111110001
1111111000111101
10101011100
1001101
110101111
1111111001000100
1111110110111110
1111111001001011
1110000000
1011010
11010000
10010000
10001000
110000000
1111110000101001
110010110
1111111000100011
1111110110001100
101001110
1111110110111000
11110101
10111001
1111110100011001
1111110010011001
110001000
1111110010011100
10010101000
1101000
110110
1010010110
11101100
10010000011
1011011111
1010110100
100001010
1111111100010000
10001011
1111110101101001
1111110101110100
1010
1111110111111011
111001010
1010011010
111100111
1111101110111011
101101100
1111110011011100
1001011101
1111111001111011
1111111101001101
1111111010001100
100111001
1111101011100110
1111111110111001
10100100011
1111110000001101
101010000
1000001
10000000
100001110
110010100
1111111101010010
1000001111
