1111111000110100
1111101001001101
11001
1000010001
1111111100000101
1010101010
10110000
1010001010
1111111100011011
1111111001010101
101010100
1111111100100100
100011101
101010100
101101011
1111111011010000
101101
1011101000
10001001
1111110011010111
1110101001
1111111000111100
110000000
101111010
1101001100
101000001
1111111110100110
111101110
111001010
1111100101010001
1111110011111110
1111111100101000
1011010111
1111111010110010
1100011
11011001
1111111001011011
1111111001011101
1111101
1111111111000011
1111110010010101
1111111110011111
1111111000010110
10101111111
1111110111110011
11010101
1111111000000101
1111110110011100
1011011010
1111111100011100
1111111010011011
1010010000
1011011
10110110100
1100101011
1111110111011101
1111110111000011
1111111101000010
10010101011
1100000000
1000000100
1111111110111111
100011001
1111111000101001
111100011
1111110111110000
1111110111001000
1011110101
1001110111
1011001101
1111110101001000
1111111110010000
1111110111110111
1010101001
100001110
110000101
1111111100111000
1111110110110010
1010101111
1001001
10001101011
1111110001101001
1111111110110101
10111010011
1111111011011001
100011
1110010010
1111111110100011
1101111
111111111
1111110000100001
10101001011
1011111001
111011000
110111101
1111111100100001
1101010010
1110101010
110000100
1000001111
1111110010101110
1101101001
101000101
1111110110011100
1111111010000101
1111110111110011
1001101100
101010
10000111011
1111110010111110
1110000011
1111111011101001
110100100
1111110111001101
1111111010111100
1111111100101111
100001011
1111111111110100
1111111010100000
111111011
1111111001001000
1001000011
101011100
1111111100000001
110010000
101111101
1111111011010001
111101100
