1111101011100010
1111110101011010
1100100010
1111110110101111
1111110111000101
1100011011
101001110
1111110001111001
1111111010100100
10000100010
1000000000
111101
10010011
1111110011101000
1111111001110111
1011001000
1010110
1111111011010011
111010001
101101101
1111111110001010
110101000
10110011111
1111110001000000
1111110101010111
11111
1111111100000001
1111111111000001
1111111110001110
1111101000000101
1101111010
1111111000010100
101010
110101111
1111101101010110
101001
1011011001
1111111011000101
1011000100
1111111000001001
1010000000
1000011001
1111111001100010
1101011001
1111101101010001
1111111
1111111001111010
100110010
1111110000001001
1001111111
110101110
110110100
1100001111
100101011
1111111011111000
1111111110100111
1111110100110000
1111110011011011
11100011
100011011
1111111100110001
1000000111
110101110
1111110111001101
1001011011
1010100110
1111111100101011
1111110111100000
1111111001111010
1111111101010100
110111101
1001010100
1111110101110100
1111110011010100
1111110010101110
1111110001100011
1001101010
1111111111010010
1111111100011101
1101101001
1111111001010000
1111111100110110
1111111001100100
1101110111
1111111010110100
1101001100
1111111000101101
1111111110100011
111001111
1110000
1111111110010010
1111100111110011
10101111
1111110011111011
1001010010
1111101101000011
1111110100001101
1111111001000001
1111110110010110
1111111100000101
1010101010
1100000
1110001111
1111111111011001
11111011
11110100
10011111
100001
1111110000110001
1111111110001001
1000001
10110110101
100110
101010010
100011110
101100110
1111110011100111
1101111100
10000110
1111110000001001
1111110111110110
1111111000011111
1110110111
1111111101101110
1111111001110100
1111111101111000
1111110000011101
100101011
