1111110111100111
1111011010100100
1011111110
1111100100001000
101001001001
1111111001110001
1111110001100100
1111101011000111
10110010011
1110111
1111111010011000
111100010
1111100001
1111111110011110
10010011000
1111111110100100
1111110000110010
10010010010
11000100010
1111111110111100
11110111110
10100111100
11110110
11011011
1111110010001010
1111110110100110
1111110001001100
1111110100000111
1111110100011111
1111100000011010
1111101101101001
1110100
1111111110001110
110011100
1111100110000100
1111111001111000
1111111101011100
101110001
1111110111111000
1111110011111110
1111111001111010
1001001100
1111111111110010
1111100111011001
1111110001111110
1000000101
1111000110
10011010101
10101100111
1111111010001100
1101101
1111010010
1111111101100100
111101111
10
1111110100000101
100100011
1111111001110100
101001000
1111100101001111
1111001010010101
1001000111
111110
1111111000100010
