1111101000011111
1111010000011101
1101010011
1111011101111101
101001101101
1111111001000111
1111101011000100
1111110001100101
1101110111
110100011
1111101111001000
1111101110011001
10110010
1101111101
1110010001
1111111101010001
1111100100110110
11001000000
100000010011
1001101
11001001010
11011011010
1001000101
1101010101
1111100000100011
1111110100111001
1111101100111000
1111110101011010
1111111110011110
1111000110001001
1111101010111101
111000111
1111110110111101
1111111100100110
1111011111001000
1111111001001010
1111110110010001
10101100
1111110110000111
1111101110111110
1111110100101111
110110011
1111111110111011
1111010110111001
1111110010011010
1000110110
10010011000
10000110011
111001111
1111110101001111
1100000101
10010001110
111101
111010100
1000100
1000011
1111111111001001
100011001
1010
1111100111111010
1111001101001001
10000110111
1110111101
1101001
