100001101
1111111011101101
11110101001
1111111101000111
101110100101
1110110100
1111110110100100
111101111
1111110011001101
1010000011
1111111011111100
110000110000
1111111010000010
1000111001
1111110010001000
1001010110
1111111000100110
1100000101
1011001011
1111111110100010
1010100010
101010011000
1111100101011010
100010010
101010101
1111110111111010
10000101
1111111100010011
111000
1000100010
1111111010110011
1111011001000100
1111100111101000
1111101111100011
1010
1111110010101111
10000000101
1111111001100101
1111011100111100
1111111010010010
1111110100101000
1111111111010110
1111110111101101
10101010
1111100001000010
1111111110100100
1111110010000001
10110000
100100000111
1111111101011100
11000111110
1111101111101101
10000011010
1111101000111000
11001110000
1111101001111011
1111110011011000
1111101110110101
1111001110
1111110111001011
1111110101110010
10101100010
100101100
1111110110010111
